{
  "version": "1.0",
  "truncation": null,
  "padding": null,
  "added_tokens": [
    {
      "id": 0,
      "content": "[UNK]",
      "single_word": false,
      "lstrip": false,
      "rstrip": false,
      "normalized": false,
      "special": true
    },
    {
      "id": 1,
      "content": "[PAD]",
      "single_word": false,
      "lstrip": false,
      "rstrip": false,
      "normalized": false,
      "special": true
    },
    {
      "id": 2,
      "content": "[BOS]",
      "single_word": false,
      "lstrip": false,
      "rstrip": false,
      "normalized": false,
      "special": true
    },
    {
      "id": 3,
      "content": "[EOS]",
      "single_word": false,
      "lstrip": false,
      "rstrip": false,
      "normalized": false,
      "special": true
    },
    {
      "id": 4,
      "content": "[SEP]",
      "single_word": false,
      "lstrip": false,
      "rstrip": false,
      "normalized": false,
      "special": true
    }
  ],
  "normalizer": null,
  "pre_tokenizer": {
    "type": "ByteLevel",
    "add_prefix_space": false,
    "trim_offsets": true,
    "use_regex": true
  },
  "post_processor": null,
  "decoder": {
    "type": "ByteLevel",
    "add_prefix_space": true,
    "trim_offsets": true,
    "use_regex": true
  },
  "model": {
    "type": "BPE",
    "dropout": null,
    "unk_token": "[UNK]",
    "continuing_subword_prefix": null,
    "end_of_word_suffix": null,
    "fuse_unk": false,
    "byte_fallback": false,
    "ignore_merges": false,
    "vocab": {
      "[UNK]": 0,
      "[PAD]": 1,
      "[BOS]": 2,
      "[EOS]": 3,
      "[SEP]": 4,
      "!": 5,
      "\"": 6,
      "#": 7,
      "$": 8,
      "%": 9,
      "&": 10,
      "'": 11,
      "(": 12,
      ")": 13,
      "*": 14,
      "+": 15,
      ",": 16,
      "-": 17,
      ".": 18,
      "/": 19,
      "0": 20,
      "1": 21,
      "2": 22,
      "3": 23,
      "4": 24,
      "5": 25,
      "6": 26,
      "7": 27,
      "8": 28,
      "9": 29,
      ":": 30,
      ";": 31,
      "<": 32,
      "=": 33,
      ">": 34,
      "?": 35,
      "@": 36,
      "A": 37,
      "B": 38,
      "C": 39,
      "D": 40,
      "E": 41,
      "F": 42,
      "G": 43,
      "H": 44,
      "I": 45,
      "J": 46,
      "K": 47,
      "L": 48,
      "M": 49,
      "N": 50,
      "O": 51,
      "P": 52,
      "Q": 53,
      "R": 54,
      "S": 55,
      "T": 56,
      "U": 57,
      "V": 58,
      "W": 59,
      "X": 60,
      "Y": 61,
      "Z": 62,
      "[": 63,
      "\\": 64,
      "]": 65,
      "^": 66,
      "_": 67,
      "`": 68,
      "a": 69,
      "b": 70,
      "c": 71,
      "d": 72,
      "e": 73,
      "f": 74,
      "g": 75,
      "h": 76,
      "i": 77,
      "j": 78,
      "k": 79,
      "l": 80,
      "m": 81,
      "n": 82,
      "o": 83,
      "p": 84,
      "q": 85,
      "r": 86,
      "s": 87,
      "t": 88,
      "u": 89,
      "v": 90,
      "w": 91,
      "x": 92,
      "y": 93,
      "z": 94,
      "{": 95,
      "|": 96,
      "}": 97,
      "~": 98,
      "¡": 99,
      "¢": 100,
      "£": 101,
      "¤": 102,
      "¥": 103,
      "¦": 104,
      "§": 105,
      "¨": 106,
      "©": 107,
      "ª": 108,
      "«": 109,
      "¬": 110,
      "®": 111,
      "¯": 112,
      "°": 113,
      "±": 114,
      "²": 115,
      "³": 116,
      "´": 117,
      "µ": 118,
      "¶": 119,
      "·": 120,
      "¸": 121,
      "¹": 122,
      "º": 123,
      "»": 124,
      "¼": 125,
      "½": 126,
      "¾": 127,
      "¿": 128,
      "Â": 129,
      "Ã": 130,
      "Ä": 131,
      "Å": 132,
      "Æ": 133,
      "Ç": 134,
      "È": 135,
      "É": 136,
      "Ë": 137,
      "Ì": 138,
      "Î": 139,
      "Ï": 140,
      "Ð": 141,
      "Ñ": 142,
      "á": 143,
      "â": 144,
      "ã": 145,
      "è": 146,
      "ï": 147,
      "ð": 148,
      "Ġ": 149,
      "Ģ": 150,
      "ģ": 151,
      "Ĥ": 152,
      "ĥ": 153,
      "Ħ": 154,
      "ħ": 155,
      "Ĩ": 156,
      "ĩ": 157,
      "Ī": 158,
      "ī": 159,
      "Ĭ": 160,
      "ĭ": 161,
      "Į": 162,
      "į": 163,
      "İ": 164,
      "ı": 165,
      "Ĳ": 166,
      "ĳ": 167,
      "Ĵ": 168,
      "ĵ": 169,
      "Ķ": 170,
      "ķ": 171,
      "ĸ": 172,
      "Ĺ": 173,
      "ĺ": 174,
      "Ļ": 175,
      "ļ": 176,
      "Ľ": 177,
      "ľ": 178,
      "Ŀ": 179,
      "ŀ": 180,
      "Ł": 181,
      "ł": 182,
      "Ń": 183,
      "Ġt": 184,
      "Ġa": 185,
      "in": 186,
      "re": 187,
      "he": 188,
      "on": 189,
      "at": 190,
      "en": 191,
      "Ġthe": 192,
      "Ġo": 193,
      "Ġs": 194,
      "er": 195,
      "ed": 196,
      "Ġc": 197,
      "Ġp": 198,
      "es": 199,
      "al": 200,
      "Ġin": 201,
      "ti": 202,
      "Ġw": 203,
      "Ġof": 204,
      "or": 205,
      "Ġan": 206,
      "is": 207,
      "Ġf": 208,
      "an": 209,
      "Ġm": 210,
      "ro": 211,
      "it": 212,
      "Ġd": 213,
      "Ġb": 214,
      "Ġand": 215,
      "as": 216,
      "ic": 217,
      "ar": 218,
      "ing": 219,
      "ion": 220,
      "Ġre": 221,
      "le": 222,
      "Ġe": 223,
      "Ġto": 224,
      "ent": 225,
      "el": 226,
      "ation": 227,
      "us": 228,
      "Ġth": 229,
      "ec": 230,
      "om": 231,
      "Ġ(": 232,
      "Ġn": 233,
      "ac": 234,
      "Ġh": 235,
      "ul": 236,
      "tion": 237,
      "ly": 238,
      "ĠT": 239,
      "et": 240,
      "Ġg": 241,
      "ere": 242,
      "os": 243,
      "Ġl": 244,
      "id": 245,
      "ur": 246,
      "ol": 247,
      "im": 248,
      "ve": 249,
      "un": 250,
      "ith": 251,
      "ig": 252,
      "Ġfor": 253,
      "ot": 254,
      "Ġwith": 255,
      "Ġpro": 256,
      "Ġst": 257,
      "Ġcon": 258,
      "ce": 259,
      "res": 260,
      "il": 261,
      "if": 262,
      "Ġis": 263,
      "ter": 264,
      "Ġas": 265,
      "Ġex": 266,
      "ab": 267,
      "ut": 268,
      "ow": 269,
      "am": 270,
      "Ġthat": 271,
      "uc": 272,
      "Ġv": 273,
      "Ġbe": 274,
      "ated": 275,
      "ĠA": 276,
      "Ġal": 277,
      "Ġ1": 278,
      "Ġon": 279,
      "od": 280,
      "um": 281,
      "ts": 282,
      "Ġwere": 283,
      "Ġwas": 284,
      "ĠThe": 285,
      "ri": 286,
      "st": 287,
      "qu": 288,
      "ĠC": 289,
      "ĠI": 290,
      "ir": 291,
      "se": 292,
      "ain": 293,
      "oc": 294,
      "ver": 295,
      "ĠS": 296,
      "ted": 297,
      "Ġ.": 298,
      "ity": 299,
      "ell": 300,
      "ate": 301,
      "Ġby": 302,
      "rom": 303,
      "her": 304,
      "tic": 305,
      "ud": 306,
      "Ġcom": 307,
      "ment": 308,
      "Ġgen": 309,
      "Ġare": 310,
      "ati": 311,
      "Ġr": 312,
      "ad": 313,
      "Ġor": 314,
      "op": 315,
      "ay": 316,
      "ag": 317,
      "Ġse": 318,
      "ĠP": 319,
      "Ġus": 320,
      "em": 321,
      "Ġac": 322,
      "Ġres": 323,
      "th": 324,
      "Ġexp": 325,
      "og": 326,
      "ure": 327,
      "Ġ2": 328,
      "Ġfrom": 329,
      "up": 330,
      "ĠM": 331,
      "Ġat": 332,
      "ant": 333,
      "ap": 334,
      "ess": 335,
      "Ġcomp": 336,
      "ĠH": 337,
      "vel": 338,
      "aa": 339,
      "ore": 340,
      "Ġde": 341,
      "te": 342,
      "Ġch": 343,
      "Ġcell": 344,
      "ress": 345,
      "ub": 346,
      "ers": 347,
      "Ġwh": 348,
      "00": 349,
      "ical": 350,
      "ĠF": 351,
      "ies": 352,
      "ist": 353,
      "ase": 354,
      ").": 355,
      "ff": 356,
      "ran": 357,
      "pl": 358,
      "pec": 359,
      "ign": 360,
      "Ġsh": 361,
      "Ġinc": 362,
      "ine": 363,
      "ĠD": 364,
      "und": 365,
      "ents": 366,
      "orm": 367,
      "ence": 368,
      "Ġnot": 369,
      "Ġcont": 370,
      "ug": 371,
      "Ġpre": 372,
      "por": 373,
      "Ġstud": 374,
      "igh": 375,
      "iz": 376,
      "ĠB": 377,
      "ations": 378,
      "ous": 379,
      "âĢ": 380,
      "Ġle": 381,
      "ific": 382,
      "Ġim": 383,
      "ĠR": 384,
      "di": 385,
      "ĠE": 386,
      "yp": 387,
      "Ġwe": 388,
      "ĠIn": 389,
      "Ġad": 390,
      "Ġthis": 391,
      "ys": 392,
      "ther": 393,
      "fere": 394,
      "Ġha": 395,
      "Ġper": 396,
      "feren": 397,
      "are": 398,
      "Ġhe": 399,
      "duc": 400,
      "ib": 401,
      "Ġco": 402,
      "est": 403,
      "Ġ[": 404,
      "Ġdif": 405,
      "Ġen": 406,
      "ĠN": 407,
      "Ġne": 408,
      "ch": 409,
      "Ġcl": 410,
      "tions": 411,
      "Ġhave": 412,
      "ved": 413,
      "ĠG": 414,
      "iti": 415,
      "Ġ3": 416,
      "ge": 417,
      "Ġass": 418,
      "rans": 419,
      "and": 420,
      "Ġpar": 421,
      "Ġdat": 422,
      "ich": 423,
      "),": 424,
      "Ġit": 425,
      "Ġap": 426,
      "ĠW": 427,
      "Ġinf": 428,
      "Ġint": 429,
      "Ġdis": 430,
      "able": 431,
      "etw": 432,
      "SE": 433,
      "act": 434,
      "ip": 435,
      "ally": 436,
      "Ġcan": 437,
      "ach": 438,
      "Ġdifferen": 439,
      "enti": 440,
      "lec": 441,
      "NA": 442,
      "vi": 443,
      "Ġcells": 444,
      "ari": 445,
      "vid": 446,
      "Ġanal": 447,
      "ome": 448,
      "Ġtrans": 449,
      "SEP": 450,
      "ect": 451,
      "age": 452,
      "ens": 453,
      "Ġpati": 454,
      "enc": 455,
      "Ġ0": 456,
      "Ġsign": 457,
      "ary": 458,
      "Ġshow": 459,
      "Ġreg": 460,
      "Ġwhich": 461,
      "tein": 462,
      "Ġinter": 463,
      "ost": 464,
      "ors": 465,
      "Ġab": 466,
      "ph": 467,
      "ding": 468,
      "Ġall": 469,
      "olog": 470,
      "ression": 471,
      "Ġob": 472,
      "een": 473,
      "ast": 474,
      "Ġgro": 475,
      "Ġdi": 476,
      "Ġsub": 477,
      "ak": 478,
      "etween": 479,
      "Ġk": 480,
      "ĠL": 481,
      "pro": 482,
      "cri": 483,
      "Ġbetween": 484,
      "Ġcons": 485,
      "ue": 486,
      "ance": 487,
      "tiv": 488,
      "Ġmod": 489,
      "Ġ5": 490,
      "ĠO": 491,
      "ates": 492,
      "Ġstudy": 493,
      "Ġdata": 494,
      "ia": 495,
      "ple": 496,
      "Ġwhe": 497,
      "ong": 498,
      "Ġprotein": 499,
      "ative": 500,
      "Ġeff": 501,
      "ased": 502,
      "Ġsy": 503,
      "our": 504,
      "Ġme": 505,
      "uld": 506,
      "Ġthese": 507,
      "Ġstr": 508,
      "Ġun": 509,
      "ĠTh": 510,
      "âĢĵ": 511,
      "pt": 512,
      "Ġpl": 513,
      "pon": 514,
      "Ġmet": 515,
      "so": 516,
      "Ġrec": 517,
      "Ġsam": 518,
      "ular": 519,
      "dic": 520,
      "Ġspec": 521,
      "Ġ4": 522,
      "ill": 523,
      "ied": 524,
      "Ġanalys": 525,
      "Ġresul": 526,
      "Ġdet": 527,
      "Ġgene": 528,
      "oci": 529,
      "Ġused": 530,
      "Ġ=": 531,
      "Ġsc": 532,
      "wo": 533,
      "Ġbeen": 534,
      "all": 535,
      "Ġpos": 536,
      "Ġpatients": 537,
      "Ġusing": 538,
      "erm": 539,
      "ose": 540,
      "tim": 541,
      "Ġalso": 542,
      "ory": 543,
      "ven": 544,
      "ugh": 545,
      "end": 546,
      "Ġph": 547,
      "ep": 548,
      "Ġrel": 549,
      "Ġother": 550,
      "Ġthan": 551,
      "Ġam": 552,
      "ear": 553,
      "val": 554,
      "Ġsequ": 555,
      "reat": 556,
      "ely": 557,
      "ight": 558,
      "Ġhas": 559,
      "ree": 560,
      "form": 561,
      "ae": 562,
      "resent": 563,
      "tive": 564,
      "str": 565,
      "tr": 566,
      "Ġgenes": 567,
      "Ġtwo": 568,
      "rol": 569,
      "lud": 570,
      "port": 571,
      "ĠÎ": 572,
      "Ġy": 573,
      "Ġlevel": 574,
      "ound": 575,
      "Ġmore": 576,
      "Ġsignific": 577,
      "Ġmay": 578,
      "ren": 579,
      "Ġdes": 580,
      "ĠU": 581,
      "unc": 582,
      "Ġvari": 583,
      "ber": 584,
      "Ġcor": 585,
      "ual": 586,
      "Ġincre": 587,
      "Ġgroup": 588,
      "Ġnum": 589,
      "Ġexpression": 590,
      "Ġ,": 591,
      "ath": 592,
      "Ġeach": 593,
      "uch": 594,
      "Ġqu": 595,
      "ial": 596,
      "ass": 597,
      "Ġtheir": 598,
      "oth": 599,
      "tional": 600,
      "ulation": 601,
      "ected": 602,
      "ility": 603,
      "The": 604,
      "Ġid": 605,
      "alth": 606,
      "ser": 607,
      "oll": 608,
      "Ġacc": 609,
      "out": 610,
      "Ġpr": 611,
      "Ġsignificant": 612,
      "Ġone": 613,
      "ases": 614,
      "Ġactiv": 615,
      "Ġtr": 616,
      "Ġman": 617,
      "Ġpo": 618,
      "ĠThis": 619,
      "Ġanalysis": 620,
      "Ġno": 621,
      "Ġbut": 622,
      "ard": 623,
      "aus": 624,
      "ever": 625,
      "Ġmodel": 626,
      "Ġsim": 627,
      "Ġtim": 628,
      "ues": 629,
      "ew": 630,
      "tain": 631,
      "ype": 632,
      "one": 633,
      "fter": 634,
      "Ġmic": 635,
      "Ġhigh": 636,
      "Ġar": 637,
      "Ġval": 638,
      "Ġrep": 639,
      "Ġanti": 640,
      "ution": 641,
      "Ġinv": 642,
      "Ġrespon": 643,
      "Ġinclud": 644,
      "Ġdist": 645,
      "ail": 646,
      "ik": 647,
      "Ġover": 648,
      "iss": 649,
      "Ġout": 650,
      "entif": 651,
      "rib": 652,
      "ive": 653,
      "Ġmeth": 654,
      "ures": 655,
      "ined": 656,
      "ges": 657,
      "Ġnumber": 658,
      "tal": 659,
      "ating": 660,
      "Ġdifferent": 661,
      "ite": 662,
      "ects": 663,
      "Ġsur": 664,
      "Ġfunc": 665,
      "yl": 666,
      "Ġcontrol": 667,
      "Ġassoci": 668,
      "Ġund": 669,
      "ork": 670,
      "ould": 671,
      "Ġboth": 672,
      "Ġonly": 673,
      "ized": 674,
      "vely": 675,
      "Ġpartic": 676,
      "ces": 677,
      "ection": 678,
      "Ġ6": 679,
      "Ġfact": 680,
      "Ġmo": 681,
      "mun": 682,
      "velop": 683,
      "tern": 684,
      "Ġsp": 685,
      "Ġhealth": 686,
      "ros": 687,
      "ments": 688,
      "Ġag": 689,
      "ult": 690,
      "entr": 691,
      "Ġro": 692,
      "Ġcol": 693,
      "ĠWe": 694,
      "Ġresults": 695,
      "ood": 696,
      "Ġappro": 697,
      "ays": 698,
      "Ġbl": 699,
      "Ġmed": 700,
      "owever": 701,
      "ting": 702,
      "Ġ10": 703,
      "ile": 704,
      "Ġobser": 705,
      "Ġthere": 706,
      "Ġconc": 707,
      "Ġlow": 708,
      "ared": 709,
      "ons": 710,
      "Ġsup": 711,
      "Ġstudies": 712,
      "stem": 713,
      "Ġmeas": 714,
      "de": 715,
      "Ġidentif": 716,
      "ered": 717,
      "Ġsuch": 718,
      "rec": 719,
      "Ġexper": 720,
      "red": 721,
      "aq": 722,
      "Ġour": 723,
      "Ġdevelop": 724,
      "hed": 725,
      "hes": 726,
      "istic": 727,
      "Ġgener": 728,
      "cess": 729,
      "uring": 730,
      "ide": 731,
      "Ġunder": 732,
      "gr": 733,
      "Ġfound": 734,
      "ack": 735,
      "Ġprob": 736,
      "Ġhad": 737,
      "Ġtime": 738,
      "Ġcomple": 739,
      "Ġ200": 740,
      "als": 741,
      "der": 742,
      "ech": 743,
      "Ġafter": 744,
      "ox": 745,
      "Ġchan": 746,
      "les": 747,
      "Ġperform": 748,
      "gen": 749,
      "Ġbi": 750,
      "ogen": 751,
      "Ġtreat": 752,
      "yt": 753,
      "Ġindic": 754,
      "ollow": 755,
      "Ġmethod": 756,
      "rap": 757,
      "Ġset": 758,
      "Ġexam": 759,
      "ions": 760,
      "ants": 761,
      "duced": 762,
      "uct": 763,
      "Ġuse": 764,
      "arg": 765,
      "ilar": 766,
      "inding": 767,
      "acter": 768,
      "per": 769,
      "Ġser": 770,
      "aG": 771,
      "Ġet": 772,
      "ild": 773,
      "Ġdec": 774,
      "Ġpresent": 775,
      "ism": 776,
      "inal": 777,
      "ond": 778,
      "uman": 779,
      "Ġinto": 780,
      "cc": 781,
      "Ġform": 782,
      "Ġcar": 783,
      "ici": 784,
      "own": 785,
      "Ġ7": 786,
      "Ġshown": 787,
      "Ġfollow": 788,
      "ace": 789,
      "Ġlevels": 790,
      "ences": 791,
      "Ġsug": 792,
      "plic": 793,
      "ible": 794,
      "lu": 795,
      "Ġmost": 796,
      "Ġsm": 797,
      "Ġnon": 798,
      "ĠV": 799,
      "Ġmin": 800,
      "Ġrepor": 801,
      "Ġsystem": 802,
      "ough": 803,
      "Ġloc": 804,
      "ĠAl": 805,
      "cer": 806,
      "ition": 807,
      "lic": 808,
      "ause": 809,
      "rel": 810,
      "Ġprovid": 811,
      "Ġpop": 812,
      "ater": 813,
      "Ġ9": 814,
      "Ġdise": 815,
      "Ġthey": 816,
      "ob": 817,
      "Ġmut": 818,
      "Ġes": 819,
      "Ġem": 820,
      "iab": 821,
      "fore": 822,
      "Ġup": 823,
      "yc": 824,
      "irst": 825,
      "Ġsec": 826,
      "ea": 827,
      "aining": 828,
      "vious": 829,
      "Ġhuman": 830,
      "ĠK": 831,
      "Ġtreatment": 832,
      "'s": 833,
      "ization": 834,
      "Ġdef": 835,
      "ological": 836,
      "crib": 837,
      "hen": 838,
      "Ġ19": 839,
      "Ġkn": 840,
      "Ġwell": 841,
      "ulated": 842,
      "Ġduring": 843,
      "old": 844,
      "Ġits": 845,
      "ok": 846,
      "ark": 847,
      "atory": 848,
      "itive": 849,
      "Ġinform": 850,
      "Ġsimilar": 851,
      "Ġthree": 852,
      "Ġwhen": 853,
      "ains": 854,
      "ities": 855,
      "ix": 856,
      "Ġdr": 857,
      "ord": 858,
      "Ġdo": 859,
      "cept": 860,
      "ans": 861,
      "ym": 862,
      "par": 863,
      "ai": 864,
      "Ġexperim": 865,
      "ucle": 866,
      "Ġproteins": 867,
      "Ġmeasure": 868,
      "Ġmon": 869,
      "Ġstat": 870,
      "Ġsequence": 871,
      "Ġcould": 872,
      "Ġ8": 873,
      "Ġaddi": 874,
      "Ġrem": 875,
      "Ġindi": 876,
      "pos": 877,
      "Ġsome": 878,
      "Ġwhere": 879,
      "Ġdeterm": 880,
      "Ġyear": 881,
      "Ġobserved": 882,
      "action": 883,
      "ne": 884,
      "ĠHowever": 885,
      "Ġprim": 886,
      "ĠFor": 887,
      "Ġbec": 888,
      "br": 889,
      "Ġtest": 890,
      "iv": 891,
      "Ġhig": 892,
      "isk": 893,
      "crip": 894,
      "ĠÎ¼": 895,
      "ines": 896,
      "Ġwithin": 897,
      "ric": 898,
      "ature": 899,
      "Ġwho": 900,
      "hib": 901,
      "hem": 902,
      "tit": 903,
      "urther": 904,
      "til": 905,
      "Ġma": 906,
      "Ġstruct": 907,
      "arch": 908,
      "Ġfirst": 909,
      "10": 910,
      "osis": 911,
      "ĠDNA": 912,
      "ently": 913,
      "ize": 914,
      "Ġwill": 915,
      "vidual": 916,
      "Ġpredic": 917,
      "CR": 918,
      "Ġselec": 919,
      "Ġpath": 920,
      "Ġcompared": 921,
      "oun": 922,
      "Ġprevious": 923,
      "ination": 924,
      "Ġimport": 925,
      "fer": 926,
      "Ġposs": 927,
      "Ġev": 928,
      "Ġthose": 929,
      "Ġactivity": 930,
      "Ġreported": 931,
      "qui": 932,
      "duction": 933,
      "Ġsampl": 934,
      "Ġdescrib": 935,
      "ormal": 936,
      "Ġassociated": 937,
      "Ġclin": 938,
      "rough": 939,
      "Ġfr": 940,
      "ery": 941,
      "ited": 942,
      "Ġend": 943,
      "Ġspecific": 944,
      "Ġsame": 945,
      "ale": 946,
      "ium": 947,
      "Ġ\"": 948,
      "Ġhyp": 949,
      "RNA": 950,
      "tained": 951,
      "Ġindividual": 952,
      "ology": 953,
      "ten": 954,
      "mon": 955,
      "ency": 956,
      "In": 957,
      "ability": 958,
      "Ġeffect": 959,
      "Ġsequences": 960,
      "Ġcompar": 961,
      "Ġperformed": 962,
      "Ġocc": 963,
      "Ġop": 964,
      "Ġdisease": 965,
      "ise": 966,
      "xim": 967,
      "Ġmul": 968,
      "Ġinformation": 969,
      "Ġprocess": 970,
      "Ġlik": 971,
      "Ġapp": 972,
      "Ġpres": 973,
      "Ġrisk": 974,
      "ind": 975,
      "Ġconf": 976,
      "Ġexpos": 977,
      "Ġso": 978,
      "Ġsyn": 979,
      "alc": 980,
      "Ġrespec": 981,
      "Ġestim": 982,
      "ential": 983,
      "vers": 984,
      "Ġwould": 985,
      "Ġconsid": 986,
      "ĠFig": 987,
      "ites": 988,
      "ust": 989,
      "its": 990,
      "Ġtum": 991,
      "ores": 992,
      "amm": 993,
      "ĠThese": 994,
      "Ġfunction": 995,
      "tively": 996,
      "âĪ": 997,
      "Ġdem": 998,
      "vir": 999,
      "ically": 1000,
      "Ġthrough": 1001,
      "urren": 1002,
      "Ġbased": 1003,
      "air": 1004,
      "Ġmem": 1005,
      "ressed": 1006,
      "rect": 1007,
      "Ġimmun": 1008,
      "Ġpot": 1009,
      "Ġwork": 1010,
      "Ġconcentr": 1011,
      "Ġhigher": 1012,
      "Ġpopulation": 1013,
      "ational": 1014,
      "Ġage": 1015,
      "Ġparticip": 1016,
      "Ġvir": 1017,
      "anc": 1018,
      "ages": 1019,
      "atic": 1020,
      "Ġgroups": 1021,
      "gan": 1022,
      "pit": 1023,
      "Ġamong": 1024,
      "agn": 1025,
      "ex": 1026,
      "omes": 1027,
      "Ġaut": 1028,
      "ink": 1029,
      "Ġincreased": 1030,
      "Ġdisc": 1031,
      "Ġj": 1032,
      "ute": 1033,
      "adi": 1034,
      "tical": 1035,
      "Ġav": 1036,
      "Ġclass": 1037,
      "Ġeffects": 1038,
      "Ġany": 1039,
      "ified": 1040,
      "Ġcancer": 1041,
      "ĠAs": 1042,
      "Ġdep": 1043,
      "Ġinvol": 1044,
      "Ġind": 1045,
      "ma": 1046,
      "art": 1047,
      "Ġrese": 1048,
      "ves": 1049,
      "led": 1050,
      "Ġcondi": 1051,
      "Ġthen": 1052,
      "Ġassess": 1053,
      "Ġtiss": 1054,
      "requ": 1055,
      "ft": 1056,
      "Ġrepresent": 1057,
      "ort": 1058,
      "Ġabout": 1059,
      "ock": 1060,
      "Ġgl": 1061,
      "Ġresponse": 1062,
      "ĠAn": 1063,
      "Ġrate": 1064,
      "arge": 1065,
      "Ġran": 1066,
      "Ġcoun": 1067,
      "onstr": 1068,
      "Ġimportant": 1069,
      "Â°": 1070,
      "ĠIt": 1071,
      "though": 1072,
      "Ġsmall": 1073,
      "endent": 1074,
      "Ġpat": 1075,
      "other": 1076,
      "Ġdescribed": 1077,
      "Ġif": 1078,
      "Ġtotal": 1079,
      "Ġdom": 1080,
      "ron": 1081,
      "ately": 1082,
      "int": 1083,
      "Ġtranscrip": 1084,
      "Ġmulti": 1085,
      "Ġnucle": 1086,
      "Ġsamples": 1087,
      "Ġidentified": 1088,
      "lis": 1089,
      "ha": 1090,
      "Ġfe": 1091,
      "Ġ<": 1092,
      "ived": 1093,
      "ade": 1094,
      "ĠJ": 1095,
      "med": 1096,
      "tig": 1097,
      "Ġgrow": 1098,
      "aracter": 1099,
      "Ġdistrib": 1100,
      "Ġfactors": 1101,
      "Ġcare": 1102,
      "Ġcorrel": 1103,
      "Ġvalues": 1104,
      "ody": 1105,
      "ene": 1106,
      "Ġyears": 1107,
      "Ġnormal": 1108,
      "Ġdid": 1109,
      "Ġins": 1110,
      "Ġext": 1111,
      "olution": 1112,
      "Ġinhib": 1113,
      "ural": 1114,
      "ian": 1115,
      "000": 1116,
      "view": 1117,
      "Ġphys": 1118,
      "Ġrequi": 1119,
      "ained": 1120,
      "tif": 1121,
      "Ġsignificantly": 1122,
      "Ġfam": 1123,
      "CA": 1124,
      "Ġmat": 1125,
      "Ġmice": 1126,
      "Ġchild": 1127,
      "reated": 1128,
      "arget": 1129,
      "Ġcases": 1130,
      "Ġbecause": 1131,
      "valu": 1132,
      "Ġcalc": 1133,
      "oid": 1134,
      "inc": 1135,
      "iqu": 1136,
      "Ġfrequ": 1137,
      "Ġaff": 1138,
      "ateg": 1139,
      "raph": 1140,
      "Ġmicro": 1141,
      "lym": 1142,
      "ake": 1143,
      "Ġsecond": 1144,
      "ypes": 1145,
      "ingle": 1146,
      "arly": 1147,
      "ĠSt": 1148,
      "ving": 1149,
      "Ġline": 1150,
      "Ġshowed": 1151,
      "iven": 1152,
      "Ġmark": 1153,
      "Ġprom": 1154,
      "amet": 1155,
      "ross": 1156,
      "Ġcharacter": 1157,
      "Ġobtained": 1158,
      "cq": 1159,
      "Ġclinical": 1160,
      "Ġbas": 1161,
      "Ġmean": 1162,
      "Ġspecies": 1163,
      "Ġdesign": 1164,
      "Ġsever": 1165,
      "Ġdevelopment": 1166,
      "andard": 1167,
      ".,": 1168,
      "Ġfl": 1169,
      "uster": 1170,
      "Ġpatient": 1171,
      "ice": 1172,
      "ie": 1173,
      "ither": 1174,
      "Ġmain": 1175,
      "Ġregion": 1176,
      "Ġsubj": 1177,
      "Ġantib": 1178,
      "Ġnew": 1179,
      "Ġneed": 1180,
      "Ġpattern": 1181,
      "Ġincrease": 1182,
      "Ġsingle": 1183,
      "ĠRNA": 1184,
      "Ġevalu": 1185,
      "omen": 1186,
      "hel": 1187,
      "Ġtri": 1188,
      "12": 1189,
      "Ġdifferences": 1190,
      "GF": 1191,
      "Ġstatistic": 1192,
      "uff": 1193,
      "Ġtarget": 1194,
      "Ġacid": 1195,
      "Ġless": 1196,
      "ĠCD": 1197,
      "reg": 1198,
      "aem": 1199,
      "Ġshould": 1200,
      "Ġincluding": 1201,
      "Ġ20": 1202,
      "Ġlim": 1203,
      "omic": 1204,
      "Ġcomplex": 1205,
      "ry": 1206,
      "ily": 1207,
      "Ġavail": 1208,
      "ĠThere": 1209,
      "over": 1210,
      "ĠFigure": 1211,
      "Ġcyt": 1212,
      "Ġmemb": 1213,
      "ful": 1214,
      "Ġtes": 1215,
      "ouse": 1216,
      "Ġevid": 1217,
      "cript": 1218,
      "Ġterm": 1219,
      "Ġpub": 1220,
      "respon": 1221,
      "Ġlarge": 1222,
      "Ġdemonstr": 1223,
      "IV": 1224,
      "gest": 1225,
      "Ġele": 1226,
      "Ġ12": 1227,
      "SA": 1228,
      "iod": 1229,
      "Ġlong": 1230,
      "Ġlead": 1231,
      "Ġexpl": 1232,
      "Ġcase": 1233,
      "Ġmor": 1234,
      "Ġdue": 1235,
      "ental": 1236,
      "erg": 1237,
      "Ġorgan": 1238,
      "Ġrat": 1239,
      "echan": 1240,
      "Ġimp": 1241,
      "eng": 1242,
      "Ġmany": 1243,
      "%)": 1244,
      "Ġrespectively": 1245,
      "GG": 1246,
      "Ġstandard": 1247,
      "osph": 1248,
      "Ġaddition": 1249,
      "urrent": 1250,
      "iter": 1251,
      "Ġextr": 1252,
      "Ġpossible": 1253,
      "rop": 1254,
      "verage": 1255,
      "Ġcluster": 1256,
      "WG": 1257,
      "oph": 1258,
      "50": 1259,
      "ince": 1260,
      "ĠÂ": 1261,
      "hip": 1262,
      "Ġiniti": 1263,
      "Ġsuggest": 1264,
      "Ġcomb": 1265,
      "Ġmechan": 1266,
      "Ġ199": 1267,
      "jor": 1268,
      "Ġcult": 1269,
      "Ġfurther": 1270,
      "spec": 1271,
      "ST": 1272,
      "Ġrespons": 1273,
      "ependent": 1274,
      "Ġchanges": 1275,
      "cent": 1276,
      "ification": 1277,
      "Ġsample": 1278,
      "Ġsugges": 1279,
      "Ġinves": 1280,
      "echn": 1281,
      "ra": 1282,
      "Ġinvestig": 1283,
      "ness": 1284,
      "Ġoccur": 1285,
      "yz": 1286,
      "Ġmajor": 1287,
      "ording": 1288,
      "Ġcle": 1289,
      "Ġblood": 1290,
      "Ġrole": 1291,
      "Ġbre": 1292,
      "ĠâĢ": 1293,
      "Ġsites": 1294,
      "ms": 1295,
      "Ġwhile": 1296,
      "Ġdecre": 1297,
      "roph": 1298,
      "Ġcommon": 1299,
      "Ġknown": 1300,
      "Ġexposure": 1301,
      "Ġprogr": 1302,
      "Ġchrom": 1303,
      "Ġresid": 1304,
      "Ġpe": 1305,
      "Ġresearch": 1306,
      "Ġfinding": 1307,
      "Ġmolec": 1308,
      "Ġpositive": 1309,
      "Ġseveral": 1310,
      "Ġcontr": 1311,
      "ality": 1312,
      "âĪĴ": 1313,
      "acq": 1314,
      "not": 1315,
      "Ġlower": 1316,
      "Ġfour": 1317,
      "Ġrecept": 1318,
      "sequ": 1319,
      "Ġavailable": 1320,
      "ĠUn": 1321,
      "ov": 1322,
      "Ġproduc": 1323,
      "ek": 1324,
      "Ġeither": 1325,
      "Ġcyc": 1326,
      "Ġdiagn": 1327,
      "Ġques": 1328,
      "Ġmethods": 1329,
      "Ġexpressed": 1330,
      "ds": 1331,
      "Ġhy": 1332,
      "Ġlikely": 1333,
      "uted": 1334,
      "actions": 1335,
      "Ġbinding": 1336,
      "ty": 1337,
      "min": 1338,
      "av": 1339,
      "cl": 1340,
      "Ġsens": 1341,
      "Ġgenome": 1342,
      "ĠâĢĵ": 1343,
      "Ġtype": 1344,
      "aW": 1345,
      "Ġsignal": 1346,
      "Ġpresence": 1347,
      "Ġfollowing": 1348,
      "Ġperiod": 1349,
      "Ġpreviously": 1350,
      "ised": 1351,
      "Ġincluded": 1352,
      "Ġregions": 1353,
      "usion": 1354,
      "ective": 1355,
      "ning": 1356,
      "Ġcollec": 1357,
      "Ġprof": 1358,
      "ins": 1359,
      "ray": 1360,
      "Ġhist": 1361,
      "AT": 1362,
      "Ġevidence": 1363,
      "Ġsize": 1364,
      "ove": 1365,
      "CT": 1366,
      "way": 1367,
      "Ġvis": 1368,
      "yn": 1369,
      "Ġmal": 1370,
      "Ġrelated": 1371,
      "Ġimpro": 1372,
      "Ġpart": 1373,
      "Ġvery": 1374,
      "Ġexample": 1375,
      "viron": 1376,
      "ĠTo": 1377,
      "las": 1378,
      "iel": 1379,
      "Ġallow": 1380,
      "uce": 1381,
      "Ġpost": 1382,
      "Ġlocal": 1383,
      "Ġlab": 1384,
      "Ġgreat": 1385,
      "Ġbel": 1386,
      "Ġpotential": 1387,
      "con": 1388,
      "Ġparticular": 1389,
      "Ġconditions": 1390,
      "Ġgiven": 1391,
      "andom": 1392,
      "Ġstim": 1393,
      "ulations": 1394,
      "isms": 1395,
      "Ġabs": 1396,
      "otic": 1397,
      "Î±": 1398,
      "Ġ30": 1399,
      "Ġprot": 1400,
      "cep": 1401,
      "Ġanim": 1402,
      "ĠAll": 1403,
      "Ġwomen": 1404,
      "Ġtissue": 1405,
      "Ġcap": 1406,
      "Ġstructure": 1407,
      "lished": 1408,
      "reen": 1409,
      "Ġpers": 1410,
      "Ġwhether": 1411,
      "otype": 1412,
      "bb": 1413,
      "Ġchildren": 1414,
      "Ġfactor": 1415,
      "Ġcr": 1416,
      "tide": 1417,
      "ograph": 1418,
      "Ġcorrespon": 1419,
      "Ġdrug": 1420,
      "Ġtem": 1421,
      "ually": 1422,
      "Ġhom": 1423,
      "ĠHIV": 1424,
      "ator": 1425,
      "Ġrele": 1426,
      "Ġrandom": 1427,
      "Ġgrowth": 1428,
      "ax": 1429,
      "Ġconsist": 1430,
      "Ġvalue": 1431,
      "Ġdistribution": 1432,
      "Ġmight": 1433,
      "Ġpromot": 1434,
      "Ġadd": 1435,
      "nal": 1436,
      "arc": 1437,
      "ength": 1438,
      "Ġsl": 1439,
      "NP": 1440,
      "Ġleast": 1441,
      "Ġdifferenti": 1442,
      "Ġ100": 1443,
      "ÃĹ": 1444,
      "11": 1445,
      "qaa": 1446,
      "Ġwithout": 1447,
      "Ġagain": 1448,
      "ĠX": 1449,
      "Ġel": 1450,
      "Ġcontrib": 1451,
      "Ġsite": 1452,
      "Ġtherap": 1453,
      "Ġinfection": 1454,
      "Ġgenetic": 1455,
      "PA": 1456,
      "Ġplas": 1457,
      "Ġref": 1458,
      "Ġ50": 1459,
      "Ġparamet": 1460,
      "Ġgeneral": 1461,
      "ung": 1462,
      "Ġanalyz": 1463,
      "Ġphen": 1464,
      "Ġcod": 1465,
      "olic": 1466,
      "Ġmodels": 1467,
      "Ġorder": 1468,
      "ish": 1469,
      "Ġequ": 1470,
      "Ġ15": 1471,
      "Ġisol": 1472,
      "ĠÂ±": 1473,
      "round": 1474,
      "Ġdirect": 1475,
      "Ġbr": 1476,
      "Ġresult": 1477,
      "erest": 1478,
      "Ġtechn": 1479,
      "vironment": 1480,
      "BP": 1481,
      "Ġanalyses": 1482,
      "ced": 1483,
      "Ġret": 1484,
      "Ġatt": 1485,
      "af": 1486,
      "ours": 1487,
      "Ġcomparis": 1488,
      "ospit": 1489,
      "vr": 1490,
      "Ġexperiments": 1491,
      "Ġapproach": 1492,
      "Ġcurrent": 1493,
      "ĠCh": 1494,
      "Ġrati": 1495,
      "II": 1496,
      "etwork": 1497,
      "Xd": 1498,
      "Ġpair": 1499,
      "Ġneg": 1500,
      "icient": 1501,
      "ĠQ": 1502,
      "Ġmultiple": 1503,
      "Ġol": 1504,
      "onal": 1505,
      "erv": 1506,
      "AP": 1507,
      "Ġsym": 1508,
      "Ff": 1509,
      "We": 1510,
      "ication": 1511,
      "05": 1512,
      "ount": 1513,
      "Ġconsidered": 1514,
      "aren": 1515,
      "Ġinvolved": 1516,
      "Ġaverage": 1517,
      "Ġflu": 1518,
      "Ġregul": 1519,
      "Ġcommun": 1520,
      "eu": 1521,
      "Ġdifference": 1522,
      "Ġbeing": 1523,
      "Ġi": 1524,
      "havi": 1525,
      "Ġprimary": 1526,
      "tt": 1527,
      "ward": 1528,
      "Ġproble": 1529,
      "Ġlink": 1530,
      "ensity": 1531,
      "Ġstrong": 1532,
      "eth": 1533,
      "Ġprac": 1534,
      "co": 1535,
      "Ġprogram": 1536,
      "vant": 1537,
      "Ġrelations": 1538,
      "ĠPCR": 1539,
      "ĠTable": 1540,
      "Ġchange": 1541,
      "ane": 1542,
      "ull": 1543,
      "Ġvers": 1544,
      "Ġrates": 1545,
      "Ġinflu": 1546,
      "atively": 1547,
      "abaq": 1548,
      "Ġ-": 1549,
      "Ġfunctional": 1550,
      "abe": 1551,
      "oma": 1552,
      "Ġrecom": 1553,
      "plement": 1554,
      "Ġconstr": 1555,
      "Î²": 1556,
      "ino": 1557,
      "Ġinj": 1558,
      "Ġdays": 1559,
      "Ġ'": 1560,
      "ga": 1561,
      "Ġenc": 1562,
      "ata": 1563,
      "Ġnetwork": 1564,
      "Ġep": 1565,
      "Ġpur": 1566,
      "20": 1567,
      "hesis": 1568,
      "ick": 1569,
      "err": 1570,
      "Ġpri": 1571,
      "lect": 1572,
      "Ġphosph": 1573,
      "DNA": 1574,
      "Ġdetermined": 1575,
      "Ġfamily": 1576,
      "ists": 1577,
      "Ġbefore": 1578,
      "Ġed": 1579,
      "jab": 1580,
      "itro": 1581,
      "âĢĿ": 1582,
      "specific": 1583,
      "Ġmeasured": 1584,
      "ables": 1585,
      "zym": 1586,
      "Ġcaus": 1587,
      "Ġauth": 1588,
      "Ġbehavi": 1589,
      "Ġdatab": 1590,
      "based": 1591,
      "mit": 1592,
      "ision": 1593,
      "Ġest": 1594,
      "Ġmonth": 1595,
      "Ġabove": 1596,
      "app": 1597,
      "AC": 1598,
      "Ġtumor": 1599,
      "Ġidentify": 1600,
      "ocyt": 1601,
      "Ġeven": 1602,
      "ĠIL": 1603,
      "Ġchromos": 1604,
      "see": 1605,
      "Ġrelationship": 1606,
      "Ġalign": 1607,
      "elf": 1608,
      "Ġoutc": 1609,
      "Ġsubs": 1610,
      "ang": 1611,
      "Ġcontaining": 1612,
      "ptom": 1613,
      "iver": 1614,
      "ogn": 1615,
      "Ġexc": 1616,
      "ife": 1617,
      "Ġappear": 1618,
      "15": 1619,
      "ference": 1620,
      "tis": 1621,
      "Ġgr": 1622,
      "Ġsupport": 1623,
      "erc": 1624,
      "ĠPro": 1625,
      "Ġrelative": 1626,
      "13": 1627,
      "Ġthem": 1628,
      "Ġindividuals": 1629,
      "Ġneur": 1630,
      "Ġenvironment": 1631,
      "Ġorig": 1632,
      "ĠâĢľ": 1633,
      "ĠY": 1634,
      "Ġ24": 1635,
      "Ġscore": 1636,
      "Ġlo": 1637,
      "Ġassociation": 1638,
      "Ġcompon": 1639,
      "Ġquan": 1640,
      "Ġrange": 1641,
      "ably": 1642,
      "ogene": 1643,
      "Ġbreast": 1644,
      "16": 1645,
      "aw": 1646,
      "verse": 1647,
      "Ġhel": 1648,
      "Ġalle": 1649,
      "Ġinhibit": 1650,
      "Ġred": 1651,
      "Ġvirus": 1652,
      "Ġchem": 1653,
      "ier": 1654,
      "Ġprovide": 1655,
      "fic": 1656,
      "Ġdetected": 1657,
      "Ġreve": 1658,
      "Ġdel": 1659,
      "row": 1660,
      "ĠmRNA": 1661,
      "ĠAd": 1662,
      "ĠHe": 1663,
      "face": 1664,
      "Ġlength": 1665,
      "Ġaccording": 1666,
      "Ġrepe": 1667,
      "DH": 1668,
      "hy": 1669,
      "Ġlarg": 1670,
      "Ġweek": 1671,
      "Ġagainst": 1672,
      "Ġhowever": 1673,
      "Ġz": 1674,
      "to": 1675,
      "oss": 1676,
      "Ġaccess": 1677,
      "Ġsepar": 1678,
      "Ġshows": 1679,
      "19": 1680,
      "rane": 1681,
      "medi": 1682,
      "Ġtreated": 1683,
      "Ġearly": 1684,
      "Ġsubjects": 1685,
      "Ġdomain": 1686,
      "acy": 1687,
      "sy": 1688,
      "Ġconfir": 1689,
      "14": 1690,
      "Ġtranscription": 1691,
      "ĠOn": 1692,
      "line": 1693,
      "ules": 1694,
      "Ġadj": 1695,
      "Ġquestion": 1696,
      "ĠmM": 1697,
      "ml": 1698,
      "pre": 1699,
      "Ġhospit": 1700,
      "Ġday": 1701,
      "lation": 1702,
      "lik": 1703,
      "Ġmetab": 1704,
      "Ġreview": 1705,
      "Ġder": 1706,
      "Ġfindings": 1707,
      "CC": 1708,
      "tid": 1709,
      "ties": 1710,
      "Ġmen": 1711,
      "vention": 1712,
      "ield": 1713,
      "Ġpublic": 1714,
      "Ġvol": 1715,
      "Ġselected": 1716,
      "Ġconcentrations": 1717,
      "MP": 1718,
      "Ġu": 1719,
      "asing": 1720,
      "Ġsoci": 1721,
      "ĠÃĹ": 1722,
      "Ġconsider": 1723,
      "Ġdoes": 1724,
      "Ġampl": 1725,
      "Ġculture": 1726,
      "Ġadditional": 1727,
      "ension": 1728,
      "plied": 1729,
      "Ġmanus": 1730,
      "asc": 1731,
      "irc": 1732,
      "idence": 1733,
      "sc": 1734,
      "Ġprog": 1735,
      "Ġhypot": 1736,
      "lamm": 1737,
      "Ġtherefore": 1738,
      "Ġcalculated": 1739,
      "ĠThus": 1740,
      "ev": 1741,
      "Ġdefined": 1742,
      "Ġrece": 1743,
      "Ġconcentration": 1744,
      "usc": 1745,
      "Ġfem": 1746,
      "Ġnec": 1747,
      "Ġquality": 1748,
      "Ġdeveloped": 1749,
      "Ġmanuscript": 1750,
      "Ġintr": 1751,
      "BI": 1752,
      "Ġanalyzed": 1753,
      "Ġarea": 1754,
      "Ġactivation": 1755,
      "Ġreduced": 1756,
      "plication": 1757,
      "ern": 1758,
      "Ġhighly": 1759,
      "put": 1760,
      "Ġbacter": 1761,
      "hold": 1762,
      "25": 1763,
      "och": 1764,
      "miss": 1765,
      "Ġmouse": 1766,
      "TE": 1767,
      "ĠCA": 1768,
      "ways": 1769,
      "ended": 1770,
      "ety": 1771,
      "xt": 1772,
      "of": 1773,
      "Ġalg": 1774,
      "Ġevolution": 1775,
      "18": 1776,
      "ics": 1777,
      "ration": 1778,
      "Ġdown": 1779,
      "Ġsus": 1780,
      "els": 1781,
      "vere": 1782,
      "Ġback": 1783,
      "Ġreveal": 1784,
      "Ġcarri": 1785,
      "Ġcontrast": 1786,
      "Ġ16": 1787,
      "tegr": 1788,
      "cop": 1789,
      "Ġconduc": 1790,
      "Ġnegative": 1791,
      "Ġfib": 1792,
      "Ġrequired": 1793,
      "Ġreceptor": 1794,
      "Ġvi": 1795,
      "Ġproced": 1796,
      "utes": 1797,
      "Ġtak": 1798,
      "term": 1799,
      "Ġdemonstrated": 1800,
      "Ġgreater": 1801,
      "Ġfew": 1802,
      "ĠFurther": 1803,
      "Ġfil": 1804,
      "Ġreport": 1805,
      "Ġenzym": 1806,
      "Ġincub": 1807,
      "ower": 1808,
      "Ġhow": 1809,
      "Ġcorrelation": 1810,
      "ators": 1811,
      "Ġprovided": 1812,
      "Ġapproxim": 1813,
      "Ġassum": 1814,
      "Ġpercent": 1815,
      "Ġfac": 1816,
      "ĠÎ¼g": 1817,
      "Ġprior": 1818,
      "ior": 1819,
      "Ġknow": 1820,
      "Ġindicated": 1821,
      "Ġ14": 1822,
      "utions": 1823,
      "ste": 1824,
      "arm": 1825,
      "orith": 1826,
      "Ġsurve": 1827,
      "Ġsour": 1828,
      "ector": 1829,
      "omet": 1830,
      "ware": 1831,
      "Ġstate": 1832,
      "ĠÎ²": 1833,
      "ĠAm": 1834,
      "Ġbet": 1835,
      "Ġlack": 1836,
      "Ġsurvi": 1837,
      "type": 1838,
      "Ġcateg": 1839,
      "Ġsince": 1840,
      "ling": 1841,
      "Ġexpected": 1842,
      "Ġinterest": 1843,
      "Ġmotif": 1844,
      "Ġamino": 1845,
      "Ġdetermine": 1846,
      "Ġact": 1847,
      "Ġalgorith": 1848,
      "Ġox": 1849,
      "Ġill": 1850,
      "bq": 1851,
      "Ġlines": 1852,
      "posed": 1853,
      "ets": 1854,
      "Ġpolym": 1855,
      "eaacq": 1856,
      "Ġparticipants": 1857,
      "Ġcontin": 1858,
      "ands": 1859,
      "Ġsymptom": 1860,
      "ke": 1861,
      "ols": 1862,
      "Ġpoly": 1863,
      "eric": 1864,
      "Ġ18": 1865,
      "ored": 1866,
      "ĠAlthough": 1867,
      "Ġfrequency": 1868,
      "92": 1869,
      "Ġdeath": 1870,
      "vity": 1871,
      "Ġmedical": 1872,
      "pir": 1873,
      "Ġhours": 1874,
      "Ġmade": 1875,
      "Ġratio": 1876,
      "ĠCom": 1877,
      "LA": 1878,
      "ule": 1879,
      "Ġcomparison": 1880,
      "Ġfive": 1881,
      "Ġweight": 1882,
      "Ġcent": 1883,
      "Ġvarious": 1884,
      "ocus": 1885,
      "ints": 1886,
      "Ġtested": 1887,
      "aps": 1888,
      "atal": 1889,
      "Ġerr": 1890,
      "Ġacross": 1891,
      "Ġthus": 1892,
      "30": 1893,
      "Ġresponses": 1894,
      "Ġlung": 1895,
      "Ġselection": 1896,
      "Ġpap": 1897,
      "Ġpoint": 1898,
      "Ġtimes": 1899,
      "aae": 1900,
      "ifer": 1901,
      "Ġmg": 1902,
      "BS": 1903,
      "Ġtra": 1904,
      "Ġobserv": 1905,
      "ique": 1906,
      "Ġanimals": 1907,
      "Ġâ": 1908,
      "Ġpropor": 1909,
      "odies": 1910,
      "Ġresist": 1911,
      "Ġstatus": 1912,
      "Ġoften": 1913,
      "ibility": 1914,
      "Ġsuc": 1915,
      "ĠEx": 1916,
      "Ġcirc": 1917,
      "Ġstep": 1918,
      "Ġwild": 1919,
      "Ġneu": 1920,
      "inant": 1921,
      "Ġsmok": 1922,
      "Ġmaxim": 1923,
      "abaG": 1924,
      "Ġ25": 1925,
      "ellular": 1926,
      "fe": 1927,
      "AR": 1928,
      "pr": 1929,
      "ĠBi": 1930,
      "Ġlife": 1931,
      "ĠRe": 1932,
      "Ġposition": 1933,
      "aaS": 1934,
      "Ġcharacteristic": 1935,
      "PS": 1936,
      "ner": 1937,
      "Ġmonths": 1938,
      "bers": 1939,
      "Ġgu": 1940,
      "Ġareas": 1941,
      "Ġpresented": 1942,
      "ections": 1943,
      "atures": 1944,
      "bry": 1945,
      "Ġunderst": 1946,
      "ocytes": 1947,
      "ĠCon": 1948,
      "ides": 1949,
      "Ġcontrols": 1950,
      "Ġparameters": 1951,
      "Ġcorresponding": 1952,
      "Ġpatterns": 1953,
      "Ġsol": 1954,
      "dom": 1955,
      "acc": 1956,
      "Ġpep": 1957,
      "ĠSNP": 1958,
      "Ġintegr": 1959,
      "Ġ+": 1960,
      "brid": 1961,
      "activ": 1962,
      "Ġtypes": 1963,
      "Ġke": 1964,
      "Ġimprove": 1965,
      "Ġserum": 1966,
      "sis": 1967,
      "Ġindependent": 1968,
      "iabd": 1969,
      "pe": 1970,
      "CD": 1971,
      "Ġloss": 1972,
      "uration": 1973,
      "eff": 1974,
      "ĠAt": 1975,
      "Ġextrac": 1976,
      "Ġvalid": 1977,
      "Ġinteraction": 1978,
      "Ġseen": 1979,
      "Ġsynt": 1980,
      "inf": 1981,
      "Ġsum": 1982,
      "otypes": 1983,
      "Ġalthough": 1984,
      "ĠRes": 1985,
      "Ġantibody": 1986,
      "Ġbiological": 1987,
      "Ġinclude": 1988,
      "Ġindicate": 1989,
      "aaaa": 1990,
      "uit": 1991,
      "Ġpreval": 1992,
      "ances": 1993,
      "Ġdatabase": 1994,
      "Ġstrateg": 1995,
      "Ġwhereas": 1996,
      "Ġexamined": 1997,
      "ries": 1998,
      "Ġlog": 1999,
      "ture": 2000,
      "eline": 2001,
      "ales": 2002,
      "acaG": 2003,
      "ged": 2004,
      "Ġ13": 2005,
      "AG": 2006,
      "Ġmusc": 2007,
      "ca": 2008,
      "Ġfinal": 2009,
      "Ġhere": 2010,
      "Ġproduction": 2011,
      "mb": 2012,
      "Ġaccur": 2013,
      "Ġradi": 2014,
      "ĠZ": 2015,
      "Ġestab": 2016,
      "Ġrecord": 2017,
      "Ġblock": 2018,
      "fr": 2019,
      "17": 2020,
      "TP": 2021,
      "ones": 2022,
      "Cs": 2023,
      "Ġpopulations": 2024,
      "orph": 2025,
      "40": 2026,
      "Ġepit": 2027,
      "tality": 2028,
      "Ġdatas": 2029,
      "Ġpredicted": 2030,
      "Ġrecent": 2031,
      "erved": 2032,
      "opt": 2033,
      "Ġsex": 2034,
      "Ġtherapy": 2035,
      "ether": 2036,
      "Ġvariables": 2037,
      "Ġmolecular": 2038,
      "Ġdetect": 2039,
      "versity": 2040,
      "rix": 2041,
      "Ġoverall": 2042,
      "Ġcriter": 2043,
      "Ġstatistical": 2044,
      "Ġexperimental": 2045,
      "Ġreas": 2046,
      "Ġcount": 2047,
      "Ġfollowed": 2048,
      "related": 2049,
      "Ġread": 2050,
      "roup": 2051,
      "cb": 2052,
      "uk": 2053,
      "oy": 2054,
      "AS": 2055,
      "ĠCO": 2056,
      "Ġcur": 2057,
      "Ġmembrane": 2058,
      "itivity": 2059,
      "Ġprol": 2060,
      "Ġinteractions": 2061,
      "ots": 2062,
      "Ġver": 2063,
      "Ġconsistent": 2064,
      "Ġdose": 2065,
      "Ġassay": 2066,
      "oring": 2067,
      "esis": 2068,
      "ixed": 2069,
      "Ġstrains": 2070,
      "lymph": 2071,
      "pri": 2072,
      "ems": 2073,
      "Ġmuch": 2074,
      "Ġembry": 2075,
      "DS": 2076,
      "ustr": 2077,
      "Ġgenomic": 2078,
      "Ġestimated": 2079,
      "Ġscores": 2080,
      "ices": 2081,
      "Ls": 2082,
      "Ġminim": 2083,
      "Ġphase": 2084,
      "Ġfocus": 2085,
      "ense": 2086,
      "Ġmutations": 2087,
      "Ġwater": 2088,
      "Ġbody": 2089,
      "Ġhospital": 2090,
      "Ġhelp": 2091,
      "enced": 2092,
      "Ġpathway": 2093,
      "Ġdetail": 2094,
      "Ġfail": 2095,
      ");": 2096,
      "ĠÎ±": 2097,
      "ronic": 2098,
      "Ġtemper": 2099,
      "Ġprec": 2100,
      "mission": 2101,
      "Ġscreen": 2102,
      "Ġcross": 2103,
      "Ġmortality": 2104,
      "uss": 2105,
      "ople": 2106,
      "Ġpracti": 2107,
      "Ġinduced": 2108,
      "Ġmicroar": 2109,
      "Ġgenerated": 2110,
      "Ġproper": 2111,
      "Ġphysical": 2112,
      "Ġcollected": 2113,
      "Ġshort": 2114,
      "like": 2115,
      "dc": 2116,
      "aaW": 2117,
      "po": 2118,
      "Ġ95": 2119,
      "Aae": 2120,
      "Ġincreasing": 2121,
      "Ġvariation": 2122,
      "Ġsets": 2123,
      "till": 2124,
      "Ġheter": 2125,
      "Ġinflamm": 2126,
      "Ġpain": 2127,
      "trans": 2128,
      "Ġsurface": 2129,
      "ode": 2130,
      "ledge": 2131,
      "ĠOur": 2132,
      "me": 2133,
      "ame": 2134,
      "minist": 2135,
      "Ġcentr": 2136,
      "Ġeth": 2137,
      "Cl": 2138,
      "Ġenh": 2139,
      "Ġsk": 2140,
      "Ġactive": 2141,
      "Ġmy": 2142,
      "tial": 2143,
      "ank": 2144,
      "Ġterms": 2145,
      "pression": 2146,
      "urn": 2147,
      "Ġinitial": 2148,
      "Ġserv": 2149,
      "Ġbrain": 2150,
      "sych": 2151,
      "Ġstimul": 2152,
      "Ġdoc": 2153,
      "Ġrevealed": 2154,
      "ĠEn": 2155,
      "Ġpress": 2156,
      "more": 2157,
      "Ġmutant": 2158,
      "Ġlymph": 2159,
      "uffer": 2160,
      "Ġsoft": 2161,
      "Ġauthors": 2162,
      "Ġexperi": 2163,
      "Ġdiagnos": 2164,
      "Ġannot": 2165,
      "qq": 2166,
      "%,": 2167,
      "Ġdispl": 2168,
      "helial": 2169,
      "dro": 2170,
      "ĠII": 2171,
      "Ġsuggests": 2172,
      "Ġdiffic": 2173,
      "ising": 2174,
      "Ġ11": 2175,
      "ask": 2176,
      "Ġcarried": 2177,
      "AU": 2178,
      "Ġfrag": 2179,
      "Ġcomplete": 2180,
      "Ġlimit": 2181,
      "com": 2182,
      "Ġsurg": 2183,
      "Ġnumbers": 2184,
      "Ġmass": 2185,
      "ining": 2186,
      "otide": 2187,
      "Ġstress": 2188,
      "tides": 2189,
      "Ġhyper": 2190,
      "Th": 2191,
      "Ġapproximately": 2192,
      "Ġbetter": 2193,
      "ults": 2194,
      "Ġtop": 2195,
      "read": 2196,
      "Ġderived": 2197,
      "ĠHealth": 2198,
      "Ġmater": 2199,
      "any": 2200,
      "inally": 2201,
      "ĠTherefore": 2202,
      "Ġsystems": 2203,
      "Ġur": 2204,
      "Ġsix": 2205,
      "Al": 2206,
      "Ġdiagnosis": 2207,
      "Ġrecogn": 2208,
      "Ġconducted": 2209,
      "Ġcycle": 2210,
      "fact": 2211,
      "Ġmeasures": 2212,
      "Ġconserved": 2213,
      "FP": 2214,
      "fg": 2215,
      "Ġaltern": 2216,
      "To": 2217,
      "ĠAfter": 2218,
      "iving": 2219,
      "Ġprevalence": 2220,
      "ĠSc": 2221,
      "Ġpeople": 2222,
      "Ġapplied": 2223,
      "ocy": 2224,
      "Ġstill": 2225,
      "Ġte": 2226,
      "tle": 2227,
      "ER": 2228,
      "ascular": 2229,
      "rP": 2230,
      "oplas": 2231,
      "Ġinde": 2232,
      "Ġunderstand": 2233,
      "Ġbene": 2234,
      "ĠAr": 2235,
      "ĠWh": 2236,
      "Ġsubst": 2237,
      "ters": 2238,
      "Ġreduction": 2239,
      "aac": 2240,
      "Ġsymptoms": 2241,
      "Ġabsence": 2242,
      "Ġlimited": 2243,
      "urs": 2244,
      "ĠMore": 2245,
      "Ġcardi": 2246,
      "aff": 2247,
      "Ġmedium": 2248,
      "Ġ40": 2249,
      "aaf": 2250,
      "Ġhand": 2251,
      "Ġsearch": 2252,
      "Ġnecess": 2253,
      "Ġcellular": 2254,
      "Ġstrain": 2255,
      "Ġfamil": 2256,
      "rim": 2257,
      "Ġair": 2258,
      "ĠcDNA": 2259,
      "Ġresulting": 2260,
      "Ġexperiment": 2261,
      "TT": 2262,
      "Ġevents": 2263,
      "Ġ>": 2264,
      "Ġsuccess": 2265,
      "Ġknowledge": 2266,
      "Ġinterval": 2267,
      "Ġsuggested": 2268,
      "icity": 2269,
      "Ġsubsequ": 2270,
      "Ġmembers": 2271,
      "100": 2272,
      "Ġability": 2273,
      "Ġself": 2274,
      "ram": 2275,
      "âĢ²": 2276,
      "ify": 2277,
      "lor": 2278,
      "Ġbar": 2279,
      "Ġparen": 2280,
      "Ġsurvival": 2281,
      "NF": 2282,
      "Ġmit": 2283,
      "ĠGen": 2284,
      "ĠCI": 2285,
      "Ġexist": 2286,
      "ulin": 2287,
      "itions": 2288,
      "abil": 2289,
      "Ġlater": 2290,
      "TR": 2291,
      "Ġproj": 2292,
      "Ġstructures": 2293,
      "Ġrather": 2294,
      "Ġstage": 2295,
      "cence": 2296,
      "gc": 2297,
      "GH": 2298,
      "itud": 2299,
      "24": 2300,
      "Ġleft": 2301,
      "ream": 2302,
      "Ġperformance": 2303,
      "equ": 2304,
      "vent": 2305,
      "Ġpromoter": 2306,
      "Ġmechanisms": 2307,
      "odes": 2308,
      "Ġtissues": 2309,
      "Ġpaper": 2310,
      "hood": 2311,
      "Ġvolum": 2312,
      "Ġoptim": 2313,
      "Ġdeg": 2314,
      "ĠOne": 2315,
      "da": 2316,
      "aneous": 2317,
      "Ġoper": 2318,
      "oles": 2319,
      "01": 2320,
      "ption": 2321,
      "PCR": 2322,
      "ially": 2323,
      "Ġhybrid": 2324,
      "man": 2325,
      "Ġ17": 2326,
      "ĠAddi": 2327,
      "Ġmarkers": 2328,
      "95": 2329,
      "fold": 2330,
      "aei": 2331,
      "wi": 2332,
      "Gi": 2333,
      "Ġreaction": 2334,
      "ba": 2335,
      "Ġfeatures": 2336,
      "Ġtraining": 2337,
      "ĠCl": 2338,
      "Ġmutation": 2339,
      "Ġfunctions": 2340,
      "Ġanother": 2341,
      "atin": 2342,
      "Ġimplement": 2343,
      "ancy": 2344,
      "Ġever": 2345,
      "here": 2346,
      "uW": 2347,
      "encing": 2348,
      "Ġcer": 2349,
      "ibr": 2350,
      "rob": 2351,
      "Ġrelatively": 2352,
      "Ġlip": 2353,
      "Ġclear": 2354,
      "onic": 2355,
      "Ġcop": 2356,
      "Ġsch": 2357,
      "Ġâī": 2358,
      "Ġregression": 2359,
      "Ġimpact": 2360,
      "Ġantibodies": 2361,
      "olar": 2362,
      "amin": 2363,
      "Ġcommunity": 2364,
      "ave": 2365,
      "Ġkin": 2366,
      "80": 2367,
      "Ġach": 2368,
      "ral": 2369,
      "Ġcriteria": 2370,
      "rial": 2371,
      "we": 2372,
      "hest": 2373,
      "ings": 2374,
      "Ġinterpre": 2375,
      "oz": 2376,
      "ird": 2377,
      "Ġadminist": 2378,
      "Ġneurons": 2379,
      "Ġfile": 2380,
      "Ġaffect": 2381,
      "Ġtests": 2382,
      "Ġtemperature": 2383,
      "TEF": 2384,
      "lying": 2385,
      "Ġrespond": 2386,
      "mid": 2387,
      "Gu": 2388,
      "Ġpairs": 2389,
      "Ġproblem": 2390,
      "RT": 2391,
      "nr": 2392,
      "Ġformation": 2393,
      "Ġmicros": 2394,
      "Ġdiscuss": 2395,
      "qi": 2396,
      "Ġiss": 2397,
      "nai": 2398,
      "Ġvitro": 2399,
      "Ġcontinu": 2400,
      "Ġcri": 2401,
      "ploy": 2402,
      "Ġeduc": 2403,
      "Ġachie": 2404,
      "Type": 2405,
      "Fr": 2406,
      "Ġviral": 2407,
      "Ġable": 2408,
      "Ġrecomb": 2409,
      "Ġrestr": 2410,
      "Ġview": 2411,
      "aaeq": 2412,
      "Ġmechanism": 2413,
      "Oq": 2414,
      "induced": 2415,
      "xb": 2416,
      "cin": 2417,
      "AL": 2418,
      "Ġcategor": 2419,
      "Ġalgorithm": 2420,
      "ument": 2421,
      "ĠER": 2422,
      "ĠIf": 2423,
      "Ġdetection": 2424,
      "Ġthough": 2425,
      "isted": 2426,
      "Ġremo": 2427,
      "priate": 2428,
      "apl": 2429,
      "acia": 2430,
      "ĠMath": 2431,
      "Ġcharacteristics": 2432,
      "Ġent": 2433,
      "Ġseg": 2434,
      "Ġproducts": 2435,
      "Ġhistory": 2436,
      "ographic": 2437,
      "bI": 2438,
      "Ġrap": 2439,
      "001": 2440,
      "Ġeffective": 2441,
      "Ġreal": 2442,
      "Ġclos": 2443,
      "Ġtox": 2444,
      "ressing": 2445,
      "the": 2446,
      "Ġmetabol": 2447,
      "Ġmedi": 2448,
      "Ġsoftware": 2449,
      "Cv": 2450,
      "ulate": 2451,
      "Ġbaseline": 2452,
      "ferred": 2453,
      "Ġapopt": 2454,
      "Ġgo": 2455,
      "Ġphyl": 2456,
      "Fj": 2457,
      "Ġchronic": 2458,
      "MS": 2459,
      "Ġchromosome": 2460,
      "CvAU": 2461,
      "Ġsal": 2462,
      "Ġcause": 2463,
      "Ġversus": 2464,
      "encies": 2465,
      "atCvAU": 2466,
      "omal": 2467,
      "+=": 2468,
      "hD": 2469,
      "Ġdecreased": 2470,
      "bba": 2471,
      "MTEF": 2472,
      "@+=": 2473,
      "vq": 2474,
      "feaaf": 2475,
      "Ġdomains": 2476,
      "Ġpower": 2477,
      "Ġproportion": 2478,
      "Ġproduced": 2479,
      "Ġbelow": 2480,
      "uble": 2481,
      "ĠFurthermore": 2482,
      "Ġfat": 2483,
      "gl": 2484,
      "Ġright": 2485,
      "Ġelements": 2486,
      "qqaq": 2487,
      "Ffea": 2488,
      "Ġpoints": 2489,
      "ĠMathType": 2490,
      "reshold": 2491,
      "iart": 2492,
      "gB": 2493,
      "feaafiart": 2494,
      "aaatCvAU": 2495,
      "tation": 2496,
      "Ġprotoc": 2497,
      "MBP": 2498,
      "dXd": 2499,
      "dir": 2500,
      "Ee": 2501,
      "Xdbba": 2502,
      "Ġpeak": 2503,
      "Ġdirectly": 2504,
      "Ġassessed": 2505,
      "qV": 2506,
      "ĠÏ": 2507,
      "Ġviv": 2508,
      "mea": 2509,
      "Ġplace": 2510,
      "pgc": 2511,
      "acaGaaeq": 2512,
      "vqai": 2513,
      "Eeeu": 2514,
      "meaabaq": 2515,
      "hGu": 2516,
      "kuc": 2517,
      "frFj": 2518,
      "LsFr": 2519,
      "qiLsFr": 2520,
      "OqFfea": 2521,
      "dXdd": 2522,
      "dirpe": 2523,
      "hGuQ": 2524,
      "xXdbba": 2525,
      "amp": 2526,
      "Ġmamm": 2527,
      "ii": 2528,
      "Yd": 2529,
      "Lx": 2530,
      "fif": 2531,
      "anced": 2532,
      "Ġess": 2533,
      "Ġfull": 2534,
      "Lear": 2535,
      "Ġdistinc": 2536,
      "53": 2537,
      "21": 2538,
      "Ġsensitivity": 2539,
      "fK": 2540,
      "Ġmm": 2541,
      "Ġweeks": 2542,
      "ef": 2543,
      "Ġresidues": 2544,
      "MDH": 2545,
      "Ġtrials": 2546,
      "Ġregulation": 2547,
      "uWrP": 2548,
      "RF": 2549,
      "Ġdiseases": 2550,
      "Ġfit": 2551,
      "Ġenvironmental": 2552,
      "bIqV": 2553,
      "MBPbIqV": 2554,
      "fKtt": 2555,
      "Xat": 2556,
      "LxBI": 2557,
      "XatLxBI": 2558,
      "AaeXatLxBI": 2559,
      "LearuWrP": 2560,
      "fKttLearuWrP": 2561,
      "Ġvisual": 2562,
      "Ġepid": 2563,
      "Ġlat": 2564,
      "Ġtransf": 2565,
      "MI": 2566,
      "Ġliter": 2567,
      "for": 2568,
      "aaatCvAUfKttLearuWrP": 2569,
      "].": 2570,
      "aria": 2571,
      "Ġ60": 2572,
      "Ġresistance": 2573,
      "Ġfluores": 2574,
      "Ġcomponents": 2575,
      "As": 2576,
      "Ġpressure": 2577,
      "Ġmac": 2578,
      "Ġvacc": 2579,
      "Ġsecondary": 2580,
      "Ġtrial": 2581,
      "YdH": 2582,
      "fgas": 2583,
      "HhD": 2584,
      "Yfgas": 2585,
      "aebb": 2586,
      "aacH": 2587,
      "nrfif": 2588,
      "HhDYfgas": 2589,
      "aebbnrfif": 2590,
      "HhDYfgasaacH": 2591,
      "aebbnrfifHhDYfgasaacH": 2592,
      "akY": 2593,
      "yg": 2594,
      "FfYdH": 2595,
      "wiFfYdH": 2596,
      "Gipec": 2597,
      "Ġstudied": 2598,
      "tib": 2599,
      "Ġtyp": 2600,
      "Ġadv": 2601,
      "Ġwor": 2602,
      "ochem": 2603,
      "Ġdim": 2604,
      "Ġmicroarray": 2605,
      "Ġbest": 2606,
      "Ġsignaling": 2607,
      "cbaG": 2608,
      "Ġdifficult": 2609,
      "Ġassign": 2610,
      "Ġconstruc": 2611,
      "Ġrequire": 2612,
      "arl": 2613,
      "Ġdecrease": 2614,
      "Ġadded": 2615,
      "Ġcost": 2616,
      "dependent": 2617,
      "itu": 2618,
      "Ġsumm": 2619,
      "Ġinfected": 2620,
      "Ġbehavior": 2621,
      "Ġlarger": 2622,
      "Ġoutcome": 2623,
      "Ġmust": 2624,
      "ĠMed": 2625,
      "ld": 2626,
      "Ġsevere": 2627,
      "Ġscale": 2628,
      "Ġexclud": 2629,
      "aging": 2630,
      "Ġprolifer": 2631,
      "inary": 2632,
      "otyp": 2633,
      "SP": 2634,
      "Ġsuggesting": 2635,
      "Ġutil": 2636,
      "Ġintervention": 2637,
      "Ġcountries": 2638,
      "Ġprocesses": 2639,
      "Ġreference": 2640,
      "Ġvia": 2641,
      "Ġpathways": 2642,
      "Ġcontent": 2643,
      "Ġisolated": 2644,
      "Ġir": 2645,
      "etes": 2646,
      "ww": 2647,
      "Ġimmune": 2648,
      "Ġprobability": 2649,
      "RI": 2650,
      "Ġpsych": 2651,
      "Ġx": 2652,
      "27": 2653,
      "aciaacaGaaeq": 2654,
      "meaabaqaciaacaGaaeq": 2655,
      "Ġwhole": 2656,
      "stream": 2657,
      "ogenesis": 2658,
      "Ġsurvey": 2659,
      "ĠWhen": 2660,
      "Ġtub": 2661,
      "Ġincubated": 2662,
      "Ġthreshold": 2663,
      "Ġelect": 2664,
      "Ġestimates": 2665,
      "ophil": 2666,
      "Ġintro": 2667,
      "Ġcall": 2668,
      "ĠCa": 2669,
      "Ġclusters": 2670,
      "Ġflow": 2671,
      "Ġcombination": 2672,
      "Ġdesigned": 2673,
      "Ġpractice": 2674,
      "entially": 2675,
      "AA": 2676,
      "go": 2677,
      "Ġpredict": 2678,
      "Ġphysici": 2679,
      "alf": 2680,
      "Ġpoor": 2681,
      "Ġrapid": 2682,
      "ĠPh": 2683,
      "Ġrestric": 2684,
      "Ġinfluence": 2685,
      "ĠRT": 2686,
      "Ġly": 2687,
      "23": 2688,
      "Ġvivo": 2689,
      "Ġvector": 2690,
      "adaa": 2691,
      "Ġbir": 2692,
      "Ġgood": 2693,
      "izing": 2694,
      "Ġprote": 2695,
      "Ġvariable": 2696,
      "60": 2697,
      "Ġcondition": 2698,
      "Ġamount": 2699,
      "ectiv": 2700,
      "Ġprocedure": 2701,
      "urse": 2702,
      "ient": 2703,
      "CS": 2704,
      "Ġoff": 2705,
      "ensive": 2706,
      "Ġquantit": 2707,
      "oper": 2708,
      "iological": 2709,
      "eaacqWG": 2710,
      "kn": 2711,
      "Ġconfirmed": 2712,
      "Ġdepend": 2713,
      "Ġtaken": 2714,
      "Ġdele": 2715,
      "ĠTr": 2716,
      "Ġprovides": 2717,
      "Ġindicates": 2718,
      "Ġfree": 2719,
      "Ġquestionnai": 2720,
      "Ġfacil": 2721,
      "Ġtog": 2722,
      "Ġcarcin": 2723,
      "Ġaffected": 2724,
      "eding": 2725,
      "omy": 2726,
      "Ġdensity": 2727,
      "Ġmuscle": 2728,
      "lex": 2729,
      "Ġmorph": 2730,
      "Ġtogether": 2731,
      "Ġconn": 2732,
      "Ġhem": 2733,
      "ground": 2734,
      "ardi": 2735,
      "Ġalignment": 2736,
      "az": 2737,
      "Ġproblems": 2738,
      "Ġsocial": 2739,
      "oding": 2740,
      "Ġexhib": 2741,
      "agement": 2742,
      "Ġallele": 2743,
      "Ġplay": 2744,
      "Ġdistance": 2745,
      "aced": 2746,
      "Ġ37": 2747,
      "Ġevaluated": 2748,
      "active": 2749,
      "semb": 2750,
      "ported": 2751,
      "Ġsignificance": 2752,
      "Ġassessment": 2753,
      "Ġliver": 2754,
      "Ġhaving": 2755,
      "Ġrecently": 2756,
      "Ġway": 2757,
      "Ġlig": 2758,
      "Ġmatrix": 2759,
      "Ġstaining": 2760,
      "RE": 2761,
      "Ġminutes": 2762,
      "Ġlabor": 2763,
      "Ġcompos": 2764,
      "Ġpublished": 2765,
      "Ġsuff": 2766,
      "aged": 2767,
      "Ġestimate": 2768,
      "ou": 2769,
      "ĠIm": 2770,
      "Ġvolume": 2771,
      "Ġtesting": 2772,
      "âĢĻ": 2773,
      "Ġfamilies": 2774,
      "Ġpolymorph": 2775,
      "Ġregulatory": 2776,
      "Ġinst": 2777,
      "Ġappropriate": 2778,
      "Ġnuclear": 2779,
      "ĠUSA": 2780,
      "cell": 2781,
      "ury": 2782,
      "abeG": 2783,
      "Ġsplic": 2784,
      "roc": 2785,
      "..": 2786,
      "Ġbuffer": 2787,
      "Ġmeans": 2788,
      "SS": 2789,
      "ked": 2790,
      "Ġobj": 2791,
      "Ġevery": 2792,
      "RP": 2793,
      "Ġphosphory": 2794,
      "ious": 2795,
      "duce": 2796,
      "Ġinstr": 2797,
      "aI": 2798,
      "Ġincreases": 2799,
      "Ġhypothesis": 2800,
      "treated": 2801,
      "Ġreceptors": 2802,
      "ylation": 2803,
      "Ġdisplay": 2804,
      "ogenetic": 2805,
      "Ġsitu": 2806,
      "Ġtoward": 2807,
      "Ġhost": 2808,
      "ĠSim": 2809,
      "aries": 2810,
      "Ġproposed": 2811,
      "Ġmak": 2812,
      "Ġmale": 2813,
      "Ġ2004": 2814,
      "Ġerror": 2815,
      "Ġprofil": 2816,
      "Ġwhat": 2817,
      "pan": 2818,
      "rome": 2819,
      "Ġdirec": 2820,
      "vari": 2821,
      "ats": 2822,
      "abeGadaa": 2823,
      "Ġstatistically": 2824,
      "Ġbenef": 2825,
      "gBaebbnrfifHhDYfgasaacH": 2826,
      "abaqabeGadaa": 2827,
      "Ġuseful": 2828,
      "Ġinser": 2829,
      "iciency": 2830,
      "Ġemploy": 2831,
      "Ġtree": 2832,
      "Ġrelevant": 2833,
      "ecause": 2834,
      "Ġrecomm": 2835,
      "iting": 2836,
      "Ġgenomes": 2837,
      "Ġvs": 2838,
      "Ġresour": 2839,
      "Ġ2003": 2840,
      "Ġmonit": 2841,
      "pose": 2842,
      "Ġparas": 2843,
      "iRNA": 2844,
      "ĠThey": 2845,
      "Ġlight": 2846,
      "lo": 2847,
      "Ġax": 2848,
      "Ġcoll": 2849,
      "pite": 2850,
      "28": 2851,
      "Ġglob": 2852,
      "Ġpercentage": 2853,
      "itation": 2854,
      "Ġsci": 2855,
      "Ġrats": 2856,
      "ital": 2857,
      "Ġmaximum": 2858,
      "Ġplasma": 2859,
      "Ġsolution": 2860,
      "Ġkey": 2861,
      "Ġlit": 2862,
      "Ġsetting": 2863,
      "Ġliterature": 2864,
      "agen": 2865,
      "Ġincidence": 2866,
      "Ġalong": 2867,
      "Ġprobe": 2868,
      "Ġalternative": 2869,
      "Ġbp": 2870,
      "aches": 2871,
      "Ġgluc": 2872,
      "formation": 2873,
      "cqWG": 2874,
      "terior": 2875,
      "ession": 2876,
      "35": 2877,
      "Ġrecr": 2878,
      "Ġtumors": 2879,
      "regulated": 2880,
      "Ġenti": 2881,
      "Ġconsum": 2882,
      "Ġparticularly": 2883,
      "Ġalone": 2884,
      "ergy": 2885,
      "Ġcho": 2886,
      "ĠPC": 2887,
      "Ġconte": 2888,
      "26": 2889,
      "apping": 2890,
      "IP": 2891,
      "Ġpul": 2892,
      "Ġcytok": 2893,
      "Ġhapl": 2894,
      "Ġactivities": 2895,
      "Ġpan": 2896,
      "Ġfield": 2897,
      "meaabaqaciaacaGaaeqabaqabeGadaa": 2898,
      "Ġupon": 2899,
      "Ġreduc": 2900,
      "TA": 2901,
      "Ġcertain": 2902,
      "OS": 2903,
      "Ġevaluation": 2904,
      "gn": 2905,
      "izes": 2906,
      "Ġindex": 2907,
      "osts": 2908,
      "Ġcontains": 2909,
      "Ġlast": 2910,
      "ĠÎ¼l": 2911,
      "Ġsource": 2912,
      "Ġgly": 2913,
      "bG": 2914,
      "arily": 2915,
      "ples": 2916,
      "inated": 2917,
      "Ġput": 2918,
      "Ġmel": 2919,
      "Ġchall": 2920,
      "CG": 2921,
      "Ġcontain": 2922,
      "ynam": 2923,
      "Ġcombined": 2924,
      "Ġplasmid": 2925,
      "most": 2926,
      "Ġreceived": 2927,
      "mic": 2928,
      "aeG": 2929,
      "Ġlocated": 2930,
      "Ġmeasurements": 2931,
      "Ġher": 2932,
      "Ġindicating": 2933,
      "ysis": 2934,
      "Ġdegree": 2935,
      "genic": 2936,
      "aak": 2937,
      "Ġdup": 2938,
      "uture": 2939,
      "abetes": 2940,
      "ologic": 2941,
      "70": 2942,
      "otherap": 2943,
      "orn": 2944,
      "ote": 2945,
      "Ġbone": 2946,
      "Ġsuper": 2947,
      "200": 2948,
      "ocal": 2949,
      "lectr": 2950,
      "aaWcbaG": 2951,
      "Ġoutcomes": 2952,
      "Ġtranscripts": 2953,
      "Ġinterview": 2954,
      "Ġstar": 2955,
      "Ġbound": 2956,
      "Ġtranscript": 2957,
      "Ġmake": 2958,
      "Ġlike": 2959,
      "let": 2960,
      "aey": 2961,
      "Ġdil": 2962,
      "Ġadap": 2963,
      "Ġfind": 2964,
      "Ġguid": 2965,
      "pecially": 2966,
      "Ġorth": 2967,
      "pati": 2968,
      "Ġdistinct": 2969,
      "Ġacute": 2970,
      "Ġles": 2971,
      "Ġsmoking": 2972,
      "Ġhighest": 2973,
      "Ġadult": 2974,
      "ee": 2975,
      "ct": 2976,
      "Ġexposed": 2977,
      "Ġdiabetes": 2978,
      "Ġsee": 2979,
      "Ġmajority": 2980,
      "Ġopen": 2981,
      "Ġsecre": 2982,
      "Î³": 2983,
      "Ġlinear": 2984,
      "EM": 2985,
      "OG": 2986,
      "iversity": 2987,
      "Ġnat": 2988,
      "90": 2989,
      "Ġreason": 2990,
      "Ġge": 2991,
      "ging": 2992,
      "trol": 2993,
      "wn": 2994,
      "Ġmid": 2995,
      "Ġbasis": 2996,
      "Ġbackground": 2997,
      "bs": 2998,
      "Ġfood": 2999,
      "lusion": 3000,
      "wise": 3001,
      "ĠÎ¼M": 3002,
      "time": 3003,
      "Ġcolon": 3004,
      "Ġsubstan": 3005,
      "Ġprimers": 3006,
      "Ġinhibition": 3007,
      "Ġmarker": 3008,
      "Ġaccount": 3009,
      "asis": 3010,
      "Ġbro": 3011,
      "Ġdataset": 3012,
      "ann": 3013,
      "Ġhome": 3014,
      "Ġfemale": 3015,
      "andid": 3016,
      "Ġnecessary": 3017,
      "lish": 3018,
      "Ġhomolog": 3019,
      "ulf": 3020,
      "Ġestablished": 3021,
      "Ġcoeff": 3022,
      "bo": 3023,
      "22": 3024,
      "Ġbirth": 3025,
      "Ġ2002": 3026,
      "ystem": 3027,
      "ool": 3028,
      "Ġphenotype": 3029,
      "Ġlist": 3030,
      "36": 3031,
      "hort": 3032,
      "ĠIg": 3033,
      "ĠAP": 3034,
      "Ġmalaria": 3035,
      "Ġdrugs": 3036,
      "pared": 3037,
      "sing": 3038,
      "acts": 3039,
      "orpor": 3040,
      "Ġintensity": 3041,
      "Ġneeded": 3042,
      "isation": 3043,
      "hers": 3044,
      "eled": 3045,
      "Ġservices": 3046,
      "Ġpregn": 3047,
      "âĢĶ": 3048,
      "Ġbo": 3049,
      "AD": 3050,
      "Ġparticipated": 3051,
      "Ġwid": 3052,
      "daW": 3053,
      "Ġappears": 3054,
      "Ġmolecules": 3055,
      "Ġproperties": 3056,
      "rees": 3057,
      "vement": 3058,
      "ĠGene": 3059,
      "Ġcannot": 3060,
      "Ġprevent": 3061,
      "SC": 3062,
      "ogenic": 3063,
      "Ġespecially": 3064,
      "Ġcritical": 3065,
      "oung": 3066,
      "Ġrepro": 3067,
      "normal": 3068,
      "Ġfraction": 3069,
      "Ġenzyme": 3070,
      "Ġrun": 3071,
      "Ġinvestigated": 3072,
      "Ġcut": 3073,
      "LI": 3074,
      "Ġload": 3075,
      "Ġcomponent": 3076,
      "ring": 3077,
      "Ġmix": 3078,
      "ĠAf": 3079,
      "Ġmedic": 3080,
      "Ġdynam": 3081,
      "ĠNo": 3082,
      "last": 3083,
      "taining": 3084,
      "Ġstructural": 3085,
      "Ġapoptosis": 3086,
      "Ġnovel": 3087,
      "ĠSince": 3088,
      "ĠSNPs": 3089,
      "Ġoverl": 3090,
      "38": 3091,
      "Ġgenerally": 3092,
      "ifically": 3093,
      "Ġcontext": 3094,
      "Ġsubstr": 3095,
      "Ġanimal": 3096,
      "Ġdefin": 3097,
      "Ġreports": 3098,
      "ĠMoreover": 3099,
      "amine": 3100,
      "ean": 3101,
      "Ġinput": 3102,
      "resents": 3103,
      "Ġconsequ": 3104,
      "ensus": 3105,
      "aK": 3106,
      "GFP": 3107,
      "ches": 3108,
      "Ġatten": 3109,
      "ingly": 3110,
      "Ġaim": 3111,
      "Ġneut": 3112,
      "Ġduplic": 3113,
      "Ġtask": 3114,
      "Ġresulted": 3115,
      "Ġshowing": 3116,
      "Ġsimilarity": 3117,
      "Ġ2000": 3118,
      "yr": 3119,
      "Ġrepresents": 3120,
      "Ġcentral": 3121,
      "rays": 3122,
      "Ġbase": 3123,
      "by": 3124,
      "Ġproduct": 3125,
      "Ġunique": 3126,
      "piratory": 3127,
      "group": 3128,
      "ole": 3129,
      "Ġpeptide": 3130,
      "MA": 3131,
      "rand": 3132,
      "Ġcompound": 3133,
      "Ġothers": 3134,
      "Ġprediction": 3135,
      "Ġessential": 3136,
      "abor": 3137,
      "Ġcorrelated": 3138,
      "uter": 3139,
      "Ġcat": 3140,
      "Ġcaused": 3141,
      "Ġidentification": 3142,
      "Ġeas": 3143,
      "order": 3144,
      "land": 3145,
      "Ġscreening": 3146,
      "eting": 3147,
      "Ġdam": 3148,
      "Ġhalf": 3149,
      "Ġheart": 3150,
      "Ġentire": 3151,
      "Ġimportance": 3152,
      "eres": 3153,
      "CI": 3154,
      "ĠEach": 3155,
      "ĠCT": 3156,
      "usted": 3157,
      "Ġspecial": 3158,
      "ĠUnited": 3159,
      "ye": 3160,
      "Ġnow": 3161,
      "Ġartic": 3162,
      "Ġul": 3163,
      "Ps": 3164,
      "Ġmanagement": 3165,
      "tially": 3166,
      "Ġaround": 3167,
      "75": 3168,
      "Ġ48": 3169,
      "Ġml": 3170,
      "ĠRec": 3171,
      "Ġepidem": 3172,
      "Ġseries": 3173,
      "Ġsat": 3174,
      "CM": 3175,
      "Ġdevi": 3176,
      "gi": 3177,
      "Ġmutants": 3178,
      "Ġlear": 3179,
      "arent": 3180,
      "umn": 3181,
      "Ġelev": 3182,
      "ocyte": 3183,
      "Ġreduce": 3184,
      "bW": 3185,
      "ĠAfric": 3186,
      "Ġaccum": 3187,
      "ĠInc": 3188,
      "ext": 3189,
      "tered": 3190,
      "ĠIntern": 3191,
      "Ġdos": 3192,
      "Ġspecificity": 3193,
      "Ġoriginal": 3194,
      "set": 3195,
      "Ġregard": 3196,
      "ler": 3197,
      "Ġreplic": 3198,
      "Ġconst": 3199,
      "Ġsubstit": 3200,
      "itis": 3201,
      "Ġmiss": 3202,
      "Ġapproaches": 3203,
      "45": 3204,
      "Ġacids": 3205,
      "itude": 3206,
      "Ġquestions": 3207,
      "Ġprotocol": 3208,
      "bl": 3209,
      "Ġcoli": 3210,
      "Ġglobal": 3211,
      "Ġyoung": 3212,
      "Ġjo": 3213,
      "Ġhealthy": 3214,
      "Ġcorrect": 3215,
      "Ġtw": 3216,
      "ĠSimilar": 3217,
      "Ġmotifs": 3218,
      "ĠAdditional": 3219,
      "Ġdeveloping": 3220,
      "ĠRA": 3221,
      "Ġcandid": 3222,
      "known": 3223,
      "Ġagree": 3224,
      "data": 3225,
      "Ġproliferation": 3226,
      "Ġolig": 3227,
      "arding": 3228,
      "ceptib": 3229,
      "Ġlittle": 3230,
      "Ġthird": 3231,
      "otherapy": 3232,
      "DA": 3233,
      "ĠâĪĴ": 3234,
      "Ġreplication": 3235,
      "ĠWhile": 3236,
      "ĠpH": 3237,
      "Ġtrue": 3238,
      "Ġng": 3239,
      "ĠWith": 3240,
      "wh": 3241,
      "Ġunderstanding": 3242,
      "Ġuntil": 3243,
      "Ġinternal": 3244,
      "Ġcourse": 3245,
      "29": 3246,
      "ochond": 3247,
      "Ġrecorded": 3248,
      "Ġwr": 3249,
      "ights": 3250,
      "Ġcoord": 3251,
      "Ġdifferentiation": 3252,
      "Ġmicroscop": 3253,
      "Ġbelie": 3254,
      "This": 3255,
      "33": 3256,
      "Ġbias": 3257,
      "estern": 3258,
      "Ġalter": 3259,
      "Ġspati": 3260,
      "Ġdig": 3261,
      "ĠIF": 3262,
      "Ġprobes": 3263,
      "Ġemerg": 3264,
      "Ġinfections": 3265,
      "Ġsw": 3266,
      "Ġrelease": 3267,
      "less": 3268,
      "rup": 3269,
      "Ġresponsible": 3270,
      "Ġreflec": 3271,
      "Ġapplication": 3272,
      "Ġdiver": 3273,
      "Ġevent": 3274,
      "ope": 3275,
      "Ġside": 3276,
      "Ġinduction": 3277,
      "ĠCell": 3278,
      "Ġnucleotide": 3279,
      "Ġsurgery": 3280,
      "Ġmedian": 3281,
      "Ġoxid": 3282,
      "Ġsection": 3283,
      "hol": 3284,
      "Ġcultures": 3285,
      "Ġhydro": 3286,
      "ĠOf": 3287,
      "Ġ2005": 3288,
      "alian": 3289,
      "iat": 3290,
      "Ġoccurred": 3291,
      "OR": 3292,
      "Ġconcern": 3293,
      "Ġduration": 3294,
      "day": 3295,
      "king": 3296,
      "east": 3297,
      "Ġapproved": 3298,
      "Ġprofiles": 3299,
      "Ġsynthesis": 3300,
      "Ġnoted": 3301,
      "ozyg": 3302,
      "Ġcategories": 3303,
      "aacq": 3304,
      "Ġfuture": 3305,
      "Ġsubsequent": 3306,
      "Ġmetast": 3307,
      "range": 3308,
      "'-": 3309,
      "ĠBecause": 3310,
      "Ġstimulation": 3311,
      "Ġfar": 3312,
      "Ġrest": 3313,
      "Ġden": 3314,
      "Ġdiss": 3315,
      "aily": 3316,
      "mitted": 3317,
      "CL": 3318,
      "Ġproduce": 3319,
      "SH": 3320,
      "ĠCo": 3321,
      "onucle": 3322,
      "Ġsimple": 3323,
      "Ġdiet": 3324,
      "Ġbacterial": 3325,
      "Ġpolic": 3326,
      "Ġversion": 3327,
      "Ġaccuracy": 3328,
      "Ġlonger": 3329,
      "Ġkinase": 3330,
      "Ġlocation": 3331,
      "GE": 3332,
      "Ġinflammatory": 3333,
      "Ġdone": 3334,
      "Ġdon": 3335,
      "Ġsubject": 3336,
      "iotic": 3337,
      "SI": 3338,
      "Ġinterven": 3339,
      "Ġorigin": 3340,
      "Ġfig": 3341,
      "Ġelectr": 3342,
      "Ġve": 3343,
      "eli": 3344,
      "Ġprimer": 3345,
      "Ġsignals": 3346,
      "ending": 3347,
      "Ġenergy": 3348,
      "Ġcontained": 3349,
      "ina": 3350,
      "Ġbacteria": 3351,
      "Ġfold": 3352,
      "off": 3353,
      "Ġcollection": 3354,
      "Ġslight": 3355,
      "Ġ21": 3356,
      "Ġasth": 3357,
      "ception": 3358,
      "Ġglucose": 3359,
      "qaaiabd": 3360,
      "Ġsusceptib": 3361,
      "Ġextent": 3362,
      "Ġmig": 3363,
      "grad": 3364,
      "Ġcharacterized": 3365,
      "Ġfund": 3366,
      "unction": 3367,
      "TG": 3368,
      "Ġfixed": 3369,
      "Ġquestionnaire": 3370,
      "rep": 3371,
      "Ġvariance": 3372,
      "For": 3373,
      "Ġtren": 3374,
      "Ġeducation": 3375,
      "Ġrepresented": 3376,
      "Ġquantif": 3377,
      "den": 3378,
      "Ġpossibility": 3379,
      "ĠTNF": 3380,
      "Ġprograms": 3381,
      "Ġlaboratory": 3382,
      "Ġcere": 3383,
      "Ġdecl": 3384,
      "Ġintrac": 3385,
      "ched": 3386,
      "Ġsections": 3387,
      "baaS": 3388,
      "Ġtransmission": 3389,
      "Ġevaluate": 3390,
      "Ġclassification": 3391,
      "Ġpositions": 3392,
      "overy": 3393,
      "ĠAmeric": 3394,
      "Ġtranscriptional": 3395,
      "Ġremains": 3396,
      "virus": 3397,
      "Ġimplic": 3398,
      "Ġhouse": 3399,
      "Ġleading": 3400,
      "Ġ)": 3401,
      "Ġstrongly": 3402,
      "Ġclearly": 3403,
      "Ġmagn": 3404,
      "Ġmaterial": 3405,
      "erate": 3406,
      "Ġpass": 3407,
      "Ġassays": 3408,
      "sp": 3409,
      "Ġmales": 3410,
      "Ġphylogenetic": 3411,
      "Ġnetworks": 3412,
      "au": 3413,
      "Ġevolutionary": 3414,
      "Ġclose": 3415,
      "Ġforms": 3416,
      "ĠIns": 3417,
      "Ġsupp": 3418,
      "ogenous": 3419,
      "Ġlibr": 3420,
      "PD": 3421,
      "34": 3422,
      "Ġiden": 3423,
      "Ġstrategy": 3424,
      "Ġusually": 3425,
      "Ġsil": 3426,
      "Ġprofile": 3427,
      "Ġcoding": 3428,
      "Ġ2001": 3429,
      "OD": 3430,
      "Ġconfirm": 3431,
      "Ġdependent": 3432,
      "aph": 3433,
      "Ġembryos": 3434,
      "ography": 3435,
      "Ġrepl": 3436,
      "Ġauthor": 3437,
      "%.": 3438,
      "Ġexon": 3439,
      "Ġintra": 3440,
      "rich": 3441,
      "fam": 3442,
      "Ġnatural": 3443,
      "Ġobservations": 3444,
      "IF": 3445,
      "sh": 3446,
      "An": 3447,
      "meaabaqaciaacaGaaeqabaqabeGadaaak": 3448,
      "ĠPD": 3449,
      "Ġdiffer": 3450,
      "Ġreactions": 3451,
      "Ġrespect": 3452,
      "ape": 3453,
      "Ġresearc": 3454,
      "ĠStates": 3455,
      "Ġparal": 3456,
      "Ġbecome": 3457,
      "Ġsuccessful": 3458,
      "Ġ80": 3459,
      "iabg": 3460,
      "Ġsources": 3461,
      "Ġhumans": 3462,
      "Ġincorpor": 3463,
      "eness": 3464,
      "cqGG": 3465,
      "Ġneuro": 3466,
      "Ġbu": 3467,
      "Ġassemb": 3468,
      "Ġtransl": 3469,
      "Ġparameter": 3470,
      "Ġmitochond": 3471,
      "Ġfemales": 3472,
      "Ġprinc": 3473,
      "Ġcontribute": 3474,
      "ĠSP": 3475,
      "Ġarter": 3476,
      "ĠPM": 3477,
      "Ġearl": 3478,
      "32": 3479,
      "Ġweak": 3480,
      "ĠStud": 3481,
      "ĠPA": 3482,
      "Ġ90": 3483,
      "Ġfailure": 3484,
      "Ġepithelial": 3485,
      "ÎĶ": 3486,
      "aster": 3487,
      "Ġsmaller": 3488,
      "Ġdaily": 3489,
      "Ġfragment": 3490,
      "DR": 3491,
      "urrence": 3492,
      "Ġconstit": 3493,
      "ĠEST": 3494,
      "Ġstrategies": 3495,
      "aired": 3496,
      "Ġrepeated": 3497,
      "alse": 3498,
      "Ġcore": 3499,
      "opath": 3500,
      "pub": 3501,
      "Ġdri": 3502,
      "itrogen": 3503,
      "oly": 3504,
      "Ġaspec": 3505,
      "Ġtend": 3506,
      "Ġtransfer": 3507,
      "Ġlinkage": 3508,
      "Ġconfidence": 3509,
      "vis": 3510,
      "ĠAp": 3511,
      "ĠPBS": 3512,
      "ochemical": 3513,
      "Ġobservation": 3514,
      "ĠST": 3515,
      "Ġillustr": 3516,
      "utri": 3517,
      "Ġidentical": 3518,
      "Ġaddress": 3519,
      "Ġgraph": 3520,
      "Ġalmost": 3521,
      "Ġ28": 3522,
      "Ġnor": 3523,
      "Ġsynd": 3524,
      "Ġdivid": 3525,
      "earch": 3526,
      "VA": 3527,
      "Ġche": 3528,
      "Ġequal": 3529,
      "ively": 3530,
      "Ġcolumn": 3531,
      "Ġapparent": 3532,
      "ĠCan": 3533,
      "ĠPre": 3534,
      "Ġcosts": 3535,
      "orb": 3536,
      "Ġexcluded": 3537,
      "Ġdemonstrate": 3538,
      "Ġlay": 3539,
      "ighb": 3540,
      "Ġnam": 3541,
      "occ": 3542,
      "aaal": 3543,
      "Ġyeast": 3544,
      "Ġchann": 3545,
      "ES": 3546,
      "ĠData": 3547,
      "ĠÎ¼m": 3548,
      "ĠAc": 3549,
      "atives": 3550,
      "37": 3551,
      "Ġchemical": 3552,
      "ressive": 3553,
      "Ġattrib": 3554,
      "iques": 3555,
      "Ġcomplic": 3556,
      "Ġarray": 3557,
      "Ġstages": 3558,
      "Ġyet": 3559,
      "Ġconserv": 3560,
      "gin": 3561,
      "Ġchallen": 3562,
      "%),": 3563,
      "Ġclones": 3564,
      "Ġcohort": 3565,
      "Ġremaining": 3566,
      "ĠTwo": 3567,
      "ids": 3568,
      "Ġfacilit": 3569,
      "Ġadults": 3570,
      "Ġimages": 3571,
      "Ġrespiratory": 3572,
      "ĠIC": 3573,
      "Ġvary": 3574,
      "Ġrelationships": 3575,
      "Ġadvant": 3576,
      "Ġdys": 3577,
      "ĠBoth": 3578,
      "ached": 3579,
      "Ġgenotype": 3580,
      "ready": 3581,
      "Ġbind": 3582,
      "Ġapplic": 3583,
      "Ġorganisms": 3584,
      "ĠCH": 3585,
      "Ġ35": 3586,
      "Ġcomput": 3587,
      "Ġoccurs": 3588,
      "tics": 3589,
      "olved": 3590,
      "Ġvariety": 3591,
      "Ġmetabolic": 3592,
      "ygen": 3593,
      "Ġanc": 3594,
      "Ġplant": 3595,
      "ipher": 3596,
      "Ġalleles": 3597,
      "ĠInt": 3598,
      "Ġagg": 3599,
      "Ġloci": 3600,
      "Ġinterventions": 3601,
      "ĠGO": 3602,
      "Ġallows": 3603,
      "Ġconstant": 3604,
      "Ġtool": 3605,
      "Ġendot": 3606,
      "Ġmeasurement": 3607,
      "ulating": 3608,
      "Ġskin": 3609,
      "Ġwhose": 3610,
      "Ġbran": 3611,
      "Ġens": 3612,
      "ĠNor": 3613,
      "positive": 3614,
      "ĠUniversity": 3615,
      "alysis": 3616,
      "Ġassociations": 3617,
      "osen": 3618,
      "Ġplants": 3619,
      "Ġisolates": 3620,
      "//": 3621,
      "ĠGerm": 3622,
      "Ġalready": 3623,
      "ceived": 3624,
      "Ġquantitative": 3625,
      "Ġremoved": 3626,
      "Ġprepared": 3627,
      "seud": 3628,
      "monary": 3629,
      "aaB": 3630,
      "NO": 3631,
      "Ġhar": 3632,
      "Ġsupplement": 3633,
      "TC": 3634,
      "65": 3635,
      "SD": 3636,
      "Ġdocument": 3637,
      "Ġ22": 3638,
      "Ġspectr": 3639,
      "Ġmill": 3640,
      "Ġavoid": 3641,
      "Ġclustering": 3642,
      "Ġlys": 3643,
      "://": 3644,
      "elihood": 3645,
      "Ġputative": 3646,
      "Ġprepar": 3647,
      "icular": 3648,
      "Ġabund": 3649,
      "Ġ70": 3650,
      "Ġaction": 3651,
      "be": 3652,
      "enz": 3653,
      "vision": 3654,
      "ĠMeth": 3655,
      "terminal": 3656,
      "Ġcomparisons": 3657,
      "Ġprobably": 3658,
      "outh": 3659,
      "ttp": 3660,
      "Ġregarding": 3661,
      "iability": 3662,
      "itr": 3663,
      "inations": 3664,
      "Ġtargets": 3665,
      "Ġdouble": 3666,
      "omas": 3667,
      "ching": 3668,
      "Ġvariability": 3669,
      "Ġsampling": 3670,
      "Ġthroughout": 3671,
      "Ġdeliver": 3672,
      "Ġpor": 3673,
      "Ġmother": 3674,
      "Ġspatial": 3675,
      "state": 3676,
      "Ġreverse": 3677,
      "Ġasthma": 3678,
      "Ġphosphorylation": 3679,
      "Ġexperience": 3680,
      "Ġshif": 3681,
      "Ġventr": 3682,
      "Ġbroad": 3683,
      "Ġnature": 3684,
      "epend": 3685,
      "heren": 3686,
      "ĠSp": 3687,
      "aemy": 3688,
      "Ġitems": 3689,
      "son": 3690,
      "ingu": 3691,
      "Ġtechniques": 3692,
      "Ġolder": 3693,
      "Ġimproved": 3694,
      "ont": 3695,
      "Ġlocus": 3696,
      "Ġimage": 3697,
      "Ġimmedi": 3698,
      "Ġhead": 3699,
      "%).": 3700,
      "ycin": 3701,
      "Ġobtain": 3702,
      "ounts": 3703,
      "ured": 3704,
      "Ġabnormal": 3705,
      "99": 3706,
      "mod": 3707,
      "urop": 3708,
      "econd": 3709,
      "Ġactivated": 3710,
      "Ġexamination": 3711,
      "Ġextre": 3712,
      "mediated": 3713,
      "DL": 3714,
      "test": 3715,
      "Ġattem": 3716,
      "arrow": 3717,
      "Ġdamage": 3718,
      "ĠFirst": 3719,
      "Ġantigen": 3720,
      "Ġproject": 3721,
      "aro": 3722,
      "Ġgel": 3723,
      "Ġsufficient": 3724,
      "Ġextracted": 3725,
      "Ġcompare": 3726,
      "aling": 3727,
      "ods": 3728,
      "reng": 3729,
      "etal": 3730,
      "Ġfluorescence": 3731,
      "Ġresources": 3732,
      "Ġpotentially": 3733,
      "Ġcauses": 3734,
      "Ġyield": 3735,
      "ĠInde": 3736,
      "Ġinsulin": 3737,
      "Ġ198": 3738,
      "Ġ).": 3739,
      "Ġfalse": 3740,
      "Ġratios": 3741,
      "Ġmelan": 3742,
      "Ġenzymes": 3743,
      "anning": 3744,
      "Ġunknown": 3745,
      "isc": 3746,
      "iabc": 3747,
      "Ġinvas": 3748,
      "Ġnear": 3749,
      "Ġpool": 3750,
      "Ġamplification": 3751,
      "ĠFinally": 3752,
      "Ġstates": 3753,
      "Ġexerc": 3754,
      "tically": 3755,
      "ologies": 3756,
      "Ġpanel": 3757,
      "Ġturn": 3758,
      "Ġspace": 3759,
      "Ġcontinuous": 3760,
      "Ġprocedures": 3761,
      "Ġcarb": 3762,
      "aee": 3763,
      "Ġcapac": 3764,
      "HC": 3765,
      "Ġmarked": 3766,
      "Ġrare": 3767,
      "year": 3768,
      "Ġcre": 3769,
      "Ġshe": 3770,
      "orders": 3771,
      "ĠIFN": 3772,
      "ĠNa": 3773,
      "Ġinduc": 3774,
      "Ġprofession": 3775,
      "Ġplot": 3776,
      "Ġmacroph": 3777,
      "Ġcurrently": 3778,
      "Ġtag": 3779,
      "SV": 3780,
      "Ġfeature": 3781,
      "Ġallowed": 3782,
      "Ġortholog": 3783,
      "Ġtumour": 3784,
      "Ġalco": 3785,
      "Ġwashed": 3786,
      "Ġsubun": 3787,
      "rotein": 3788,
      "Ġplate": 3789,
      "istry": 3790,
      "Ġlate": 3791,
      "ritis": 3792,
      "Ġseparate": 3793,
      "Ġmap": 3794,
      "Ġfram": 3795,
      "cription": 3796,
      "Ġearlier": 3797,
      "oh": 3798,
      "part": 3799,
      "Ġunderlying": 3800,
      "Ġown": 3801,
      "Ġcm": 3802,
      "Ġunits": 3803,
      "Ġtake": 3804,
      "Ġcontact": 3805,
      "Ġfrequently": 3806,
      "eling": 3807,
      "iae": 3808,
      "otides": 3809,
      "Ġchosen": 3810,
      "Ġspecifically": 3811,
      "elling": 3812,
      "Ġperson": 3813,
      "gans": 3814,
      "Ġneeds": 3815,
      "iable": 3816,
      "ĠUsing": 3817,
      "Ġneighb": 3818,
      "lin": 3819,
      "Ġlinked": 3820,
      "ero": 3821,
      "Ġ;": 3822,
      "value": 3823,
      "57": 3824,
      "atically": 3825,
      "Ġfrequencies": 3826,
      "Ġblot": 3827,
      "Ġinjury": 3828,
      "Ġsequencing": 3829,
      "Ġincludes": 3830,
      "icacy": 3831,
      "gaaWcbaG": 3832,
      "Ġpharm": 3833,
      "IN": 3834,
      "obacter": 3835,
      "Ġcomplexes": 3836,
      "aces": 3837,
      "ĠGFP": 3838,
      "orts": 3839,
      "Ġsensitive": 3840,
      "Ġinterpretation": 3841,
      "Ġbur": 3842,
      "Ġphysicians": 3843,
      "Ġreflect": 3844,
      "RA": 3845,
      "EP": 3846,
      "Ġidenti": 3847,
      "rief": 3848,
      "Ġprocessing": 3849,
      "met": 3850,
      "Ġinvestigate": 3851,
      "Ġstreng": 3852,
      "EC": 3853,
      "ĠHP": 3854,
      "Ġ45": 3855,
      "Ġcontrolled": 3856,
      "Ġtowards": 3857,
      "Ġintracellular": 3858,
      "Ġelement": 3859,
      "Ġexpect": 3860,
      "Ġcomplement": 3861,
      "erase": 3862,
      "48": 3863,
      "Ġdiagnostic": 3864,
      "ives": 3865,
      "ufact": 3866,
      "Ġseems": 3867,
      "ĠBy": 3868,
      "Ġagreement": 3869,
      "Ġseven": 3870,
      "Ġreproduc": 3871,
      "Ġelevated": 3872,
      "Ġdiverg": 3873,
      "Ġmainly": 3874,
      "Ġperipher": 3875,
      "Ġnext": 3876,
      "Ġten": 3877,
      "Ġstable": 3878,
      "MC": 3879,
      "Ġrob": 3880,
      "Ġworld": 3881,
      "indow": 3882,
      "ipp": 3883,
      "overn": 3884,
      "68": 3885,
      "Ġhis": 3886,
      "stead": 3887,
      "Ġinduce": 3888,
      "elines": 3889,
      "Ġbiom": 3890,
      "everal": 3891,
      "IC": 3892,
      "Ġinhibitor": 3893,
      "TL": 3894,
      "Ġaden": 3895,
      "Ġtechnique": 3896,
      "Ġresearchers": 3897,
      "igma": 3898,
      "Ġpack": 3899,
      "Ġinflammation": 3900,
      "erestingly": 3901,
      "Ġprogression": 3902,
      "Ġusers": 3903,
      "Ġtable": 3904,
      "otes": 3905,
      "ĠCol": 3906,
      "Ġunc": 3907,
      "Ġ*": 3908,
      "47": 3909,
      "Ġmanufact": 3910,
      "anol": 3911,
      "Ġassigned": 3912,
      "Ġnm": 3913,
      "Ġmetabolism": 3914,
      "ĠOther": 3915,
      "Ġdegrad": 3916,
      "rogen": 3917,
      "Ġissues": 3918,
      "Ġcatal": 3919,
      "Ġgenerate": 3920,
      "Ġinjection": 3921,
      "Ġregulated": 3922,
      "Ġcompr": 3923,
      "Ġpoll": 3924,
      "Ġeight": 3925,
      "ney": 3926,
      "Ġconsensus": 3927,
      "ished": 3928,
      "Ġrib": 3929,
      "Ġrequires": 3930,
      "ĠSome": 3931,
      "Ġjust": 3932,
      "Ġclassified": 3933,
      "eration": 3934,
      "ĠNF": 3935,
      "Ġexplain": 3936,
      "eral": 3937,
      "Ġinteract": 3938,
      "Ġcytoplas": 3939,
      "Ġstart": 3940,
      "LAST": 3941,
      "Ġroom": 3942,
      "ĠIndi": 3943,
      "Ġautom": 3944,
      "39": 3945,
      "Ġexamine": 3946,
      "use": 3947,
      "eutic": 3948,
      "Ġstained": 3949,
      "back": 3950,
      "Ġdecision": 3951,
      "ĠInstit": 3952,
      "ises": 3953,
      "Ġdetailed": 3954,
      "otor": 3955,
      "Ġexpressing": 3956,
      "ĠPR": 3957,
      "Ġexact": 3958,
      "42": 3959,
      "],": 3960,
      "Ġoptimal": 3961,
      "Ġexcept": 3962,
      "Ġful": 3963,
      "Ġappe": 3964,
      "eg": 3965,
      "Ġconven": 3966,
      "aaa": 3967,
      "MD": 3968,
      "Ġ%": 3969,
      "Ġuser": 3970,
      "Ġrepresentative": 3971,
      "Ġsqu": 3972,
      "ĠPar": 3973,
      "qaaiab": 3974,
      "Ġhypothes": 3975,
      "/-": 3976,
      "Our": 3977,
      "ethyl": 3978,
      "Ġbehaviour": 3979,
      "oform": 3980,
      "tely": 3981,
      "Ġlesions": 3982,
      "Ġ29": 3983,
      "Ġdifferential": 3984,
      "def": 3985,
      "ifferen": 3986,
      "Ġvariants": 3987,
      "istent": 3988,
      "Ġâī¥": 3989,
      "ĠCent": 3990,
      "Ġschool": 3991,
      "Ġhorm": 3992,
      "Ġnumer": 3993,
      "Ġcapacity": 3994,
      "Ġlikelihood": 3995,
      "ĠNational": 3996,
      "heless": 3997,
      "Ġsaf": 3998,
      "io": 3999,
      "lab": 4000,
      "regulation": 4001,
      "Ġnodes": 4002,
      "Ġadministration": 4003,
      "valent": 4004,
      "Ġtransport": 4005,
      "rin": 4006,
      "Ġtools": 4007,
      "ton": 4008,
      "Ġobes": 4009,
      "aemO": 4010,
      "Ġexplan": 4011,
      "Ġachieved": 4012,
      "imens": 4013,
      "Ġchec": 4014,
      "rh": 4015,
      "GA": 4016,
      "ps": 4017,
      "Ġword": 4018,
      "BD": 4019,
      "Ġsyndrome": 4020,
      "Ġcultured": 4021,
      "kg": 4022,
      "Ġimprovement": 4023,
      "aaBaaal": 4024,
      "Ġcomparing": 4025,
      "Ġmedia": 4026,
      "Ġdelay": 4027,
      "Ġslightly": 4028,
      "Ġ26": 4029,
      "Ġfeed": 4030,
      "Ġworkers": 4031,
      "It": 4032,
      "Ġ27": 4033,
      "PAR": 4034,
      "Ġrecombination": 4035,
      "inate": 4036,
      "Ġremain": 4037,
      "Ġleads": 4038,
      "Ġdatasets": 4039,
      "Ġold": 4040,
      "49": 4041,
      "point": 4042,
      "rs": 4043,
      "wide": 4044,
      "ĠâĪ": 4045,
      "ĠMS": 4046,
      "Ġpast": 4047,
      "Ġplaced": 4048,
      "ĠMost": 4049,
      "Ġcalled": 4050,
      "Ġeng": 4051,
      "Ġovere": 4052,
      "Ġoste": 4053,
      "tebr": 4054,
      "ĠEurop": 4055,
      "idity": 4056,
      "CO": 4057,
      "aeaacq": 4058,
      "Ġclasses": 4059,
      "Ġprogramm": 4060,
      "ighted": 4061,
      "Ġanalysed": 4062,
      "NS": 4063,
      "urb": 4064,
      "ares": 4065,
      "Ġgeneration": 4066,
      "Ġtransform": 4067,
      "ison": 4068,
      "ange": 4069,
      "sive": 4070,
      "Ġhybridization": 4071,
      "Ġcurve": 4072,
      "ateral": 4073,
      "tioned": 4074,
      "Ġcomm": 4075,
      "Ġefficacy": 4076,
      "Ġillness": 4077,
      "Ġstudents": 4078,
      "Ġexcl": 4079,
      "olester": 4080,
      "cribed": 4081,
      "lasts": 4082,
      "Ġdev": 4083,
      "cqGH": 4084,
      "where": 4085,
      "Ġonset": 4086,
      "Ġchlor": 4087,
      "ĠPati": 4088,
      "Ġestablish": 4089,
      "Ġlatter": 4090,
      "dr": 4091,
      "side": 4092,
      "Ġcommonly": 4093,
      "Ġannotation": 4094,
      "ET": 4095,
      "ĠResearch": 4096,
      "67": 4097,
      "Ġoxygen": 4098,
      "exp": 4099,
      "tex": 4100,
      "Ġmodified": 4101,
      "ades": 4102,
      "enic": 4103,
      "Ġdisorders": 4104,
      "plant": 4105,
      "Ġalcohol": 4106,
      "Ġconcept": 4107,
      "Ġcodon": 4108,
      "Ġfully": 4109,
      "Ġidentity": 4110,
      "Ġcontributed": 4111,
      "Ġpregnancy": 4112,
      "iatric": 4113,
      "inity": 4114,
      "Xaq": 4115,
      "operative": 4116,
      "Ġasked": 4117,
      "Ġmalign": 4118,
      "Ġpulmonary": 4119,
      "Ġdiscrim": 4120,
      "Ġwidely": 4121,
      "Ġerrors": 4122,
      "Ġcorrec": 4123,
      "Ġrandomly": 4124,
      "Ġ23": 4125,
      "Ġfollows": 4126,
      "emic": 4127,
      "Ġencoding": 4128,
      "Ġarg": 4129,
      "ash": 4130,
      "Ġlearning": 4131,
      "ectiveness": 4132,
      "Ġgast": 4133,
      "ĠSw": 4134,
      "Ġindepend": 4135,
      "Ġintervals": 4136,
      "version": 4137,
      "Ġnorm": 4138,
      "ML": 4139,
      "Ġcorrespond": 4140,
      "ocardi": 4141,
      "Ġtransfected": 4142,
      "Ġclon": 4143,
      "Ġcompounds": 4144,
      "Ġwide": 4145,
      "Ġcompletely": 4146,
      "Ġrespondents": 4147,
      "acent": 4148,
      "ĠSub": 4149,
      "ĠBr": 4150,
      "Îº": 4151,
      "ociated": 4152,
      "ometric": 4153,
      "Ġpeptides": 4154,
      "ibly": 4155,
      "Ġconclud": 4156,
      "Ġrecommend": 4157,
      "ophila": 4158,
      "ĠIII": 4159,
      "Ġseem": 4160,
      "Ġdatabases": 4161,
      "44": 4162,
      "Ġdepression": 4163,
      "ccq": 4164,
      "jabc": 4165,
      "li": 4166,
      "oxic": 4167,
      "Ġsupported": 4168,
      "Ġsegment": 4169,
      "HA": 4170,
      "Ġaccept": 4171,
      "Ġcarcinoma": 4172,
      "Ġrecruit": 4173,
      "Ġprincip": 4174,
      "Ġod": 4175,
      "WF": 4176,
      "Ġliving": 4177,
      "Ġparticles": 4178,
      "Ġpolicy": 4179,
      "ĠPP": 4180,
      "Ġconver": 4181,
      "Ġfragments": 4182,
      "Ġgender": 4183,
      "oxid": 4184,
      "ovascular": 4185,
      "Ġleg": 4186,
      "Ġyou": 4187,
      "Ġchromosomes": 4188,
      "Ġadjusted": 4189,
      "Ġdiversity": 4190,
      "ering": 4191,
      "ĠBl": 4192,
      "ested": 4193,
      "Ġled": 4194,
      "reatment": 4195,
      "Ġchain": 4196,
      "Ġadverse": 4197,
      "Ġreasons": 4198,
      "sw": 4199,
      "tag": 4200,
      "ĠUK": 4201,
      "binding": 4202,
      "Ġdescribe": 4203,
      "icle": 4204,
      "Ġunit": 4205,
      "amb": 4206,
      "entific": 4207,
      "Ġdoses": 4208,
      "ĠPer": 4209,
      "Ġpseud": 4210,
      "osome": 4211,
      "otal": 4212,
      "BL": 4213,
      "Ġguidelines": 4214,
      "Ġsubstrate": 4215,
      "Ġdiff": 4216,
      "Ġleuk": 4217,
      "Ġbelong": 4218,
      "ĠSe": 4219,
      "GT": 4220,
      "Ġremained": 4221,
      "Ġenhanced": 4222,
      "Ġdistingu": 4223,
      "Ġphot": 4224,
      "Ġequi": 4225,
      "Ġnational": 4226,
      "ula": 4227,
      "Ġpurified": 4228,
      "Ġcomparable": 4229,
      "Ġsubset": 4230,
      "Ġfav": 4231,
      "Ġhypert": 4232,
      "Ġdate": 4233,
      "ticip": 4234,
      "Ġmental": 4235,
      "ĠNew": 4236,
      "ĠÎĶ": 4237,
      "rac": 4238,
      "Ġancest": 4239,
      "Ġelim": 4240,
      "overed": 4241,
      "ĠSuch": 4242,
      "Ġclosely": 4243,
      "izations": 4244,
      "try": 4245,
      "BC": 4246,
      "ĠTF": 4247,
      "Ġmanner": 4248,
      "ID": 4249,
      "fl": 4250,
      "Ġra": 4251,
      "Ġtreatments": 4252,
      "ĠMethods": 4253,
      "control": 4254,
      "Ġaccom": 4255,
      "Ġtempor": 4256,
      "Ġprogn": 4257,
      "Ġrobust": 4258,
      "ĠInterestingly": 4259,
      "Ġnurs": 4260,
      "Ġupper": 4261,
      "Ġheterogene": 4262,
      "Ġexplained": 4263,
      "ectors": 4264,
      "31": 4265,
      "ukary": 4266,
      "Ġlipid": 4267,
      "Ġinfer": 4268,
      "Ġcal": 4269,
      "pective": 4270,
      "Ġdraw": 4271,
      "Ġcardiac": 4272,
      "ĠGermany": 4273,
      "Ġmanufacture": 4274,
      "ĠAss": 4275,
      "Ġagents": 4276,
      "Ġthought": 4277,
      "infected": 4278,
      "Ġexercise": 4279,
      "emia": 4280,
      "Ġrelation": 4281,
      "Ġexons": 4282,
      "ariate": 4283,
      "jabd": 4284,
      "tor": 4285,
      "aring": 4286,
      "Ġ1999": 4287,
      "MR": 4288,
      "uction": 4289,
      "LP": 4290,
      "rm": 4291,
      "erve": 4292,
      "ĠUS": 4293,
      "Ġminor": 4294,
      "Ġmixed": 4295,
      "Ġpositi": 4296,
      ")-": 4297,
      "ops": 4298,
      "Ġcandidate": 4299,
      "activity": 4300,
      "Ġviruses": 4301,
      "www": 4302,
      "Ġtax": 4303,
      "ott": 4304,
      "rium": 4305,
      "Ġnode": 4306,
      "Ġcycles": 4307,
      "neum": 4308,
      "Ġtrig": 4309,
      "Ġstem": 4310,
      "Ġcolle": 4311,
      "Ġsubstantial": 4312,
      "Ġnutri": 4313,
      "HS": 4314,
      "Ġefficiency": 4315,
      "Ġpredictions": 4316,
      "position": 4317,
      "lim": 4318,
      "Ġtext": 4319,
      "CV": 4320,
      "Ġrepeat": 4321,
      "tices": 4322,
      "osomal": 4323,
      "ĠTB": 4324,
      "Ġblue": 4325,
      "Ġarth": 4326,
      "ĠOnly": 4327,
      "olesterol": 4328,
      "IR": 4329,
      "ields": 4330,
      "Ġemployed": 4331,
      "Ġalways": 4332,
      "Ġchoice": 4333,
      "ĠDi": 4334,
      "02": 4335,
      "aaSbaaS": 4336,
      "Ġdeletion": 4337,
      "lob": 4338,
      "ert": 4339,
      "ifug": 4340,
      "olec": 4341,
      "ĠLe": 4342,
      "gene": 4343,
      "Ġrefer": 4344,
      "Ġsearc": 4345,
      "Ġgive": 4346,
      "Ġpredom": 4347,
      "ternal": 4348,
      "Ġissue": 4349,
      "Ġcompleted": 4350,
      "lus": 4351,
      "Ġcompeting": 4352,
      "Ġcogn": 4353,
      "Ġspe": 4354,
      "mitte": 4355,
      "ĠATP": 4356,
      "Ġincubation": 4357,
      "pha": 4358,
      "Ġmitochondrial": 4359,
      "aptic": 4360,
      "Ġ72": 4361,
      "Ġbasic": 4362,
      "osa": 4363,
      "ads": 4364,
      "ĠOR": 4365,
      "Ġarch": 4366,
      "ÎºB": 4367,
      "roid": 4368,
      "Ġmaking": 4369,
      "Ġonce": 4370,
      "Ġperipheral": 4371,
      "ĠSD": 4372,
      "Ġdistributions": 4373,
      "Ġmillion": 4374,
      "Ġinstit": 4375,
      "Ġoccup": 4376,
      "Ġsteps": 4377,
      "ĠInternet": 4378,
      "Ġmissing": 4379,
      "free": 4380,
      "Ġaspects": 4381,
      "Î¼": 4382,
      "daWgaaWcbaG": 4383,
      "Ġmaintained": 4384,
      "Ġexpress": 4385,
      "ĠME": 4386,
      "Ġacet": 4387,
      "Ġrout": 4388,
      "Ġminimum": 4389,
      "ta": 4390,
      "Ġdeviation": 4391,
      "oster": 4392,
      "abb": 4393,
      "There": 4394,
      "Ġamplified": 4395,
      "lated": 4396,
      "Ġalignments": 4397,
      "Ġgrown": 4398,
      "Ġhep": 4399,
      "Ġinteres": 4400,
      "Ġcarry": 4401,
      "ĠHR": 4402,
      "Ġmis": 4403,
      "ococc": 4404,
      "Ġappeared": 4405,
      "stim": 4406,
      "Ġkb": 4407,
      "onomic": 4408,
      "Ġoutput": 4409,
      "Ġsatis": 4410,
      "Ġworking": 4411,
      "Ġwhite": 4412,
      "Ġcategory": 4413,
      "Ġconsent": 4414,
      "nt": 4415,
      "ultaneous": 4416,
      "Ch": 4417,
      "tious": 4418,
      "Ġhousehold": 4419,
      "Ġdespite": 4420,
      "Ġcy": 4421,
      "Ġconservation": 4422,
      "Ġinterests": 4423,
      "MM": 4424,
      "Ġgovern": 4425,
      "Ġdistributed": 4426,
      "Ġgreen": 4427,
      "Ġbenefit": 4428,
      "Ġcomputer": 4429,
      "ars": 4430,
      "utive": 4431,
      "Ġfin": 4432,
      "Ġmoderate": 4433,
      "Ġqual": 4434,
      "Ġwindow": 4435,
      "Ġproviding": 4436,
      "Ġfigure": 4437,
      "take": 4438,
      "Ġupstream": 4439,
      "Ġfall": 4440,
      "Ġeukary": 4441,
      "Ġethn": 4442,
      "ĠAcc": 4443,
      "Ġphysiological": 4444,
      "Ġcomposition": 4445,
      "certain": 4446,
      "Ġcoefficient": 4447,
      "Ġtoo": 4448,
      "ĠSur": 4449,
      "Ġexisting": 4450,
      "Ġstaff": 4451,
      "rosis": 4452,
      "Ġdiscussed": 4453,
      "Ġoral": 4454,
      "estinal": 4455,
      "going": 4456,
      "98": 4457,
      "ĠAD": 4458,
      "Ġmaternal": 4459,
      "ĠWestern": 4460,
      "Ġconsumption": 4461,
      "Ġsperm": 4462,
      "aid": 4463,
      "Ġcoup": 4464,
      "Ġconstructed": 4465,
      "ĠIndeed": 4466,
      "HO": 4467,
      "phosph": 4468,
      "ĠCF": 4469,
      "ĠHere": 4470,
      "xi": 4471,
      "Ġamounts": 4472,
      "Ġtherapeutic": 4473,
      "ogram": 4474,
      "Ġassumed": 4475,
      "Ġadvantage": 4476,
      "ĠIgG": 4477,
      "OC": 4478,
      "Ġjoint": 4479,
      "ĠAg": 4480,
      "oli": 4481,
      "Ġecon": 4482,
      "Ġdraf": 4483,
      "Ġinhibitors": 4484,
      "ĠAmong": 4485,
      "BA": 4486,
      "associated": 4487,
      "bre": 4488,
      "ystems": 4489,
      "Ġconstruct": 4490,
      "aditional": 4491,
      "Ġdelivery": 4492,
      "Ġstrength": 4493,
      "Ġalgorithms": 4494,
      "Ġrol": 4495,
      "Ġintroduced": 4496,
      "Ġspread": 4497,
      "Ġdivided": 4498,
      "Ġexcess": 4499,
      "Ġfast": 4500,
      "Ġprevention": 4501,
      "ifications": 4502,
      "Ġcytokines": 4503,
      "ozygous": 4504,
      "Ġster": 4505,
      "Ġglut": 4506,
      "ĠMA": 4507,
      "LC": 4508,
      "St": 4509,
      "Ġsom": 4510,
      "ĠSup": 4511,
      "ret": 4512,
      "asp": 4513,
      "tile": 4514,
      "ĠGP": 4515,
      "Ġseverity": 4516,
      "Ġimm": 4517,
      "rosophila": 4518,
      "hydro": 4519,
      "Ġsummar": 4520,
      "Ġmammalian": 4521,
      "Ġslow": 4522,
      "ĠSecond": 4523,
      "ĠMC": 4524,
      "uments": 4525,
      "ĠCS": 4526,
      "Ġplates": 4527,
      "Ġwall": 4528,
      "oded": 4529,
      "Ġlabeled": 4530,
      "ĠCal": 4531,
      "ĠCells": 4532,
      "radi": 4533,
      "bi": 4534,
      "Ġintake": 4535,
      "Ġcry": 4536,
      "Ġgenotypes": 4537,
      "Ġmacrophages": 4538,
      ".)": 4539,
      "Â®": 4540,
      "43": 4541,
      "Ġdevelopmental": 4542,
      "Ġelectro": 4543,
      "Ġintermedi": 4544,
      "jug": 4545,
      "Ġfibrob": 4546,
      "Ġfilter": 4547,
      "IS": 4548,
      "ĠSm": 4549,
      "Ġmapping": 4550,
      "Ġentr": 4551,
      "Ġitself": 4552,
      "Ġlocalization": 4553,
      "Ġseparated": 4554,
      "MT": 4555,
      "Ġtrend": 4556,
      "Ġaccumulation": 4557,
      "Ġsimultaneous": 4558,
      "dle": 4559,
      "iform": 4560,
      "Ġgenotyp": 4561,
      "Ġrequ": 4562,
      "Ġdisplayed": 4563,
      "Ġhighl": 4564,
      "Ġtrees": 4565,
      "Ġreach": 4566,
      "ire": 4567,
      "Ġstri": 4568,
      "Ġ75": 4569,
      "66": 4570,
      "anes": 4571,
      "Ġsurgical": 4572,
      "onym": 4573,
      "Ġbasal": 4574,
      "Ġann": 4575,
      "Ġpersonal": 4576,
      "Ġdisrup": 4577,
      "mark": 4578,
      "Ġaltered": 4579,
      "Ġimplemented": 4580,
      "gg": 4581,
      "Ġfusion": 4582,
      "Ġphenotypes": 4583,
      "fered": 4584,
      "EGF": 4585,
      "ners": 4586,
      "IL": 4587,
      "Ġmediated": 4588,
      "Ġselective": 4589,
      "cers": 4590,
      "Ġposterior": 4591,
      "Gen": 4592,
      "Ġinvolving": 4593,
      "Ġschem": 4594,
      "Ġmil": 4595,
      "ĠBios": 4596,
      "Ġcorrelations": 4597,
      "ceed": 4598,
      "Ġsplicing": 4599,
      "Ġbal": 4600,
      "NC": 4601,
      "Ġrecombinant": 4602,
      "apped": 4603,
      "Ġdegradation": 4604,
      "Ġfluid": 4605,
      "jabb": 4606,
      "Ġinvestigation": 4607,
      "ronch": 4608,
      "lel": 4609,
      "Ġimplementation": 4610,
      "ĠTrans": 4611,
      "ĠSimilarly": 4612,
      "inking": 4613,
      "Ġ500": 4614,
      "Ġ32": 4615,
      "avage": 4616,
      "Ġchallenge": 4617,
      "Ġneural": 4618,
      "ĠÂ°": 4619,
      "Ġfish": 4620,
      "published": 4621,
      "Ġvascular": 4622,
      "Ġcardiovascular": 4623,
      "Wh": 4624,
      "ĠAT": 4625,
      "Ġensure": 4626,
      "Ġinteresting": 4627,
      "care": 4628,
      "ĠORF": 4629,
      "Ġplus": 4630,
      "Ġcounter": 4631,
      "Ġ36": 4632,
      "Ġinstance": 4633,
      "ĠDes": 4634,
      "ĠOver": 4635,
      "ĠSpec": 4636,
      "load": 4637,
      "ĠDrosophila": 4638,
      "Ġadequ": 4639,
      "Ġpneum": 4640,
      "Ġlimitations": 4641,
      "Ġ~": 4642,
      "Ġmixture": 4643,
      "Ġaggreg": 4644,
      "Ġrepair": 4645,
      "Ġtoxic": 4646,
      "Ġintron": 4647,
      "Ġsequenced": 4648,
      "Ġcoverage": 4649,
      "portun": 4650,
      "Ġadjust": 4651,
      "Ġgain": 4652,
      "tionally": 4653,
      "Ġaccurate": 4654,
      "aqu": 4655,
      "dim": 4656,
      "Ġcopy": 4657,
      "GC": 4658,
      "illed": 4659,
      "ytes": 4660,
      "Ġnormalized": 4661,
      "Ġsusceptibility": 4662,
      "emb": 4663,
      "Ġsystematic": 4664,
      "level": 4665,
      "Ġprimarily": 4666,
      "Ġkit": 4667,
      "Ġfocused": 4668,
      "ĠCons": 4669,
      "abeaak": 4670,
      "Ġdetails": 4671,
      "Ġâī¤": 4672,
      "Ġspon": 4673,
      "Ġintern": 4674,
      "Ġbreak": 4675,
      "Ġindependently": 4676,
      "Ġligand": 4677,
      "abilities": 4678,
      "aay": 4679,
      "Ġefficient": 4680,
      "Ġmes": 4681,
      "immun": 4682,
      "Ġisoform": 4683,
      "Ġstability": 4684,
      "ometry": 4685,
      "Ġste": 4686,
      "rine": 4687,
      "LR": 4688,
      "atistic": 4689,
      "Ġorganization": 4690,
      "Ġvertebr": 4691,
      "ectious": 4692,
      "ework": 4693,
      "Ġdownstream": 4694,
      "Ġbegin": 4695,
      "Ġoverex": 4696,
      "ĠED": 4697,
      "ials": 4698,
      "Ġtypically": 4699,
      "Ġansw": 4700,
      "Am": 4701,
      "ĠPatients": 4702,
      "Ġdifferentially": 4703,
      "Ġcentrifug": 4704,
      "rie": 4705,
      "Ġdefinition": 4706,
      "Ġmethylation": 4707,
      "Ġnucleus": 4708,
      "PC": 4709,
      "Ġextracellular": 4710,
      "Ġcolleag": 4711,
      "Ġlook": 4712,
      "Ġservice": 4713,
      "Ġimaging": 4714,
      "Ġrestricted": 4715,
      "Ġopportun": 4716,
      "Ġuses": 4717,
      "Ġrepresenting": 4718,
      "Ġsizes": 4719,
      "Ġgran": 4720,
      "Ġemph": 4721,
      "Ġvaccine": 4722,
      "Ġmuc": 4723,
      "Ġaged": 4724,
      "ports": 4725,
      "Ġcreated": 4726,
      "Ġcomputed": 4727,
      "Ġenhance": 4728,
      "Ġbuil": 4729,
      "Ġdefine": 4730,
      "ĠDe": 4731,
      "OL": 4732,
      "ils": 4733,
      "ĠOr": 4734,
      "Ġtypical": 4735,
      "Ġantibiotic": 4736,
      "rehen": 4737,
      "Ġprop": 4738,
      "Ġori": 4739,
      "Ġbars": 4740,
      "Ġproxim": 4741,
      "aemi": 4742,
      "mittee": 4743,
      "Ġinclusion": 4744,
      "Ġcholesterol": 4745,
      "Ġtransition": 4746,
      "aam": 4747,
      "Ġexposures": 4748,
      "AM": 4749,
      "uited": 4750,
      "inter": 4751,
      "Bs": 4752,
      "46": 4753,
      "Ġprostate": 4754,
      "Ġfrequent": 4755,
      "Ġpurpose": 4756,
      "Ġcovari": 4757,
      "ĠAmerican": 4758,
      "Ġregular": 4759,
      "ito": 4760,
      "HP": 4761,
      "ict": 4762,
      "Ġrecognition": 4763,
      "ella": 4764,
      "Ġnoise": 4765,
      "Ġstimuli": 4766,
      "Ġtoxicity": 4767,
      "Ġglyc": 4768,
      "qG": 4769,
      "Ġec": 4770,
      "vitrogen": 4771,
      "Ġstored": 4772,
      "Ġbox": 4773,
      "ĠNO": 4774,
      "Ġradiation": 4775,
      "Ġmedicine": 4776,
      "Ġrenal": 4777,
      "Ġparents": 4778,
      "activation": 4779,
      "Ad": 4780,
      "Ġpartial": 4781,
      "Ġinvolvement": 4782,
      "ebr": 4783,
      "tition": 4784,
      "rog": 4785,
      "ĠMMP": 4786,
      "55": 4787,
      "ĠNC": 4788,
      "Ġextensive": 4789,
      "oids": 4790,
      "Ġhaplotype": 4791,
      "Ġcommunication": 4792,
      "Ġcolleagues": 4793,
      "Ġvariations": 4794,
      "Da": 4795,
      "ĠIV": 4796,
      "Ġstimulus": 4797,
      "Ġcomprehen": 4798,
      "Ġfer": 4799,
      "ĠAR": 4800,
      "aints": 4801,
      "Ġexternal": 4802,
      "ĠReg": 4803,
      "Ġrapidly": 4804,
      "Ġreturn": 4805,
      "ĠmiRNA": 4806,
      "Ba": 4807,
      "acted": 4808,
      "Ġendogenous": 4809,
      "Ġcountry": 4810,
      "Ġzero": 4811,
      "values": 4812,
      "Ġmonitoring": 4813,
      "Ġepis": 4814,
      "Ġtraditional": 4815,
      "arb": 4816,
      "Ġformed": 4817,
      "Ġactual": 4818,
      "ameter": 4819,
      "Ġpreparation": 4820,
      "Ġrepeats": 4821,
      "well": 4822,
      "Ġarrays": 4823,
      "Ġlargely": 4824,
      "ĠÂµ": 4825,
      "ĠMic": 4826,
      "Ġtet": 4827,
      "ĠAlso": 4828,
      "rot": 4829,
      "aeqaa": 4830,
      "Ġhospitals": 4831,
      "Ġsubsequently": 4832,
      "ks": 4833,
      "ban": 4834,
      "Ġamb": 4835,
      "Ġobjective": 4836,
      "ĠTGF": 4837,
      "Ġlar": 4838,
      "theless": 4839,
      "Ġdiagnosed": 4840,
      "protein": 4841,
      "ergic": 4842,
      "Ġsubgroup": 4843,
      "plate": 4844,
      "Ġcalcium": 4845,
      "ĠCR": 4846,
      "Ġdirection": 4847,
      "Ġmemory": 4848,
      "ĠSh": 4849,
      "Ġcounts": 4850,
      "Ġhyd": 4851,
      "ply": 4852,
      "Although": 4853,
      "pected": 4854,
      "Ġresidue": 4855,
      "Ġimmediately": 4856,
      "Ġphysician": 4857,
      "41": 4858,
      "Bank": 4859,
      "Ġsecretion": 4860,
      "ocation": 4861,
      "Ġbenefits": 4862,
      "umin": 4863,
      "Ġpossibly": 4864,
      "ĠID": 4865,
      "Ġpig": 4866,
      "ah": 4867,
      "Ġcancers": 4868,
      "Pbq": 4869,
      "enari": 4870,
      "ĠWeb": 4871,
      "Ġuptake": 4872,
      "Ġsocio": 4873,
      "helium": 4874,
      "Ġaver": 4875,
      "ensities": 4876,
      "Ġspecimens": 4877,
      "Ġperiods": 4878,
      "Ġcapture": 4879,
      "Ġheat": 4880,
      "Ġangi": 4881,
      "Ġspl": 4882,
      "ylated": 4883,
      "Ġneuronal": 4884,
      "Ġdisorder": 4885,
      "HR": 4886,
      "Ġperf": 4887,
      "ĠSeveral": 4888,
      "Ġendothelial": 4889,
      "Ġdeaths": 4890,
      "Ġrad": 4891,
      "ensional": 4892,
      "Ġinstead": 4893,
      "Ġoutside": 4894,
      "Ġultr": 4895,
      "Ġidentifying": 4896,
      "Ġmotor": 4897,
      "Ġstop": 4898,
      "Ġcytos": 4899,
      "Ġimpair": 4900,
      "Ġminimal": 4901,
      "Ġsettings": 4902,
      "Ġvariant": 4903,
      "Ġcortex": 4904,
      "Ġattention": 4905,
      "pers": 4906,
      "NE": 4907,
      "itor": 4908,
      "Ġretro": 4909,
      "Ġbio": 4910,
      "Ġlibrary": 4911,
      "Ġtwice": 4912,
      "Ġbronch": 4913,
      "Ġextended": 4914,
      "Ġdeclare": 4915,
      "Ġmagnitude": 4916,
      "iring": 4917,
      "went": 4918,
      "Ġcontribution": 4919,
      "ferences": 4920,
      "elled": 4921,
      "Ġnever": 4922,
      "ĠMO": 4923,
      "Ġscientific": 4924,
      "ĠSer": 4925,
      "Ġequivalent": 4926,
      "ifest": 4927,
      "Ġpredominant": 4928,
      "Ġentry": 4929,
      "ued": 4930,
      "ĠSDS": 4931,
      "Ġflex": 4932,
      "Ġframework": 4933,
      "Ġcurves": 4934,
      "Ġextract": 4935,
      "Ġshared": 4936,
      "Ġ65": 4937,
      "bal": 4938,
      "Ġdivergence": 4939,
      "ĠDuring": 4940,
      "Ġrecords": 4941,
      "Ġtranslation": 4942,
      "ernat": 4943,
      "Ġtele": 4944,
      "prising": 4945,
      "uous": 4946,
      "ontal": 4947,
      "Ġonto": 4948,
      "ĠBLAST": 4949,
      "Ġresistant": 4950,
      "olecular": 4951,
      "aaw": 4952,
      "Ġion": 4953,
      "ĠResults": 4954,
      "hing": 4955,
      "Ġextrem": 4956,
      "Ġorient": 4957,
      "Ġabsol": 4958,
      "ĠFrom": 4959,
      "Ġnull": 4960,
      "ĠNe": 4961,
      "Ġoccurrence": 4962,
      "Ġcytokine": 4963,
      "angu": 4964,
      "Ġeasily": 4965,
      "Ġ&": 4966,
      "Ġmanufacturer": 4967,
      "with": 4968,
      "Ġkid": 4969,
      "viral": 4970,
      "Ġlocations": 4971,
      "itiz": 4972,
      "romb": 4973,
      "igen": 4974,
      "Ġmigration": 4975,
      "ĠSch": 4976,
      "ams": 4977,
      "Ġadministered": 4978,
      "ĠCP": 4979,
      "ME": 4980,
      "Ġsem": 4981,
      "ĠAfrican": 4982,
      "ĠES": 4983,
      "Ġelectroph": 4984,
      "\",": 4985,
      "function": 4986,
      "97": 4987,
      "Ġgrad": 4988,
      "Ġvectors": 4989,
      "Ġacqui": 4990,
      "Ġnote": 4991,
      "Ġtail": 4992,
      "Ġparticipate": 4993,
      "Ġpharmac": 4994,
      "Ġpolymorphisms": 4995,
      "Ġrecommended": 4996,
      "Ġroles": 4997,
      "ignific": 4998,
      "Ġpractices": 4999,
      "neg": 5000,
      "ĠInstitute": 5001,
      "ĠsiRNA": 5002,
      "Ġshor": 5003,
      "Ġsatisf": 5004,
      "Ġpanc": 5005,
      "85": 5006,
      "uz": 5007,
      "ips": 5008,
      "Ġreconstr": 5009,
      "Ġresolution": 5010,
      "Ġ1998": 5011,
      "Ġobesity": 5012,
      "Ġadjacent": 5013,
      "Ġwa": 5014,
      "Ġtaking": 5015,
      "83": 5016,
      "aed": 5017,
      "Ġsituation": 5018,
      "Ġrespective": 5019,
      "Ġasym": 5020,
      "iciently": 5021,
      "icients": 5022,
      "Ġtechnology": 5023,
      "ytic": 5024,
      "Ġarrow": 5025,
      "Ġphenomen": 5026,
      "ĠPPAR": 5027,
      "Ġreducing": 5028,
      "osomes": 5029,
      "Ġcircum": 5030,
      "Ġassembly": 5031,
      "IDS": 5032,
      "ĠPl": 5033,
      "Ġinformed": 5034,
      "aking": 5035,
      "Ġjour": 5036,
      "Ġconsult": 5037,
      "ili": 5038,
      "Ġchemotherapy": 5039,
      "ĠAb": 5040,
      "Ġtherm": 5041,
      "kele": 5042,
      "ifying": 5043,
      "amic": 5044,
      "Ġstatistics": 5045,
      "Ġpromoters": 5046,
      "ĠâĢ¢": 5047,
      "odium": 5048,
      "Ġdiverse": 5049,
      "77": 5050,
      "Ġhour": 5051,
      "no": 5052,
      "âĦ": 5053,
      "ĠMD": 5054,
      "Ġmob": 5055,
      "Ġparallel": 5056,
      "Ġseed": 5057,
      "ĠGroup": 5058,
      "iology": 5059,
      "Ġsplice": 5060,
      "aken": 5061,
      "Ġsimulation": 5062,
      "Ġrecruitment": 5063,
      "ci": 5064,
      "Ġneutral": 5065,
      "Ġbarri": 5066,
      "hetic": 5067,
      "Ġeffectiveness": 5068,
      "used": 5069,
      "naaBaaal": 5070,
      "Ġreferred": 5071,
      "Ġdynamics": 5072,
      "Ġ2006": 5073,
      "Ġknock": 5074,
      "Ġinitiation": 5075,
      "acing": 5076,
      "Ġexamples": 5077,
      "ospital": 5078,
      "rest": 5079,
      "yle": 5080,
      "Ġlisted": 5081,
      "ĠHLA": 5082,
      "Ġadhes": 5083,
      "Ġpolymerase": 5084,
      "Ġtract": 5085,
      "lig": 5086,
      "Ġsummary": 5087,
      "Ġscenari": 5088,
      "Ġinitially": 5089,
      "Ġpel": 5090,
      "Ġconventional": 5091,
      "axis": 5092,
      "Ġretrie": 5093,
      "Ġpolymorphism": 5094,
      "osqu": 5095,
      "FA": 5096,
      "03": 5097,
      "ivers": 5098,
      "ĠArab": 5099,
      "III": 5100,
      "ubiqu": 5101,
      "Ġmolecule": 5102,
      "opsis": 5103,
      "abbit": 5104,
      "Ġrisks": 5105,
      "rolog": 5106,
      "Ġvaried": 5107,
      "Ġcompart": 5108,
      "Ġmaintain": 5109,
      "ĠNote": 5110,
      "Ġcommunities": 5111,
      "Ġsimulated": 5112,
      "night": 5113,
      "ĠBased": 5114,
      "Ġrandomized": 5115,
      "Ġcombinations": 5116,
      "Ġexhibit": 5117,
      "ister": 5118,
      "Ġexhibited": 5119,
      "Ġgradi": 5120,
      "Ġcopies": 5121,
      "can": 5122,
      "Ġannotated": 5123,
      "Ġcode": 5124,
      "Ġoverlap": 5125,
      "Ġpes": 5126,
      "96": 5127,
      "Ġtransferred": 5128,
      "Ġquite": 5129,
      "get": 5130,
      "Ġpersons": 5131,
      "LS": 5132,
      "ham": 5133,
      "ficial": 5134,
      "ĠÎ³": 5135,
      "lammatory": 5136,
      "haps": 5137,
      "TS": 5138,
      "Ġapplications": 5139,
      "aqaa": 5140,
      "Ġformal": 5141,
      "obic": 5142,
      "Ġvalidity": 5143,
      "Ġorganism": 5144,
      "Ġrural": 5145,
      "patient": 5146,
      "ordance": 5147,
      "kin": 5148,
      "ĠLPS": 5149,
      "All": 5150,
      "Ġnone": 5151,
      "Ġped": 5152,
      "Ġnearly": 5153,
      "Ġcoefficients": 5154,
      "ĠNot": 5155,
      "ĠHA": 5156,
      "aaaaa": 5157,
      "Ġhab": 5158,
      "Ġtemporal": 5159,
      "hal": 5160,
      "ogens": 5161,
      "Ġinfectious": 5162,
      "Ġtargeted": 5163,
      "ĠIs": 5164,
      "Ġreliable": 5165,
      "Ġms": 5166,
      "Ġlargest": 5167,
      "vate": 5168,
      "Ġreporting": 5169,
      "Ġdetectable": 5170,
      "mL": 5171,
      "Ġpartners": 5172,
      "Ġconsists": 5173,
      "Ġefforts": 5174,
      "Ġcognitive": 5175,
      "osquito": 5176,
      "Ġrecognized": 5177,
      "Ġinstruc": 5178,
      "ĠInter": 5179,
      "na": 5180,
      "Ġenough": 5181,
      "Ġexperienced": 5182,
      "Ġenrol": 5183,
      "ĠAccording": 5184,
      "Ġnine": 5185,
      "oprotein": 5186,
      "Ġblack": 5187,
      "NOVA": 5188,
      "acco": 5189,
      "Ġexplanation": 5190,
      "ember": 5191,
      "Ġinn": 5192,
      "AaK": 5193,
      "Ġgave": 5194,
      "ĠELI": 5195,
      "Ġsupernat": 5196,
      "Ġsusp": 5197,
      "Ġarticle": 5198,
      "Hi": 5199,
      "Ġ31": 5200,
      "ped": 5201,
      "ilib": 5202,
      "aeGym": 5203,
      "ocl": 5204,
      "ohist": 5205,
      "Ġca": 5206,
      "ĠPB": 5207,
      "ĠDep": 5208,
      "',": 5209,
      "caa": 5210,
      "atform": 5211,
      "Ġband": 5212,
      "ĠAfrica": 5213,
      "yroid": 5214,
      "Ġvess": 5215,
      "ĠCr": 5216,
      "lear": 5217,
      "Ġparasite": 5218,
      "Ġtumours": 5219,
      "Ġtoler": 5220,
      "ĠJap": 5221,
      "ĠSF": 5222,
      "Ġmentioned": 5223,
      "Ġachieve": 5224,
      "Ġactin": 5225,
      "OH": 5226,
      "Ġmicroscopy": 5227,
      "likely": 5228,
      "negative": 5229,
      "ĠPK": 5230,
      "Ġsexual": 5231,
      "Ġcarbon": 5232,
      "Ġfetal": 5233,
      "sm": 5234,
      "ranes": 5235,
      "Ġurban": 5236,
      "Ġfailed": 5237,
      "ĠAustr": 5238,
      "ulatory": 5239,
      "ĠDM": 5240,
      "Ġlowest": 5241,
      "Ġoxidative": 5242,
      "derived": 5243,
      "Ġmatched": 5244,
      "family": 5245,
      "eas": 5246,
      "Ġshape": 5247,
      "Ġabsolute": 5248,
      "Ġ38": 5249,
      "ĠAnother": 5250,
      "Ġintegration": 5251,
      "osin": 5252,
      "keletal": 5253,
      "Ġmakes": 5254,
      "Ġoligonucle": 5255,
      "PR": 5256,
      "Ġhttp": 5257,
      "Ġdepends": 5258,
      "ĠBMI": 5259,
      "inical": 5260,
      "ided": 5261,
      "acu": 5262,
      "mean": 5263,
      "acement": 5264,
      "73": 5265,
      "Ġvit": 5266,
      "63": 5267,
      "atch": 5268,
      "Ġparts": 5269,
      "Ġinfants": 5270,
      "Ġrepresentation": 5271,
      "Ġsense": 5272,
      "Ġkind": 5273,
      "Ġintermediate": 5274,
      "pass": 5275,
      "Ġstarting": 5276,
      "Ġspect": 5277,
      "Ġreceiving": 5278,
      "Ġextension": 5279,
      "Ġplacebo": 5280,
      "Ġinterface": 5281,
      "Ġdistinguish": 5282,
      "Ġshare": 5283,
      "icians": 5284,
      "Ġ55": 5285,
      "ercul": 5286,
      "Ġreporter": 5287,
      "Ġdynamic": 5288,
      "Ġpredictive": 5289,
      "Ġnucleotides": 5290,
      "ying": 5291,
      "itten": 5292,
      "Ġprogress": 5293,
      "64": 5294,
      "Ġavailability": 5295,
      "ĠMod": 5296,
      "Ġsegments": 5297,
      "Ġgrade": 5298,
      "Ġlost": 5299,
      "uan": 5300,
      "cqaI": 5301,
      "Ġconfound": 5302,
      "Ġsaline": 5303,
      "Ġvisits": 5304,
      "Ġdocumented": 5305,
      "ĠProtein": 5306,
      "Ġextracts": 5307,
      "SM": 5308,
      "amide": 5309,
      "Ġseas": 5310,
      "Ġreliability": 5311,
      "Ġmember": 5312,
      "Ġang": 5313,
      "inflammatory": 5314,
      "ĠSV": 5315,
      "Ġcenter": 5316,
      "Ġnerve": 5317,
      "sequently": 5318,
      "Ex": 5319,
      "ĠSequ": 5320,
      "tility": 5321,
      "ĠSci": 5322,
      "riefly": 5323,
      "hyth": 5324,
      "ĠMin": 5325,
      "Ġsurround": 5326,
      "Ġlet": 5327,
      "ĠMedic": 5328,
      "ĠBR": 5329,
      "Ġsystemic": 5330,
      "Ġ:": 5331,
      "ĠDR": 5332,
      "Ġdrop": 5333,
      "Ġacqu": 5334,
      "ills": 5335,
      "thal": 5336,
      "Ġsimulations": 5337,
      "ĠGC": 5338,
      "otypic": 5339,
      "Ġincome": 5340,
      "Ġunlikely": 5341,
      "Ġthick": 5342,
      "Ġcoron": 5343,
      "Ġlateral": 5344,
      "Ġallowing": 5345,
      "Ġconclusion": 5346,
      "Ġstrand": 5347,
      "tors": 5348,
      "aemia": 5349,
      "Ġwords": 5350,
      "Ġshift": 5351,
      "lands": 5352,
      "Ġsuit": 5353,
      "weight": 5354,
      "ĠMR": 5355,
      "ĠMedical": 5356,
      "Ġchim": 5357,
      "umb": 5358,
      "ada": 5359,
      "Ġget": 5360,
      "ĠPI": 5361,
      "down": 5362,
      "oot": 5363,
      "Ġcolor": 5364,
      "0001": 5365,
      "Ġmosquito": 5366,
      "ject": 5367,
      "Ġassumption": 5368,
      "Ġsubunit": 5369,
      "Ġmultiv": 5370,
      "licit": 5371,
      "Ġchannel": 5372,
      "Ġcomplications": 5373,
      "rocytes": 5374,
      "ĠAnalysis": 5375,
      "Ġfitness": 5376,
      "Ġreached": 5377,
      "Ġinjected": 5378,
      "ĠAdditionally": 5379,
      "Ġgrowing": 5380,
      "Ġcollagen": 5381,
      "Ġlogistic": 5382,
      "Ġseparately": 5383,
      "Ġtraits": 5384,
      "roke": 5385,
      "ĠBe": 5386,
      "Ġ33": 5387,
      "Ġlayer": 5388,
      "Ġanterior": 5389,
      "Ġweb": 5390,
      "Ġindirect": 5391,
      "Ġoccurring": 5392,
      "Ġexpand": 5393,
      "Ġmatch": 5394,
      "Ġgoal": 5395,
      "Ġsubstitution": 5396,
      "antly": 5397,
      "oxin": 5398,
      "Ġov": 5399,
      "Ġ96": 5400,
      "Ġintegrated": 5401,
      "Ġcis": 5402,
      "Ġstimulated": 5403,
      "Ġreviewed": 5404,
      "Ġdepending": 5405,
      "ĠRP": 5406,
      "Ġcover": 5407,
      "Ġdefects": 5408,
      "Ġhomologous": 5409,
      "class": 5410,
      "\".": 5411,
      "Ġranging": 5412,
      "Ġmothers": 5413,
      "Ġhr": 5414,
      "Ġarthritis": 5415,
      "yk": 5416,
      "Ġeconomic": 5417,
      "Ġq": 5418,
      "Ġextraction": 5419,
      "elves": 5420,
      "Ġchanged": 5421,
      "onymous": 5422,
      "Ġsubjected": 5423,
      "Ġpromote": 5424,
      "oral": 5425,
      "Ġfung": 5426,
      "evertheless": 5427,
      "Ġconsisted": 5428,
      "Ġtrigg": 5429,
      "Ġexclus": 5430,
      "ĠWT": 5431,
      "nce": 5432,
      "Ġcompe": 5433,
      "Ġmedication": 5434,
      "ostic": 5435,
      "riched": 5436,
      "Ġobvious": 5437,
      "Ġovernight": 5438,
      "Ġvalidation": 5439,
      "change": 5440,
      "Ġfeedback": 5441,
      "Ġwhy": 5442,
      "oor": 5443,
      "ĠAff": 5444,
      "luores": 5445,
      "ervical": 5446,
      "scale": 5447,
      "Ġauto": 5448,
      "organ": 5449,
      "Ġvisit": 5450,
      "Ġuncertain": 5451,
      "Ġprospec": 5452,
      "chem": 5453,
      "Ġaffinity": 5454,
      "Ġhaplotypes": 5455,
      "Ġmarg": 5456,
      "Ġcomprehensive": 5457,
      "Ġdiameter": 5458,
      "Ġaligned": 5459,
      "AF": 5460,
      "Ġsulf": 5461,
      "Ġfewer": 5462,
      "Ġnumerous": 5463,
      "Ġfacilitate": 5464,
      "Ġabundance": 5465,
      "54": 5466,
      "69": 5467,
      "uting": 5468,
      "ovine": 5469,
      "Ġinsertion": 5470,
      "Ġchromatin": 5471,
      "OP": 5472,
      "Ġneutroph": 5473,
      "Ġadoles": 5474,
      "ierarch": 5475,
      "taneous": 5476,
      "omer": 5477,
      "Ġregist": 5478,
      "yond": 5479,
      "Ġprotection": 5480,
      "ymet": 5481,
      "Ġones": 5482,
      "resh": 5483,
      "Ġrev": 5484,
      "Ġgra": 5485,
      "Ġconsiderable": 5486,
      "Ġaer": 5487,
      "economic": 5488,
      "reed": 5489,
      "78": 5490,
      "ĠDr": 5491,
      "idopsis": 5492,
      "titud": 5493,
      "Ġlineage": 5494,
      "Ġrestriction": 5495,
      "Ġcommerc": 5496,
      "Ġkidney": 5497,
      "Ġalpha": 5498,
      "oglob": 5499,
      "Ġforward": 5500,
      "Ġscan": 5501,
      "Ġkine": 5502,
      "Ġrecovery": 5503,
      "Ġabsent": 5504,
      "UC": 5505,
      "fort": 5506,
      "eter": 5507,
      "Ġplatform": 5508,
      "Ġsodium": 5509,
      "Ġnuclei": 5510,
      "Ġsep": 5511,
      "Ġtheore": 5512,
      "Ġclone": 5513,
      "Ġtransgenic": 5514,
      "Ġfiles": 5515,
      "ble": 5516,
      "ĠMany": 5517,
      "ike": 5518,
      "Ġpresentation": 5519,
      "bp": 5520,
      "Ġqualit": 5521,
      "âĦ¢": 5522,
      "dis": 5523,
      "Ġodds": 5524,
      "luding": 5525,
      "Ġairway": 5526,
      "Ġhaem": 5527,
      "Ġmove": 5528,
      "containing": 5529,
      "herent": 5530,
      "idine": 5531,
      "Ġaware": 5532,
      "Ġprogen": 5533,
      "Ġrise": 5534,
      "Ġattemp": 5535,
      "Ġthereby": 5536,
      "Ġmach": 5537,
      "erculosis": 5538,
      "Ġloop": 5539,
      "Ġpen": 5540,
      "leep": 5541,
      "Ġcomputational": 5542,
      "ubiquit": 5543,
      "ĠML": 5544,
      "ĠThree": 5545,
      "Ġrecruited": 5546,
      "62": 5547,
      "Ġhelped": 5548,
      "ime": 5549,
      "plies": 5550,
      "ymetrix": 5551,
      "Ġmorb": 5552,
      "icles": 5553,
      "ĠSS": 5554,
      "dimensional": 5555,
      "Xaqm": 5556,
      "ilibrium": 5557,
      "Ġgerm": 5558,
      "link": 5559,
      "Ġord": 5560,
      "ensions": 5561,
      "Ġclinic": 5562,
      "Ġintrons": 5563,
      "Ġinhibitory": 5564,
      "Ġtel": 5565,
      "igda": 5566,
      "represent": 5567,
      "ĠPF": 5568,
      "ĠBio": 5569,
      "Ġblocks": 5570,
      "):": 5571,
      "Ġovari": 5572,
      "ĠMT": 5573,
      "illance": 5574,
      "Ġbiochemical": 5575,
      "Ġdram": 5576,
      "Ġquery": 5577,
      "Ġmembranes": 5578,
      "Ġanalog": 5579,
      "Ġinhibited": 5580,
      "Ġcomparative": 5581,
      "Ġdors": 5582,
      "Ġscoring": 5583,
      "Invitrogen": 5584,
      "Ġland": 5585,
      "Ġwal": 5586,
      "Ġdisch": 5587,
      "Ġclinically": 5588,
      "adian": 5589,
      "ĠBay": 5590,
      "Mca": 5591,
      "Ġsimply": 5592,
      "ĠGiven": 5593,
      "Ġadop": 5594,
      "poses": 5595,
      "Ġcorresponds": 5596,
      "Ġartif": 5597,
      "Ġ42": 5598,
      "Ġprecurs": 5599,
      "Ġmild": 5600,
      "ĨĴ": 5601,
      "amination": 5602,
      "Ġalb": 5603,
      "Ġparticipation": 5604,
      "Ġmiddle": 5605,
      "Mga": 5606,
      "ĠCenter": 5607,
      "Ġassist": 5608,
      "Ġroot": 5609,
      "ĠMAP": 5610,
      "ecutive": 5611,
      "Ġmaps": 5612,
      "Ġperceived": 5613,
      "ollowing": 5614,
      "otin": 5615,
      "osyn": 5616,
      "ĠArabidopsis": 5617,
      "ĠMP": 5618,
      "Ġdistances": 5619,
      "iltr": 5620,
      "Ġfluorescent": 5621,
      "Ġaxis": 5622,
      "ards": 5623,
      "Ġsafety": 5624,
      "Ġtheory": 5625,
      "eal": 5626,
      "Ġparent": 5627,
      "Es": 5628,
      "OM": 5629,
      "Ġmovement": 5630,
      "oxide": 5631,
      "ottom": 5632,
      "Ġ1997": 5633,
      "Ġfore": 5634,
      "Ġways": 5635,
      "Ġhor": 5636,
      "BV": 5637,
      "aqh": 5638,
      "tenance": 5639,
      "urg": 5640,
      "79": 5641,
      "times": 5642,
      "plas": 5643,
      "Ġspinal": 5644,
      "Ġpestic": 5645,
      "Ġadi": 5646,
      "Ġthems": 5647,
      "ĠBut": 5648,
      "Ġestimation": 5649,
      "Ġsigns": 5650,
      "Ġcaps": 5651,
      "Ġreceive": 5652,
      "atories": 5653,
      "ĠLabor": 5654,
      "Ġthemselves": 5655,
      "Ġactually": 5656,
      "ĠNevertheless": 5657,
      "ĠMI": 5658,
      "Ġconsequence": 5659,
      "Ġeye": 5660,
      "Ġpartially": 5661,
      "ĠIP": 5662,
      "Ġ$": 5663,
      "anned": 5664,
      "Ġarticles": 5665,
      "Oaak": 5666,
      "Ġhormone": 5667,
      "ĠDC": 5668,
      "ĠCV": 5669,
      "Ġrecording": 5670,
      "ĠAC": 5671,
      "Ġalterations": 5672,
      "Ġves": 5673,
      "tilage": 5674,
      "Ġcord": 5675,
      "Ġregulate": 5676,
      "Ġpert": 5677,
      "Ġchromosomal": 5678,
      "Ġtargeting": 5679,
      "sec": 5680,
      "arum": 5681,
      "58": 5682,
      "Ġsent": 5683,
      "Ġrule": 5684,
      "Ġhomology": 5685,
      "Ġhypertension": 5686,
      "Ġarm": 5687,
      "Ġdescription": 5688,
      "break": 5689,
      "Ġcervical": 5690,
      "Ġreproductive": 5691,
      "Ġsu": 5692,
      "ĠVEGF": 5693,
      "/âĪĴ": 5694,
      "Ġphosphate": 5695,
      "Ġfibroblasts": 5696,
      "ĠMater": 5697,
      "illary": 5698,
      "Ġmeasuring": 5699,
      "Ġbiology": 5700,
      "Ġranged": 5701,
      "aft": 5702,
      "urine": 5703,
      "la": 5704,
      "dehy": 5705,
      "actin": 5706,
      "Ġinfluenced": 5707,
      "Ġburden": 5708,
      "âĢ²-": 5709,
      "LO": 5710,
      "Ġexpans": 5711,
      "Ġpresum": 5712,
      "Ġcomplexity": 5713,
      "Ġspontaneous": 5714,
      "plantation": 5715,
      "ooth": 5716,
      "des": 5717,
      "Ġtob": 5718,
      "Ġcortical": 5719,
      "Ġspot": 5720,
      "Ġdominant": 5721,
      "ho": 5722,
      "iforn": 5723,
      "Ġcoronary": 5724,
      "mat": 5725,
      "Ġplays": 5726,
      "Ġevident": 5727,
      "ĠControl": 5728,
      "Ġegg": 5729,
      "Ġconform": 5730,
      "lets": 5731,
      "ĠIR": 5732,
      "Ġtobacco": 5733,
      "ĠEuropean": 5734,
      "Ġgovernment": 5735,
      "Ġfed": 5736,
      "ellow": 5737,
      "osp": 5738,
      "Ġ300": 5739,
      "Ġtryp": 5740,
      "abaGccq": 5741,
      "Ġlangu": 5742,
      "Ġvalidated": 5743,
      "ĠELISA": 5744,
      "Aa": 5745,
      "xiety": 5746,
      "Paq": 5747,
      "imen": 5748,
      "YP": 5749,
      "Ġtemplate": 5750,
      "ĠSC": 5751,
      "Ġcreate": 5752,
      "Ġmalignant": 5753,
      "ĠCor": 5754,
      "ĠPE": 5755,
      "Ġtransformation": 5756,
      "Ġiron": 5757,
      "Ġventi": 5758,
      "Ġinvolves": 5759,
      "Ġinfluenz": 5760,
      "tub": 5761,
      "ĠnM": 5762,
      "meaabaqaciaacaGaaeqabaqabeGadaaakeaacqWG": 5763,
      "Ġpractition": 5764,
      "Ġswit": 5765,
      "ĠEM": 5766,
      "Ġempir": 5767,
      "Ġonline": 5768,
      "Ġbranch": 5769,
      "aemyAaK": 5770,
      "ĠAS": 5771,
      "Ġbovine": 5772,
      "Ġlymphocytes": 5773,
      "Ġsubt": 5774,
      "NT": 5775,
      "ulative": 5776,
      "Sigma": 5777,
      "Ġbeyond": 5778,
      "pG": 5779,
      "Ġmorbidity": 5780,
      "Ġresidual": 5781,
      "ectively": 5782,
      "length": 5783,
      "Ġcyclin": 5784,
      "Ġcruc": 5785,
      "ĠSo": 5786,
      "Ġincom": 5787,
      "expression": 5788,
      "isition": 5789,
      "Ap": 5790,
      "Ġdiscovery": 5791,
      "04": 5792,
      "ĠDespite": 5793,
      "ees": 5794,
      "atics": 5795,
      "ĠImmun": 5796,
      "Ġventricular": 5797,
      "Ġcheck": 5798,
      "Ġfields": 5799,
      "Ġartery": 5800,
      "Ġmorphology": 5801,
      "Ġinvasive": 5802,
      "Ġmode": 5803,
      "76": 5804,
      "Ġacquired": 5805,
      "Ġcleavage": 5806,
      "Ġaud": 5807,
      "DE": 5808,
      "Ġ34": 5809,
      "ident": 5810,
      "ĠSouth": 5811,
      "ifornia": 5812,
      "Ġstroke": 5813,
      "Ġpossess": 5814,
      "oclonal": 5815,
      "Ġsupplemented": 5816,
      "inus": 5817,
      "Ġsn": 5818,
      "tivity": 5819,
      "Ġexception": 5820,
      "ria": 5821,
      "94": 5822,
      "Ġven": 5823,
      "mia": 5824,
      "Ġreading": 5825,
      "Ġsolid": 5826,
      "Ġsynthes": 5827,
      "Ġchannels": 5828,
      "arr": 5829,
      "Ġ150": 5830,
      "DP": 5831,
      "Ġlists": 5832,
      "opsy": 5833,
      "amples": 5834,
      "Ġconsequences": 5835,
      "Ġsurveys": 5836,
      "ĠHuman": 5837,
      "urally": 5838,
      "ĠCE": 5839,
      "ĠGPs": 5840,
      "ecting": 5841,
      "Ġsubc": 5842,
      "Ġmodeling": 5843,
      "Ġinterviews": 5844,
      "acch": 5845,
      "Ġforce": 5846,
      "Ġvolun": 5847,
      "Ġlesion": 5848,
      "Ġroutine": 5849,
      "Ġelegans": 5850,
      "activated": 5851,
      "Ġcreat": 5852,
      "Ġwritten": 5853,
      "Ġprocessed": 5854,
      "ĠCompar": 5855,
      "Ġdecline": 5856,
      "ĠCX": 5857,
      "Ġmostly": 5858,
      "Ġmeaning": 5859,
      "ĠNP": 5860,
      "Ġsearches": 5861,
      "ebraf": 5862,
      "Ġbecomes": 5863,
      "Ġdest": 5864,
      "Ġadhesion": 5865,
      "ĠICU": 5866,
      "ebrafish": 5867,
      "ka": 5868,
      "plete": 5869,
      "ĠVal": 5870,
      "Ġcartilage": 5871,
      "Ġregional": 5872,
      "Ġencoded": 5873,
      "Ġepithelium": 5874,
      "Ġparental": 5875,
      "Ġcytoplasmic": 5876,
      "Ġbeginning": 5877,
      "eryth": 5878,
      "Ġnan": 5879,
      "phal": 5880,
      "Ġrank": 5881,
      "Ġmaintenance": 5882,
      "Ġcloned": 5883,
      "era": 5884,
      "Ġmodification": 5885,
      "Ġdetermining": 5886,
      "Ġnormally": 5887,
      "ĠHPV": 5888,
      "Ġbelieve": 5889,
      "Ġhierarch": 5890,
      "Ġnurses": 5891,
      "coding": 5892,
      "Ġdilution": 5893,
      "Ġflank": 5894,
      "Ġequation": 5895,
      "Ġrevers": 5896,
      "ĠStr": 5897,
      "ĠMul": 5898,
      "ĠHCV": 5899,
      "Ġsimultaneously": 5900,
      "acet": 5901,
      "Ġdiluted": 5902,
      "ĠCalifornia": 5903,
      "tagon": 5904,
      "Ġelig": 5905,
      "cqqG": 5906,
      "Ġteam": 5907,
      "Ġresource": 5908,
      "Ġexplore": 5909,
      "Ġembryonic": 5910,
      "Ġpneumon": 5911,
      "Ġisolation": 5912,
      "ĠEGF": 5913,
      "Ġsleep": 5914,
      "Ġserve": 5915,
      "Ġ1996": 5916,
      "Ġrecommendations": 5917,
      "Ġheight": 5918,
      "Ġimplicated": 5919,
      "Ġelse": 5920,
      "Ġcalculate": 5921,
      "Ġdiscussion": 5922,
      "Â±": 5923,
      "copy": 5924,
      "meaabaqaciaacaGaaeqabaqabeGadaaakea": 5925,
      "Ġotherwise": 5926,
      "Ġadvanced": 5927,
      "Ġmar": 5928,
      "Ġoutbreak": 5929,
      "Ġheterogeneity": 5930,
      "Ġcollabor": 5931,
      "ologists": 5932,
      "Ġreplicates": 5933,
      "treatment": 5934,
      "Ġfresh": 5935,
      "aving": 5936,
      "Ġstre": 5937,
      "Ġsuccessfully": 5938,
      "Ġcryst": 5939,
      "Ġtrained": 5940,
      "Ġadmission": 5941,
      "Ġantagon": 5942,
      "ĠRep": 5943,
      "Ġprotocols": 5944,
      "Ġtit": 5945,
      "Ġpathogen": 5946,
      "72": 5947,
      "Ġconclus": 5948,
      "Ġunclear": 5949,
      "74": 5950,
      "Ġmeet": 5951,
      "Ġuniform": 5952,
      "versely": 5953,
      "ĠSE": 5954,
      "Ġparasites": 5955,
      "Ġcontig": 5956,
      "Ġprev": 5957,
      "Ġhence": 5958,
      "Ġremoval": 5959,
      "dehyde": 5960,
      "Ġtransfection": 5961,
      "urance": 5962,
      "ĠPr": 5963,
      "Ġdonor": 5964,
      "Ġspectrum": 5965,
      "ĠkDa": 5966,
      "Ġsynaptic": 5967,
      "Ġbehavioral": 5968,
      "52": 5969,
      "88": 5970,
      "sub": 5971,
      "Ġthromb": 5972,
      "Ġlineages": 5973,
      "Ġspeed": 5974,
      "Ġacquisition": 5975,
      "gal": 5976,
      "Ġnative": 5977,
      "Ġoppos": 5978,
      "Ġgap": 5979,
      "Ġlive": 5980,
      "Ġsuitable": 5981,
      "Ġuter": 5982,
      "caO": 5983,
      "Ġanaly": 5984,
      "atus": 5985,
      "Ġgradient": 5986,
      "ancies": 5987,
      "Ġuntreated": 5988,
      "Ġresidents": 5989,
      "ectivity": 5990,
      "ench": 5991,
      "ĠHospital": 5992,
      "Ġenriched": 5993,
      "NK": 5994,
      "Ġmaximal": 5995,
      "Ġconsisting": 5996,
      "McaP": 5997,
      "Ġhemat": 5998,
      "ovi": 5999,
      "ĠAL": 6000,
      "Ġadequate": 6001,
      "Ġseek": 6002,
      "Ġanalyze": 6003,
      "aqp": 6004,
      "Ġcapable": 6005,
      "ĠESTs": 6006,
      "ykaK": 6007,
      "Ġethanol": 6008,
      "Ġencour": 6009,
      "Ġurine": 6010,
      "Ġserious": 6011,
      "Ġindeed": 6012,
      "ucifer": 6013,
      "erated": 6014,
      "Ġstandards": 6015,
      "oe": 6016,
      "Ġmature": 6017,
      "aaSbaaSqaaiabd": 6018,
      "olding": 6019,
      "Ġsuppress": 6020,
      "Ġamplitude": 6021,
      "inger": 6022,
      "recip": 6023,
      "tes": 6024,
      "uary": 6025,
      "zen": 6026,
      "Ġassume": 6027,
      "CP": 6028,
      "ico": 6029,
      "ĠPT": 6030,
      "Ġestrogen": 6031,
      "Ġformat": 6032,
      "apse": 6033,
      "eaacqaI": 6034,
      "men": 6035,
      "Ġnormalization": 6036,
      "Ġemb": 6037,
      "adj": 6038,
      "Ġdecreases": 6039,
      "500": 6040,
      "ĠTris": 6041,
      "Ġubiquit": 6042,
      "ĠHence": 6043,
      "Ġcum": 6044,
      "Ġcasp": 6045,
      "Ġagent": 6046,
      "Ġlacking": 6047,
      "unctional": 6048,
      "Ġmicrob": 6049,
      "ĠLD": 6050,
      "orld": 6051,
      "Ġvarying": 6052,
      "Ġslides": 6053,
      "ĠCM": 6054,
      "Ġsubstantially": 6055,
      "Ġattempt": 6056,
      "Ġsurprising": 6057,
      "atell": 6058,
      "Ġconsistently": 6059,
      "Ġstabil": 6060,
      "aeiykaK": 6061,
      "IcaO": 6062,
      "Ġidea": 6063,
      "Com": 6064,
      "Ġstrat": 6065,
      "illin": 6066,
      "Ġduplication": 6067,
      "Ġbeta": 6068,
      "Ġbud": 6069,
      "Ġmyocardi": 6070,
      "ĠGA": 6071,
      "yes": 6072,
      ",âĢĿ": 6073,
      "-/-": 6074,
      "Ġextremely": 6075,
      "Ġsuperv": 6076,
      "Ġfoll": 6077,
      "Ġaddressed": 6078,
      "Ġrecip": 6079,
      "Ġmonoclonal": 6080,
      "rose": 6081,
      "Ġconstructs": 6082,
      "Co": 6083,
      "Ġinstructions": 6084,
      "ĠÏĥ": 6085,
      "ĠDec": 6086,
      "gens": 6087,
      "adder": 6088,
      "Ġinoc": 6089,
      "Ġimpaired": 6090,
      "Ġdrafted": 6091,
      "ĠHE": 6092,
      "At": 6093,
      "Ġbalance": 6094,
      "ignificant": 6095,
      "Ġgives": 6096,
      "alling": 6097,
      "Ġscales": 6098,
      "Ġdietary": 6099,
      "anted": 6100,
      "Ġframe": 6101,
      "Ġdend": 6102,
      "ĠDifferen": 6103,
      "ĠStatistic": 6104,
      "ikaG": 6105,
      "Ġmorphological": 6106,
      "iveness": 6107,
      "Ġround": 6108,
      "xy": 6109,
      "Ġoffer": 6110,
      "ĠHD": 6111,
      "Ġportion": 6112,
      "ij": 6113,
      "utional": 6114,
      "Ġcrucial": 6115,
      "Ġtechnical": 6116,
      "Ġmicroarrays": 6117,
      "Ġovarian": 6118,
      "Ġannotations": 6119,
      "jugated": 6120,
      "ĠCL": 6121,
      "Ġimmunohist": 6122,
      "Ġlocalized": 6123,
      "usp": 6124,
      "ĠHis": 6125,
      "ĠNaCl": 6126,
      "ĠAffymetrix": 6127,
      "Ġtook": 6128,
      "Ġbehaviors": 6129,
      "Ġperhaps": 6130,
      "Rs": 6131,
      "ĠPub": 6132,
      "herence": 6133,
      "Ġexistence": 6134,
      "56": 6135,
      "ocial": 6136,
      "Ġconsidering": 6137,
      "Ġinstrument": 6138,
      "pm": 6139,
      "ĠCy": 6140,
      "Ġface": 6141,
      "tice": 6142,
      "Ġneither": 6143,
      "squ": 6144,
      "Ġnons": 6145,
      "Ġconcerns": 6146,
      "ĠPrim": 6147,
      "chron": 6148,
      "Ġconnected": 6149,
      "Ġsmokers": 6150,
      "Is": 6151,
      "Ġtrack": 6152,
      "Ġ1000": 6153,
      "ĠExpression": 6154,
      "Ġdepart": 6155,
      "Ġpositively": 6156,
      "ening": 6157,
      "Ġtrait": 6158,
      "aeiikaG": 6159,
      "Ġname": 6160,
      "itory": 6161,
      "Ġplanning": 6162,
      "Ġcham": 6163,
      "Ġsmooth": 6164,
      "adily": 6165,
      "Ġfract": 6166,
      ".\"": 6167,
      "ĠSystem": 6168,
      "Ġlibraries": 6169,
      "Ġprolong": 6170,
      "oderm": 6171,
      "Ġexpansion": 6172,
      "Ġthor": 6173,
      "Ġtransformed": 6174,
      "scill": 6175,
      "Paqk": 6176,
      "ded": 6177,
      "Ġchi": 6178,
      "ilateral": 6179,
      "Ġdetermination": 6180,
      "uciferase": 6181,
      "ĠANOVA": 6182,
      "Ab": 6183,
      "thern": 6184,
      "labeled": 6185,
      "ociation": 6186,
      "Ġdemographic": 6187,
      "ĠDet": 6188,
      "orption": 6189,
      "aaG": 6190,
      "ĠNon": 6191,
      "Ġquantified": 6192,
      "Ġshorter": 6193,
      "Ġmethodology": 6194,
      "Ns": 6195,
      "Ġzebrafish": 6196,
      "Ġsurveillance": 6197,
      "ady": 6198,
      "Ġfeas": 6199,
      "Ġconcer": 6200,
      "One": 6201,
      "isions": 6202,
      "opic": 6203,
      "Ġpy": 6204,
      "arose": 6205,
      "Ġars": 6206,
      "ission": 6207,
      "Ġinfiltr": 6208,
      "Ġcomposed": 6209,
      "Ġgon": 6210,
      "Ġshock": 6211,
      "ĠNI": 6212,
      "Ġanxiety": 6213,
      "Ġchick": 6214,
      "ĠBriefly": 6215,
      "sense": 6216,
      "Ġselect": 6217,
      "Ġdeple": 6218,
      "Ġmultivariate": 6219,
      "Ġpackage": 6220,
      "71": 6221,
      "Ġhair": 6222,
      "Ġabnormalities": 6223,
      "Ġpeaks": 6224,
      "ĠAF": 6225,
      "Ġinvestigators": 6226,
      "pring": 6227,
      "Ġphylogen": 6228,
      "Ġdoctors": 6229,
      "Ġyounger": 6230,
      "Ġcompens": 6231,
      "visiae": 6232,
      "Ġsupports": 6233,
      "Ġaccoun": 6234,
      "Ġdraft": 6235,
      "Ġpurch": 6236,
      "Ġvul": 6237,
      "dominal": 6238,
      "Ġchance": 6239,
      "Ġtuberculosis": 6240,
      "RS": 6241,
      "titive": 6242,
      "atase": 6243,
      "ĠFour": 6244,
      "Ġbands": 6245,
      "ĠMg": 6246,
      "Ġprofessional": 6247,
      "http": 6248,
      "mut": 6249,
      "agne": 6250,
      "Ġunable": 6251,
      "ĠTLR": 6252,
      "Ġdeep": 6253,
      "echnology": 6254,
      "Ġbecame": 6255,
      "Ġimplications": 6256,
      "iologic": 6257,
      "appro": 6258,
      "cepted": 6259,
      "Ġvaccination": 6260,
      "61": 6261,
      "ache": 6262,
      "aiaaw": 6263,
      "Ġattributed": 6264,
      "ĠBayes": 6265,
      "Ġfacilities": 6266,
      "Ġreleased": 6267,
      "ĠFI": 6268,
      "Ġmilk": 6269,
      "Ġlas": 6270,
      "ĠNorth": 6271,
      "Ġmapped": 6272,
      "Ġpooled": 6273,
      "Ġsimpl": 6274,
      "ĠPo": 6275,
      "ĠStudy": 6276,
      "abaW": 6277,
      "ĠMet": 6278,
      "Ġreflects": 6279,
      "Ġoscill": 6280,
      "veolar": 6281,
      "Ġindicators": 6282,
      "Ġparticipant": 6283,
      "Ġuns": 6284,
      "mer": 6285,
      "rote": 6286,
      "ĠEven": 6287,
      "Ġtube": 6288,
      "low": 6289,
      "Ġmeta": 6290,
      "Ġpathogenesis": 6291,
      "Ġsymb": 6292,
      "Ġinfluenza": 6293,
      "Ġqualitative": 6294,
      "'t": 6295,
      "Ġannual": 6296,
      "Ġconceived": 6297,
      "Ġintestinal": 6298,
      "Ġmigr": 6299,
      "inform": 6300,
      "what": 6301,
      "51": 6302,
      "Ġextra": 6303,
      "ĠCC": 6304,
      "ories": 6305,
      "Ġdrinking": 6306,
      "Ġquestionnaires": 6307,
      "Ġdirected": 6308,
      "Ġexists": 6309,
      "Ġextend": 6310,
      "ament": 6311,
      "Ġphenomenon": 6312,
      "Ġmurine": 6313,
      "ditional": 6314,
      "Ġkeep": 6315,
      "Ġwave": 6316,
      "Ġcerevisiae": 6317,
      "Ġprofessionals": 6318,
      "natal": 6319,
      "anding": 6320,
      "Ġantigens": 6321,
      "Ġcontinued": 6322,
      "ĠBAL": 6323,
      "Ġ#": 6324,
      "Ġweights": 6325,
      "Ġderiv": 6326,
      "Ġinvasion": 6327,
      "Ġcarrying": 6328,
      "aeiikaGI": 6329,
      "ipl": 6330,
      "Ġdysfunction": 6331,
      "Ġprincipal": 6332,
      "Ġren": 6333,
      "aqhaaWcbaG": 6334,
      "Ġpathogens": 6335,
      "Ġnewly": 6336,
      "ocamp": 6337,
      "Ġhard": 6338,
      "Ġneon": 6339,
      "Ġinternational": 6340,
      "93": 6341,
      "Ġitem": 6342,
      "strand": 6343,
      "Ġtelom": 6344,
      "Ġprobabilities": 6345,
      "Ġcomplementary": 6346,
      "ift": 6347,
      "Ġembryo": 6348,
      "Gs": 6349,
      "Ġtraff": 6350,
      "Ġpoorly": 6351,
      "cor": 6352,
      "vance": 6353,
      "Ġfeeding": 6354,
      "Ġmonitored": 6355,
      "08": 6356,
      "ilities": 6357,
      "alcip": 6358,
      "Ġassessing": 6359,
      "ired": 6360,
      "Ġproviders": 6361,
      "Ġsurrounding": 6362,
      "ather": 6363,
      "Ġble": 6364,
      "Ġlanguage": 6365,
      "Ġthyroid": 6366,
      "Ġelectron": 6367,
      "alciparum": 6368,
      "arcin": 6369,
      "Ġprivate": 6370,
      "acer": 6371,
      "BR": 6372,
      "ochemistry": 6373,
      "perim": 6374,
      "vation": 6375,
      "Ġoverexpression": 6376,
      "Ġsampled": 6377,
      "Ġstarted": 6378,
      "Ġcathe": 6379,
      "inent": 6380,
      "iG": 6381,
      "derly": 6382,
      "Ġetc": 6383,
      "Ġhydroph": 6384,
      "Ġsubstitutions": 6385,
      "Ġorgans": 6386,
      "Ġurinary": 6387,
      "ĠDE": 6388,
      "Ġrod": 6389,
      "ĠFollowing": 6390,
      "Ġphenotypic": 6391,
      "Ġfractions": 6392,
      "Ġsusceptible": 6393,
      "Ġisoforms": 6394,
      "Ġaffects": 6395,
      "embrane": 6396,
      "Ġimpairment": 6397,
      "Ġmatches": 6398,
      "inates": 6399,
      "Ġeducational": 6400,
      "rozen": 6401,
      "ĠPrevious": 6402,
      "ĠNK": 6403,
      "Ġplan": 6404,
      "hern": 6405,
      "Ġwebs": 6406,
      "Ġtasks": 6407,
      "ensitive": 6408,
      "Ġsensory": 6409,
      "Ġlarv": 6410,
      "Ġreag": 6411,
      "ĠPS": 6412,
      "OX": 6413,
      "Ġcriterion": 6414,
      "Ġintact": 6415,
      "berg": 6416,
      "Ġmotiv": 6417,
      "hydr": 6418,
      "Ġhistone": 6419,
      "sin": 6420,
      "ippocamp": 6421,
      "Ġeffort": 6422,
      "Ġusage": 6423,
      "Ġenter": 6424,
      "insic": 6425,
      "defined": 6426,
      "Ġexplicit": 6427,
      "Ġlimitation": 6428,
      "Ġpredominantly": 6429,
      "Ġmess": 6430,
      "Ġattitud": 6431,
      "ĠDise": 6432,
      "Ġschiz": 6433,
      "aaC": 6434,
      "akeaa": 6435,
      "chlor": 6436,
      "Ġstandardized": 6437,
      "ĠtRNA": 6438,
      "Ġthym": 6439,
      "aeGO": 6440,
      "Ġfalciparum": 6441,
      "Ġseparation": 6442,
      "Ġattr": 6443,
      "Ġcytot": 6444,
      "Ġapoptotic": 6445,
      "Ġundergo": 6446,
      "Ca": 6447,
      "ATA": 6448,
      "Ġfunding": 6449,
      "ĠTE": 6450,
      "Ġplots": 6451,
      "Ġconclude": 6452,
      "Ġcytoplasm": 6453,
      "Ġprotease": 6454,
      "Ġadjustment": 6455,
      "Ġorientation": 6456,
      "Ġtransient": 6457,
      "91": 6458,
      "Ġyielded": 6459,
      "These": 6460,
      "Ġmatching": 6461,
      "itone": 6462,
      "Ġgeographic": 6463,
      "Ġdetermin": 6464,
      "Ġtrends": 6465,
      "Ġmodifications": 6466,
      "Ġelectrophores": 6467,
      "Un": 6468,
      "ĠFA": 6469,
      "Ġprem": 6470,
      "resist": 6471,
      "ĠSL": 6472,
      "Ġattenu": 6473,
      ".âĢĿ": 6474,
      "ailed": 6475,
      "aint": 6476,
      "Ġsolutions": 6477,
      "AGE": 6478,
      "Ġmetabolites": 6479,
      "undred": 6480,
      "Ġterminal": 6481,
      "Ġjud": 6482,
      "ley": 6483,
      "Ġtransduction": 6484,
      "Ġprecision": 6485,
      "CH": 6486,
      "ĠOA": 6487,
      "cal": 6488,
      "Ġharves": 6489,
      "Ġprotective": 6490,
      "ema": 6491,
      "Ġfatty": 6492,
      "MB": 6493,
      "Ġvirt": 6494,
      "mental": 6495,
      "Ġscored": 6496,
      "Ġaccepted": 6497,
      "Ġconsecutive": 6498,
      "Ġ400": 6499,
      "Ġemphas": 6500,
      "okine": 6501,
      "Ġinvolve": 6502,
      "abetic": 6503,
      "Ġmicroscope": 6504,
      "/+": 6505,
      "Ġaccel": 6506,
      "Ġsubunits": 6507,
      "ĠAB": 6508,
      "Ms": 6509,
      "Ġexceed": 6510,
      "Ġhistological": 6511,
      "Ġinduces": 6512,
      "Ġmechanical": 6513,
      "Ġrabbit": 6514,
      "Nase": 6515,
      "Ġsed": 6516,
      "acting": 6517,
      "Ġelsewhere": 6518,
      "US": 6519,
      "Ġconsideration": 6520,
      "Ġdegen": 6521,
      "ĠThen": 6522,
      "Ġreviews": 6523,
      "Ġcorrection": 6524,
      "steine": 6525,
      "astic": 6526,
      "86": 6527,
      "Ġ44": 6528,
      "Ġhaz": 6529,
      "Ġdistric": 6530,
      "Ġprospective": 6531,
      "Ġ1990": 6532,
      "Ġsoluble": 6533,
      "Ġplastic": 6534,
      "Ġhoriz": 6535,
      "iquid": 6536,
      "ĠÃ": 6537,
      "Ġ1995": 6538,
      "Ġlengths": 6539,
      "eptide": 6540,
      "oxia": 6541,
      "06": 6542,
      "Ġpal": 6543,
      "ucid": 6544,
      "Ġpurposes": 6545,
      "Ġeffectively": 6546,
      "Ġdorsal": 6547,
      "Ġdepic": 6548,
      "opes": 6549,
      "ica": 6550,
      "Ġmetastatic": 6551,
      "Ġethnic": 6552,
      "Ġdemonstrates": 6553,
      "Ġpredictor": 6554,
      "Ġcontrolling": 6555,
      "GR": 6556,
      "Ġprognostic": 6557,
      "Ġcul": 6558,
      "ĠOverall": 6559,
      "itudinal": 6560,
      "Ġplotted": 6561,
      "Ġhippocamp": 6562,
      "oted": 6563,
      "Ġelderly": 6564,
      "Ġsupporting": 6565,
      "Ġhepat": 6566,
      "ED": 6567,
      "otion": 6568,
      "ened": 6569,
      "Ġhous": 6570,
      "naaBaaaleaacqWG": 6571,
      "Ġclar": 6572,
      "Se": 6573,
      "Ġloading": 6574,
      "Ġeukaryotic": 6575,
      "risk": 6576,
      "Ġrelevance": 6577,
      "Ġharvested": 6578,
      "thesis": 6579,
      "ĠCB": 6580,
      "agnetic": 6581,
      "Ġspots": 6582,
      "Ġcalculation": 6583,
      "iers": 6584,
      "Ġknee": 6585,
      "ortic": 6586,
      "Ġconstraints": 6587,
      "Ġunderstood": 6588,
      "ori": 6589,
      "Ġeryth": 6590,
      "Ġcorrectly": 6591,
      "Ġdrawn": 6592,
      "Ġtraum": 6593,
      "Ġveh": 6594,
      "Ġinitiated": 6595,
      "Ġkinases": 6596,
      "Ġenrich": 6597,
      "otrop": 6598,
      "ĠPlas": 6599,
      "ously": 6600,
      "aGaay": 6601,
      "gram": 6602,
      "Ġsynovi": 6603,
      "Ġpil": 6604,
      "Ġdog": 6605,
      "ĠFran": 6606,
      "illing": 6607,
      "Ġpsychological": 6608,
      "eloc": 6609,
      "Ġneighbor": 6610,
      "ĠMicro": 6611,
      "Ġlact": 6612,
      "Ġspecified": 6613,
      "Ġlum": 6614,
      "which": 6615,
      "SNP": 6616,
      "outhern": 6617,
      "Ġfever": 6618,
      "Ġmotion": 6619,
      "Ġinfant": 6620,
      "Ġdistal": 6621,
      "arged": 6622,
      "Ġsubstrates": 6623,
      "ĠEqu": 6624,
      "Ġtheoretical": 6625,
      "pread": 6626,
      "Ġplasmids": 6627,
      "Ġopposite": 6628,
      "reported": 6629,
      "ĠIS": 6630,
      "inating": 6631,
      "Ġunex": 6632,
      "Ġstay": 6633,
      "aeyO": 6634,
      "ĠInformation": 6635,
      "Ġgland": 6636,
      "ĠBo": 6637,
      "Ġconflic": 6638,
      "ozo": 6639,
      "Ġclassif": 6640,
      "Ġobserve": 6641,
      "Ġpreced": 6642,
      "imer": 6643,
      "Ġequally": 6644,
      "asal": 6645,
      "Ġrh": 6646,
      "Ġdivision": 6647,
      "Ġaffecting": 6648,
      "Ġtranspor": 6649,
      "ĠSM": 6650,
      "including": 6651,
      "Ġconclusions": 6652,
      "Ġnames": 6653,
      "Ġwound": 6654,
      "Ġreadily": 6655,
      "Ġprecise": 6656,
      "Ġpolar": 6657,
      "Ġgenotyping": 6658,
      "oxy": 6659,
      "Ġce": 6660,
      "::": 6661,
      "lices": 6662,
      "Ġ43": 6663,
      "Ġexperimentally": 6664,
      "Ġflies": 6665,
      "Ġfix": 6666,
      "Ġultras": 6667,
      "Ġsimilarly": 6668,
      "aim": 6669,
      "Ġanth": 6670,
      "Ġdeficiency": 6671,
      "Ġimmunity": 6672,
      "ART": 6673,
      "onin": 6674,
      "ĠCYP": 6675,
      "Ġdisability": 6676,
      "Ġpublication": 6677,
      "Ġvalu": 6678,
      "Im": 6679,
      "Ġsometimes": 6680,
      "Ġveget": 6681,
      "ĠCommittee": 6682,
      "Ġcoordination": 6683,
      "Fig": 6684,
      "Ġpropose": 6685,
      "ophren": 6686,
      "Ġmicrosatell": 6687,
      "aeGymaed": 6688,
      "pen": 6689,
      "Ġvag": 6690,
      "Ġkept": 6691,
      "teen": 6692,
      "HI": 6693,
      "Ġmammals": 6694,
      "aque": 6695,
      "La": 6696,
      "ĠRNAi": 6697,
      "itect": 6698,
      "Ġrequirements": 6699,
      "cy": 6700,
      "Ġarrest": 6701,
      "ĠMaterials": 6702,
      "anti": 6703,
      "oprecip": 6704,
      "Ġer": 6705,
      "Ġhundred": 6706,
      "spring": 6707,
      "Ġindicator": 6708,
      "acr": 6709,
      "Ġscheme": 6710,
      "oked": 6711,
      "Ġcounted": 6712,
      "Ġtakes": 6713,
      "Ġprognosis": 6714,
      "ĠAA": 6715,
      "Ġagon": 6716,
      "ĠCanada": 6717,
      "Ġoverlapping": 6718,
      "ceptions": 6719,
      "Ġdye": 6720,
      "ĠEP": 6721,
      "Ġ94": 6722,
      "Ġaccordance": 6723,
      "Ġdiges": 6724,
      "Ġapply": 6725,
      "vironments": 6726,
      "Ġlinks": 6727,
      "Ġbeneficial": 6728,
      "pH": 6729,
      "Ġligands": 6730,
      "Ġreasonable": 6731,
      "Ġabundant": 6732,
      "59": 6733,
      "ĠMe": 6734,
      "Ġmethyl": 6735,
      "Ġconcerning": 6736,
      "Ġsomewhat": 6737,
      "HD": 6738,
      "Ġopportunity": 6739,
      "Â·": 6740,
      "ĠEth": 6741,
      "Ġchildhood": 6742,
      "Ġ39": 6743,
      "Ġunderwent": 6744,
      "Ġbiopsy": 6745,
      "uth": 6746,
      "Ġgastro": 6747,
      "Ġantim": 6748,
      "))": 6749,
      "faces": 6750,
      "Ġgreatly": 6751,
      "Ġreplacement": 6752,
      "ĠSwed": 6753,
      "ocrine": 6754,
      "87": 6755,
      "linked": 6756,
      "response": 6757,
      "81": 6758,
      "Ġmatter": 6759,
      "ticipants": 6760,
      "Ġ106": 6761,
      "Hg": 6762,
      "Ġinsuff": 6763,
      "Ġaccessed": 6764,
      "Ġblocked": 6765,
      "Ġmanual": 6766,
      "IM": 6767,
      "Ġongoing": 6768,
      "linear": 6769,
      "Ġaimed": 6770,
      "oxyl": 6771,
      "Ġpairwise": 6772,
      "Ġmaterials": 6773,
      "Ġveloc": 6774,
      "Ġmodule": 6775,
      "Ġinvestigations": 6776,
      "alia": 6777,
      "Ġbases": 6778,
      "luorescence": 6779,
      "AMP": 6780,
      "âī": 6781,
      "artment": 6782,
      "Ġconcluded": 6783,
      "Ġdiag": 6784,
      "Ġcumulative": 6785,
      "Ġice": 6786,
      "Ġrecovered": 6787,
      "ĠTP": 6788,
      "Ġcompet": 6789,
      "lot": 6790,
      "ĠIGF": 6791,
      "IA": 6792,
      "Ġdecisions": 6793,
      "Ġevol": 6794,
      "ls": 6795,
      "Ġraised": 6796,
      "Ġdischarge": 6797,
      "ris": 6798,
      "Ġwar": 6799,
      "Ġchromat": 6800,
      "Ġeligible": 6801,
      "ĠMHC": 6802,
      "ducing": 6803,
      "Ġnitrogen": 6804,
      "Ġmodules": 6805,
      "Ġsignalling": 6806,
      "ĠCpG": 6807,
      "Ġutilized": 6808,
      "Ġtherapies": 6809,
      "Ġstated": 6810,
      "ĠRel": 6811,
      "cents": 6812,
      "Ġbelieved": 6813,
      "ĠCancer": 6814,
      "Ġhypothesized": 6815,
      "Ġappearance": 6816,
      "Ġrules": 6817,
      "ĠWHO": 6818,
      "Ġexchange": 6819,
      "Ġcontinue": 6820,
      "aves": 6821,
      "Ġpractical": 6822,
      "ĠmRNAs": 6823,
      "Ġpapers": 6824,
      "bor": 6825,
      "Ġmanip": 6826,
      "Ġprojects": 6827,
      "Ġintroduction": 6828,
      "Ġvirul": 6829,
      "Ġdark": 6830,
      "icin": 6831,
      "Ġfinanc": 6832,
      "Ġtranscribed": 6833,
      "Ġillustrated": 6834,
      "Ġbinds": 6835,
      "Ġ250": 6836,
      "Ġbiosyn": 6837,
      "Ġhabit": 6838,
      "GO": 6839,
      "Ġdependence": 6840,
      "Ġpersist": 6841,
      "ustry": 6842,
      "Ġemergency": 6843,
      "Ġabstr": 6844,
      "Ġancestral": 6845,
      "%;": 6846,
      "Ġliquid": 6847,
      "ĠWnt": 6848,
      "aeaacqWG": 6849,
      "Ġskills": 6850,
      "Ġnecessarily": 6851,
      "Ġvitamin": 6852,
      "Ġmetastasis": 6853,
      "Ġdiffered": 6854,
      "feeding": 6855,
      "yros": 6856,
      "igare": 6857,
      "Ġdifferentiated": 6858,
      "Ġcommercial": 6859,
      "phase": 6860,
      "Ġproximal": 6861,
      "Ġneurolog": 6862,
      "Ġcandidates": 6863,
      "Ġ41": 6864,
      "odyn": 6865,
      "factory": 6866,
      "GS": 6867,
      "Ġbed": 6868,
      "lyc": 6869,
      "ette": 6870,
      "Ġlob": 6871,
      "ools": 6872,
      "reatic": 6873,
      "Ġlimits": 6874,
      "ĠIN": 6875,
      "Ġblind": 6876,
      "Ġadaptation": 6877,
      "Ġcutoff": 6878,
      "Ġanat": 6879,
      "ĠRed": 6880,
      "Ġcodons": 6881,
      "Ġhydrogen": 6882,
      "ĠInternational": 6883,
      "ample": 6884,
      "tology": 6885,
      "Ġcatalytic": 6886,
      "Ġischem": 6887,
      "Ġinterpreted": 6888,
      "ococcus": 6889,
      "aaabaG": 6890,
      "ione": 6891,
      "otstr": 6892,
      "Ġreplaced": 6893,
      "Ġnamely": 6894,
      "Ph": 6895,
      "ault": 6896,
      "ana": 6897,
      "Ġsole": 6898,
      "Ġdied": 6899,
      "Ġadding": 6900,
      "entive": 6901,
      "ritic": 6902,
      "aad": 6903,
      "angl": 6904,
      "Ġwhom": 6905,
      "Ġformer": 6906,
      "ĠHz": 6907,
      "ĠUnder": 6908,
      "Ġconduct": 6909,
      "ĠWorld": 6910,
      "Ġmyc": 6911,
      "ulties": 6912,
      "Ġpresents": 6913,
      "heum": 6914,
      "essions": 6915,
      "ptions": 6916,
      "Ġeasy": 6917,
      "Pro": 6918,
      "Ġlaw": 6919,
      "Ġmyocardial": 6920,
      "ĠScale": 6921,
      "Ġsib": 6922,
      "ĠBP": 6923,
      "Ġpollution": 6924,
      "Ġsor": 6925,
      "ĠCd": 6926,
      "Ġexpon": 6927,
      "ĠMon": 6928,
      "Ġpredictors": 6929,
      "Ġempirical": 6930,
      "Ġwriting": 6931,
      "work": 6932,
      "ĠLV": 6933,
      "ĠGST": 6934,
      "Ġparticipating": 6935,
      "PAGE": 6936,
      "Ġengine": 6937,
      "'.": 6938,
      "isher": 6939,
      "Ġgest": 6940,
      "Ġpersistent": 6941,
      "come": 6942,
      "ogaster": 6943,
      "ĠBiosystems": 6944,
      "ĠBiot": 6945,
      "Ġcov": 6946,
      "oxicity": 6947,
      "Ġvill": 6948,
      "phone": 6949,
      "jabg": 6950,
      "Ġmoun": 6951,
      "Ġmammary": 6952,
      "Ġcareful": 6953,
      "84": 6954,
      "Ġdiscrep": 6955,
      "entral": 6956,
      "Con": 6957,
      "aching": 6958,
      "Ġepisodes": 6959,
      "aine": 6960,
      "Ġcaspase": 6961,
      "abs": 6962,
      "Ġparalog": 6963,
      "ulates": 6964,
      "ĠBRCA": 6965,
      "Ġchalleng": 6966,
      "Ġelucid": 6967,
      "Ġretained": 6968,
      "idespread": 6969,
      "Ġcough": 6970,
      "Ġupd": 6971,
      "ervous": 6972,
      "Ġple": 6973,
      "ĠMM": 6974,
      "Ġschizophren": 6975,
      "Ġelectrophoresis": 6976,
      "cyc": 6977,
      "Ġstrom": 6978,
      "elt": 6979,
      "82": 6980,
      "ocytosis": 6981,
      "EF": 6982,
      "Ġenvironments": 6983,
      "Ġprov": 6984,
      "Ġ85": 6985,
      "ients": 6986,
      "Ġepidemic": 6987,
      "Ġfunctioning": 6988,
      "Ġlarvae": 6989,
      "iled": 6990,
      "orec": 6991,
      "Ġproducing": 6992,
      "ĠMean": 6993,
      "HT": 6994,
      "ectomy": 6995,
      "ND": 6996,
      "Ġnic": 6997,
      "ĠBAC": 6998,
      "Ġsynthetic": 6999,
      "yb": 7000,
      "ĠMan": 7001,
      "ĠNS": 7002,
      "opo": 7003,
      "Ġsepsis": 7004,
      "ĠHigh": 7005,
      "Ġrow": 7006,
      "ĠChild": 7007,
      "Ġcoupled": 7008,
      "ĠJapan": 7009,
      "PSS": 7010,
      "bound": 7011,
      "eI": 7012,
      "ĠDA": 7013,
      "Ġprelim": 7014,
      "Ġextreme": 7015,
      "ĠGenBank": 7016,
      "Ġsummarized": 7017,
      "Ġreduces": 7018,
      "week": 7019,
      "Ġdeb": 7020,
      "Ġbootstr": 7021,
      "Ġmelanogaster": 7022,
      "Ġparticle": 7023,
      "âĪĳ": 7024,
      "Rec": 7025,
      "hemat": 7026,
      "key": 7027,
      "ĠInf": 7028,
      "ĠGl": 7029,
      "rete": 7030,
      "Ġkg": 7031,
      "viruses": 7032,
      "Ġchond": 7033,
      "Ġactivate": 7034,
      "Ġluciferase": 7035,
      "Ġ52": 7036,
      "anta": 7037,
      "Ġstring": 7038,
      "ometer": 7039,
      "Ġneurop": 7040,
      "Ġarchitect": 7041,
      "asion": 7042,
      "ĠTotal": 7043,
      "termin": 7044,
      "Ġproportional": 7045,
      "Ġsuperior": 7046,
      "Ġter": 7047,
      "Ġscenario": 7048,
      "Med": 7049,
      "ustered": 7050,
      "Ġantisense": 7051,
      "tention": 7052,
      "Ġect": 7053,
      "ĠVP": 7054,
      "Ġpractitioners": 7055,
      "andem": 7056,
      "Ġsteady": 7057,
      "-,": 7058,
      "aden": 7059,
      "89": 7060,
      "EV": 7061,
      "Ġneoplas": 7062,
      "Ġregardless": 7063,
      "ĠNM": 7064,
      "ss": 7065,
      "ĠBL": 7066,
      "Ġbuilding": 7067,
      "Ġvessels": 7068,
      "ĠCOX": 7069,
      "Ġphases": 7070,
      "CAM": 7071,
      "itrate": 7072,
      "dra": 7073,
      "Ġexplored": 7074,
      "Ġpregnant": 7075,
      "Ġech": 7076,
      "olip": 7077,
      "Ġactions": 7078,
      "Ġdemonstrating": 7079,
      "yst": 7080,
      "sim": 7081,
      "ucleotide": 7082,
      "Ġweighted": 7083,
      "Ġphag": 7084,
      "daqhaaWcbaG": 7085,
      "Ġnervous": 7086,
      "mouse": 7087,
      "ĠEp": 7088,
      "Ġcorrelate": 7089,
      "Ġpaired": 7090,
      "Ġspectra": 7091,
      "Ġcompli": 7092,
      "Ġverified": 7093,
      "ĠEurope": 7094,
      "Ġfunctionally": 7095,
      "Ġtags": 7096,
      "MgaP": 7097,
      "Ġintensities": 7098,
      "Ġquick": 7099,
      "Ġfavor": 7100,
      "Ġpreliminary": 7101,
      "lycer": 7102,
      "Ġremove": 7103,
      "Ġregulators": 7104,
      "alled": 7105,
      "Ġperforming": 7106,
      "ĠStudies": 7107,
      "ĠMal": 7108,
      "ĠMark": 7109,
      "formed": 7110,
      "ĠQTL": 7111,
      "ĠSyn": 7112,
      "ll": 7113,
      "atter": 7114,
      "Ġhomozygous": 7115,
      "Ġincorporated": 7116,
      "ampl": 7117,
      "unpublished": 7118,
      "ĠEr": 7119,
      "Ġdefect": 7120,
      "Ġhepatic": 7121,
      "Ġwidespread": 7122,
      "uls": 7123,
      "ĠSal": 7124,
      "Ġtrunc": 7125,
      "Ġabdominal": 7126,
      "Ġdelayed": 7127,
      "Ġchallenges": 7128,
      "Ġflux": 7129,
      "oglobin": 7130,
      "ĠSR": 7131,
      "Ġindustry": 7132,
      "Sa": 7133,
      "ocarcin": 7134,
      "Ġessentially": 7135,
      "Ġ46": 7136,
      "07": 7137,
      "Ġbiomark": 7138,
      "Res": 7139,
      "ĠAustralia": 7140,
      "membrane": 7141,
      "Ġreplicate": 7142,
      "Ġonc": 7143,
      "Ġpreferred": 7144,
      "ĠDepartment": 7145,
      "Ġends": 7146,
      "Ġhum": 7147,
      "Ġevolved": 7148,
      "Ġchemicals": 7149,
      "Ġconversion": 7150,
      "Ġrecurrence": 7151,
      "Ġirradi": 7152,
      "Ġsecreted": 7153,
      "Ġsen": 7154,
      "DI": 7155,
      "Ġchol": 7156,
      "GP": 7157,
      "Ġcigare": 7158,
      "ĠAnd": 7159,
      "Ġprolonged": 7160,
      "Ġfluor": 7161,
      "Ġclim": 7162,
      "kal": 7163,
      "Ġclaim": 7164,
      "Ġcompl": 7165,
      "Ġviability": 7166,
      "ĠNA": 7167,
      "rices": 7168,
      "Ġpotent": 7169,
      "ARS": 7170,
      "Ġautomated": 7171,
      "Ġpreference": 7172,
      "entis": 7173,
      "Ġstronger": 7174,
      "Ġsuffer": 7175,
      "Ġpathological": 7176,
      "CMV": 7177,
      "ĠUV": 7178,
      "Ġ99": 7179,
      "ermal": 7180,
      "ulture": 7181,
      "amma": 7182,
      "Ġutility": 7183,
      "Ġconsiderably": 7184,
      "ĠMedicine": 7185,
      "Ġlearn": 7186,
      "Ġrear": 7187,
      "OT": 7188,
      "Ġperme": 7189,
      "iness": 7190,
      "idal": 7191,
      "Ġperspective": 7192,
      "Ġenrichment": 7193,
      "immune": 7194,
      "ensis": 7195,
      "Ġchanging": 7196,
      "Ġextens": 7197,
      "ulus": 7198,
      "inator": 7199,
      "ypa": 7200,
      "month": 7201,
      "Ġcovered": 7202,
      "Ġfrozen": 7203,
      "inine": 7204,
      "orectal": 7205,
      "On": 7206,
      "analysis": 7207,
      "oblast": 7208,
      "Ġunivers": 7209,
      "Ġconfig": 7210,
      "Ġcausing": 7211,
      "Ġsplit": 7212,
      "uly": 7213,
      "ticular": 7214,
      "Ġdegrees": 7215,
      "Ġages": 7216,
      "Ġlungs": 7217,
      "Additional": 7218,
      "Ġrich": 7219,
      "Ġcontamin": 7220,
      "Ġscreened": 7221,
      "Ġreflected": 7222,
      "Ġvaluable": 7223,
      "Ġintensive": 7224,
      "Ġexclusively": 7225,
      "Ġtiming": 7226,
      "Ġpsychiatric": 7227,
      "mm": 7228,
      "Ġimproving": 7229,
      "Ġbul": 7230,
      "edded": 7231,
      "romet": 7232,
      "Ġunch": 7233,
      "Ġassumptions": 7234,
      "ximately": 7235,
      "Ġevaluating": 7236,
      "aeyypa": 7237,
      "lined": 7238,
      "ilaW": 7239,
      "HiT": 7240,
      "Ġchose": 7241,
      "Ġincreasingly": 7242,
      "Ġdifficulties": 7243,
      "olytic": 7244,
      "Ġvolunte": 7245,
      "YaG": 7246,
      "iral": 7247,
      "ought": 7248,
      "orth": 7249,
      "BM": 7250,
      "right": 7251,
      "âĨĴ": 7252,
      "aten": 7253,
      "ĠCCR": 7254,
      "Ġinferred": 7255,
      "Ġ{": 7256,
      "opathy": 7257,
      "Ġoligonucleotide": 7258,
      "Ġaccession": 7259,
      "syn": 7260,
      "dep": 7261,
      "Ġlongitudinal": 7262,
      "Ġinside": 7263,
      "Ġoffspring": 7264,
      "Ġpg": 7265,
      "Ġprecip": 7266,
      "Ġpancreatic": 7267,
      "Ġbond": 7268,
      "green": 7269,
      "LT": 7270,
      "Ġlabeling": 7271,
      "ĠConsequently": 7272,
      "Ġsegreg": 7273,
      "Ġaveraged": 7274,
      "Ġfores": 7275,
      "uries": 7276,
      "ĠCG": 7277,
      "Ġarterial": 7278,
      "Ġpositives": 7279,
      "kHiT": 7280,
      "lam": 7281,
      "aeqaaOG": 7282,
      "uspended": 7283,
      "ĠÎ»": 7284,
      "Ġepidemiological": 7285,
      "Ġcold": 7286,
      "Ġhorizontal": 7287,
      "ĠKit": 7288,
      "Ġmetastases": 7289,
      "Ġmelanoma": 7290,
      "Ġemo": 7291,
      "ĠBayesian": 7292,
      "DHD": 7293,
      "Ġpathology": 7294,
      "Ġjob": 7295,
      "adjusted": 7296,
      "Ġimmediate": 7297,
      "Ġagarose": 7298,
      "lication": 7299,
      "ĠCare": 7300,
      "Ġground": 7301,
      "Maee": 7302,
      "Ġchamber": 7303,
      "ĠEC": 7304,
      "human": 7305,
      "ancer": 7306,
      "120": 7307,
      "When": 7308,
      "aaeW": 7309,
      "Ġproduces": 7310,
      "emat": 7311,
      "factor": 7312,
      "Ġsera": 7313,
      "bral": 7314,
      "itated": 7315,
      "aceu": 7316,
      "Ġtranspos": 7317,
      "Ġdispers": 7318,
      "YaGm": 7319,
      "Ġgas": 7320,
      "aryn": 7321,
      "Ġfarm": 7322,
      "Ġmarrow": 7323,
      "Ġcome": 7324,
      "aaaaaa": 7325,
      "ĠMa": 7326,
      "ĠGS": 7327,
      "HL": 7328,
      "nel": 7329,
      "ounc": 7330,
      "rey": 7331,
      "Ġwestern": 7332,
      "aeiilaW": 7333,
      "Ġorthologous": 7334,
      "Ġnecrosis": 7335,
      "ĠEng": 7336,
      "ontin": 7337,
      "Ġphosphorylated": 7338,
      "cepts": 7339,
      "arth": 7340,
      "Ġpurchased": 7341,
      "Ġ64": 7342,
      "ĠEDTA": 7343,
      "qWG": 7344,
      "ux": 7345,
      "NV": 7346,
      "omycin": 7347,
      "Ġrating": 7348,
      "Ġinfluences": 7349,
      "ĠRecently": 7350,
      "ĠMc": 7351,
      "uctu": 7352,
      "Ġdifficulty": 7353,
      "Ġaway": 7354,
      "Ġsupernatant": 7355,
      "Ġadolescents": 7356,
      "dose": 7357,
      "Ġmyel": 7358,
      "nals": 7359,
      "Ġbottom": 7360,
      "Ġresemb": 7361,
      "Ġaccurately": 7362,
      "Ġbreat": 7363,
      "aeyOeI": 7364,
      "Ġ(>": 7365,
      "Ġranges": 7366,
      "Ġsubgroups": 7367,
      "Ġadherence": 7368,
      "Ġscience": 7369,
      "Ġclustered": 7370,
      "uvant": 7371,
      "Ġupregulated": 7372,
      "Ġhealthcare": 7373,
      "Ġraw": 7374,
      "Ġconstitu": 7375,
      "ĠGu": 7376,
      "independent": 7377,
      "Ġsmoke": 7378,
      "Ġ|": 7379,
      "Ġultim": 7380,
      "obacteria": 7381,
      "Ġbarriers": 7382,
      "Ġunpublished": 7383,
      "Ġ47": 7384,
      "Ġdescrip": 7385,
      "Ġmaturation": 7386,
      "Ġsynthesized": 7387,
      "Ġadaptive": 7388,
      "Ġinhal": 7389,
      "ĠDD": 7390,
      "Ġcolonies": 7391,
      "amate": 7392,
      "ĠrRNA": 7393,
      "Ġsquare": 7394,
      "ĠSU": 7395,
      "ĠTat": 7396,
      "Ġexamining": 7397,
      "Ġconstruction": 7398,
      "Ġcolumns": 7399,
      "Ã©": 7400,
      "Ġsemi": 7401,
      "Ġsuic": 7402,
      "vey": 7403,
      "Ġproportions": 7404,
      "Ġtyros": 7405,
      "ounced": 7406,
      "Ġcharacterize": 7407,
      "Ġthink": 7408,
      "Ġfigures": 7409,
      "col": 7410,
      "igu": 7411,
      "Ġvehicle": 7412,
      "erative": 7413,
      "Ġundert": 7414,
      "Ġremark": 7415,
      "Ġtelephone": 7416,
      "Ġhold": 7417,
      "Ġformula": 7418,
      "points": 7419,
      "yte": 7420,
      "Ġbodies": 7421,
      "ĠAltern": 7422,
      "rophic": 7423,
      "kt": 7424,
      "rt": 7425,
      "Ġsimilarities": 7426,
      "Ġdetecting": 7427,
      "Ġbranches": 7428,
      "Ġbrief": 7429,
      "Ġpron": 7430,
      "Ġsuppression": 7431,
      "ĠSan": 7432,
      "Ġrequirement": 7433,
      "Ġprogramme": 7434,
      "Ġantibiotics": 7435,
      "ulum": 7436,
      "Ġdecreasing": 7437,
      "Ġhomogen": 7438,
      "ians": 7439,
      "Ġsession": 7440,
      "Ġsched": 7441,
      "entists": 7442,
      "Ġ),": 7443,
      "Ġseconds": 7444,
      "Table": 7445,
      "Ġisolate": 7446,
      "qab": 7447,
      "idation": 7448,
      "ologous": 7449,
      "Ġmatrices": 7450,
      "Ġreveals": 7451,
      "Ġzone": 7452,
      "ĠTaq": 7453,
      "max": 7454,
      "Ġbuild": 7455,
      ")/": 7456,
      "Ġbip": 7457,
      "Ġsituations": 7458,
      "Ġgrouped": 7459,
      "ĠCOPD": 7460,
      "Ġpay": 7461,
      "ĠmL": 7462,
      "Ġrice": 7463,
      "expressed": 7464,
      "Ġbladder": 7465,
      "ĠRNAs": 7466,
      "Ġdiscovered": 7467,
      "Ġarsenic": 7468,
      "ĠEm": 7469,
      "Ġ56": 7470,
      "ivered": 7471,
      "Ġuncertainty": 7472,
      "Ġvisualized": 7473,
      "Ks": 7474,
      "Ġtight": 7475,
      "after": 7476,
      "Ġheterozygous": 7477,
      "Ġprinciple": 7478,
      "born": 7479,
      "ĠTM": 7480,
      "ping": 7481,
      "orage": 7482,
      "Ġutilization": 7483,
      "unately": 7484,
      "Ġparad": 7485,
      "ĠPV": 7486,
      "PP": 7487,
      "Ġdoub": 7488,
      "Ġfluctu": 7489,
      "Ġedge": 7490,
      "However": 7491,
      "Ġpure": 7492,
      "Ġmt": 7493,
      "Ġast": 7494,
      "Ġrelax": 7495,
      "Ġmonocytes": 7496,
      "Ġcalculations": 7497,
      "Ġmetal": 7498,
      "ĠClinical": 7499,
      "Ġneutrophils": 7500,
      "actor": 7501,
      "Ġquar": 7502,
      "Ġmonitor": 7503,
      "Ġfruit": 7504,
      "Ġ1994": 7505,
      "Ġsubsets": 7506,
      "ĠFe": 7507,
      "oxidase": 7508,
      "Ġspor": 7509,
      "oms": 7510,
      "Ġencodes": 7511,
      "Ġdimension": 7512,
      "Ġalveolar": 7513,
      "Ġdry": 7514,
      "Ġperturb": 7515,
      "CAG": 7516,
      "Ġschools": 7517,
      "igm": 7518,
      "ĠAnim": 7519,
      "Ġsatisfaction": 7520,
      "caS": 7521,
      "Ġsubtypes": 7522,
      "resistant": 7523,
      "Ġrig": 7524,
      "gabeaak": 7525,
      "Ġgels": 7526,
      "Ġcenters": 7527,
      "fit": 7528,
      "avy": 7529,
      "zyme": 7530,
      "Ġneuron": 7531,
      "Ġventral": 7532,
      "Ġwalking": 7533,
      "Ġsaid": 7534,
      "ucture": 7535,
      "Ġanswer": 7536,
      "utaneous": 7537,
      "ĠNum": 7538,
      "Ġdimin": 7539,
      "azole": 7540,
      "Ġdiscrimination": 7541,
      "Ġclinicians": 7542,
      "Ġinserted": 7543,
      "ze": 7544,
      "Pre": 7545,
      "Ġperc": 7546,
      "Ġhypotheses": 7547,
      "oche": 7548,
      "OaakcqWG": 7549,
      "Ġskeletal": 7550,
      "Ġpotenti": 7551,
      "Ġsays": 7552,
      "ectin": 7553,
      "Ġapplying": 7554,
      "Ġpowerful": 7555,
      "Ġunrelated": 7556,
      "Ġimprovements": 7557,
      "from": 7558,
      "Ġclean": 7559,
      "Ġoccupational": 7560,
      "Aaeqaa": 7561,
      "Ġrace": 7562,
      "Ġconsistency": 7563,
      "jection": 7564,
      "Ġdimensions": 7565,
      "Ġasymmet": 7566,
      "Ġrough": 7567,
      "Ġmuscles": 7568,
      "transfer": 7569,
      "Ġchains": 7570,
      "ĠOrgan": 7571,
      "oman": 7572,
      "ĠMy": 7573,
      "ĠCSF": 7574,
      "ĠThat": 7575,
      "ĠDist": 7576,
      "Ġfeel": 7577,
      "Ġredund": 7578,
      "Ġkinetics": 7579,
      "Ġpreferen": 7580,
      "Ġclade": 7581,
      "Ġfibrosis": 7582,
      "head": 7583,
      "Ġassessments": 7584,
      "orrh": 7585,
      "Ġcontacts": 7586,
      "Ġcentrifugation": 7587,
      "Ġ105": 7588,
      "Ġacts": 7589,
      "Ġ54": 7590,
      "tra": 7591,
      "ĠClass": 7592,
      "ĠTR": 7593,
      "Ġrecall": 7594,
      "ACS": 7595,
      "ford": 7596,
      "Ġrhyth": 7597,
      "patitis": 7598,
      "Ġdeviations": 7599,
      "Ġnursing": 7600,
      "Since": 7601,
      "icking": 7602,
      "rown": 7603,
      "sectional": 7604,
      "Ġcovariates": 7605,
      "Ġ120": 7606,
      "Ġflanking": 7607,
      "Ġmanifest": 7608,
      "Ġcharacterization": 7609,
      "daY": 7610,
      "Figure": 7611,
      "Ġperception": 7612,
      "Ġethical": 7613,
      "phen": 7614,
      "ude": 7615,
      "Ġgreatest": 7616,
      "Ġpilot": 7617,
      "Ġrecurrent": 7618,
      "loaded": 7619,
      "ĠCity": 7620,
      "lected": 7621,
      "YcaS": 7622,
      "Ġgiving": 7623,
      "ĠEPA": 7624,
      "inted": 7625,
      "Ġfibr": 7626,
      "Ġregulator": 7627,
      "ni": 7628,
      "ĠChem": 7629,
      "Ġneck": 7630,
      "Ġequilibrium": 7631,
      "Ġsessions": 7632,
      "ĠHeLa": 7633,
      "amental": 7634,
      "through": 7635,
      "Ġsocioeconomic": 7636,
      "NN": 7637,
      "review": 7638,
      "Ġdiabetic": 7639,
      "Ġefficiently": 7640,
      "ĠAÎ²": 7641,
      "Ġsoil": 7642,
      "Ġcytometry": 7643,
      "Ġseason": 7644,
      "org": 7645,
      "Ġencode": 7646,
      "Ġaccompan": 7647,
      "Ġmer": 7648,
      "Ġjournals": 7649,
      "rants": 7650,
      "Ġvertical": 7651,
      "Ġbuilt": 7652,
      "ĠSO": 7653,
      "Ġgenerating": 7654,
      "Ġexclude": 7655,
      "CAT": 7656,
      "Ġorthologs": 7657,
      "Ġ53": 7658,
      "Ġcycl": 7659,
      "Ġhomogene": 7660,
      "lection": 7661,
      "Ġcritically": 7662,
      "Ġclearance": 7663,
      "Ġenrolled": 7664,
      "IT": 7665,
      "Ġcav": 7666,
      "Ġnet": 7667,
      "ĠNR": 7668,
      "Ġcompartment": 7669,
      "Ġdelivered": 7670,
      "methyl": 7671,
      "ĠPO": 7672,
      "Ġaspir": 7673,
      "pop": 7674,
      "Ġsought": 7675,
      "Ġinsight": 7676,
      "Ġprecursor": 7677,
      "Ġoptions": 7678,
      "Ġdescribes": 7679,
      "ĠPG": 7680,
      "Ġsomatic": 7681,
      "ĠDS": 7682,
      "Ġelectronic": 7683,
      "EL": 7684,
      "expressing": 7685,
      "Ġdeterminants": 7686,
      "ologist": 7687,
      "raz": 7688,
      "ĠSEM": 7689,
      "ĠAIDS": 7690,
      "Ġproperty": 7691,
      "DO": 7692,
      "Ġbinary": 7693,
      "Ġnarrow": 7694,
      "ĠSigma": 7695,
      "Ġoverweight": 7696,
      "Ġcouns": 7697,
      "Ġcentre": 7698,
      "Ds": 7699,
      "Ġresolved": 7700,
      "Ġinters": 7701,
      "Ġcolorectal": 7702,
      "...": 7703,
      "ony": 7704,
      "Ġcontamination": 7705,
      "Ġschizophrenia": 7706,
      "Ġclassical": 7707,
      "Ġfinancial": 7708,
      "Ġmism": 7709,
      "Ġboundary": 7710,
      "Ġenvelop": 7711,
      "ĠTG": 7712,
      "Ġcompliance": 7713,
      "Ġcodes": 7714,
      "Ġvisible": 7715,
      "poss": 7716,
      "square": 7717,
      "âĢ¢": 7718,
      "maid": 7719,
      "ĠPhys": 7720,
      "represented": 7721,
      "sk": 7722,
      "Ġ51": 7723,
      "Ġdonors": 7724,
      "Ġlysates": 7725,
      "iabigda": 7726,
      "Ġexpanded": 7727,
      "Ġtandem": 7728,
      "Ġcontributions": 7729,
      "')": 7730,
      "ĠNCBI": 7731,
      "ĠRecent": 7732,
      "ĠMulti": 7733,
      "Ġsple": 7734,
      "ĠDis": 7735,
      "Ġsubstance": 7736,
      "Ġcirculating": 7737,
      "Ġsilencing": 7738,
      "life": 7739,
      "âĪĴ/âĪĴ": 7740,
      "Ġinher": 7741,
      "Ġaging": 7742,
      "Ġprost": 7743,
      "Ġvelocity": 7744,
      "Ġvirulence": 7745,
      "Ar": 7746,
      "Ġcomprised": 7747,
      "Ġinteracting": 7748,
      "earson": 7749,
      "luor": 7750,
      "missions": 7751,
      "Ġchest": 7752,
      "Ġpic": 7753,
      "Ġmicrogl": 7754,
      "Ġpollut": 7755,
      "olate": 7756,
      "Ġdefic": 7757,
      "clonal": 7758,
      "Ġinhibits": 7759,
      "ciences": 7760,
      "fs": 7761,
      "Ġclinics": 7762,
      "ĠChrom": 7763,
      "ĠRF": 7764,
      "Ġgeograph": 7765,
      "itoneal": 7766,
      "Ġworm": 7767,
      "Ġsignature": 7768,
      "ikdaY": 7769,
      "copic": 7770,
      "Ġtravel": 7771,
      "Ġimplies": 7772,
      "Ġapparently": 7773,
      "Ġperfect": 7774,
      "ĠDisease": 7775,
      "ĠPL": 7776,
      "Ġregulating": 7777,
      "ogether": 7778,
      "Ġindices": 7779,
      "intestinal": 7780,
      "Ġprogressive": 7781,
      "Ġded": 7782,
      "ias": 7783,
      "Ġsynchron": 7784,
      "rophy": 7785,
      "Ġpip": 7786,
      "ophage": 7787,
      "Ġintrinsic": 7788,
      "Ġdiagnoses": 7789,
      "ĠIndia": 7790,
      "Ġbin": 7791,
      "ogenes": 7792,
      "Ġrandomised": 7793,
      "Ġcarcinomas": 7794,
      "Ġvertebrate": 7795,
      "ĠAV": 7796,
      "Ġoperation": 7797,
      "ĠmiRNAs": 7798,
      "za": 7799,
      "Ġhits": 7800,
      "Ġwells": 7801,
      "Ġcasc": 7802,
      "Ġdual": 7803,
      "array": 7804,
      "Ġcentrifuged": 7805,
      "transf": 7806,
      "hab": 7807,
      "EA": 7808,
      "Ġboundaries": 7809,
      "Ġfundamental": 7810,
      "Ġcamp": 7811,
      "Ġbelonging": 7812,
      "jects": 7813,
      "vo": 7814,
      "ĠÃħ": 7815,
      "avi": 7816,
      "ceptor": 7817,
      "omics": 7818,
      "heumat": 7819,
      "Ġfair": 7820,
      "Ġdevice": 7821,
      "Ġoption": 7822,
      "iagen": 7823,
      "Ġheterogeneous": 7824,
      "Ġmarkedly": 7825,
      "aeGOmaid": 7826,
      "Ġlamin": 7827,
      "Hb": 7828,
      "Ġassayed": 7829,
      "Ġwebsite": 7830,
      "ĠTheir": 7831,
      "ĠFigures": 7832,
      "Ġprominent": 7833,
      "Ġcircadian": 7834,
      "Ġexclusion": 7835,
      "Ġhierarchical": 7836,
      "Ġdop": 7837,
      "aaak": 7838,
      "Ġvas": 7839,
      "ĠWhere": 7840,
      "ĠOb": 7841,
      "ĠADHD": 7842,
      "Ġorganizations": 7843,
      "Gene": 7844,
      "Ġtechnologies": 7845,
      "Ġwrote": 7846,
      "ĠJan": 7847,
      "Ġinterpret": 7848,
      "Ġarb": 7849,
      "Ġoil": 7850,
      "ĠBD": 7851,
      "Ġheld": 7852,
      "utable": 7853,
      "tase": 7854,
      "Ġresc": 7855,
      "Ġattend": 7856,
      "Ġcausal": 7857,
      "Ġequations": 7858,
      "Ġstrict": 7859,
      "ĠGr": 7860,
      "Ġinterfer": 7861,
      "rected": 7862,
      "Ġhouseholds": 7863,
      "Ġoffered": 7864,
      "Ġarise": 7865,
      "ĠCAM": 7866,
      "ĠEnvironment": 7867,
      "Ġthickness": 7868,
      "Ġinjuries": 7869,
      "Ġnegatively": 7870,
      "Ġsustained": 7871,
      "Ġguide": 7872,
      "Ġsupply": 7873,
      "Ġphage": 7874,
      "Ġmarket": 7875,
      "Ġcereb": 7876,
      "Ġreconstruction": 7877,
      "pin": 7878,
      ")=": 7879,
      "400": 7880,
      "sup": 7881,
      "ĠLDL": 7882,
      "Ġretros": 7883,
      "ĠMRI": 7884,
      "Ġindust": 7885,
      "glut": 7886,
      "ccaG": 7887,
      "ĠERK": 7888,
      "ĠSA": 7889,
      "ĠHER": 7890,
      "Ġmedications": 7891,
      "300": 7892,
      "Ġ(<": 7893,
      "ĠItal": 7894,
      "Ġadvantages": 7895,
      "Ġsector": 7896,
      "Ġlifest": 7897,
      "ĠType": 7898,
      "Ġepitope": 7899,
      "Ġaspect": 7900,
      "ĠMCF": 7901,
      "Ġlaser": 7902,
      "ĠSte": 7903,
      "ersham": 7904,
      "Ġreactive": 7905,
      "such": 7906,
      "Ġresuspended": 7907,
      "Ġhepatitis": 7908,
      "ensitivity": 7909,
      "Ġphylogeny": 7910,
      "Ġcontrac": 7911,
      "Ġdoctor": 7912,
      "Ġfacility": 7913,
      "Sm": 7914,
      "Ġsubtr": 7915,
      "Ġcatheter": 7916,
      "Ġmitotic": 7917,
      "ĠORFs": 7918,
      "iton": 7919,
      "Ġgastric": 7920,
      "une": 7921,
      "Ġvaries": 7922,
      "fil": 7923,
      "Ġviol": 7924,
      "Ġtyrosine": 7925,
      "Ġdepletion": 7926,
      "but": 7927,
      "non": 7928,
      "Ġpresenting": 7929,
      "Ġexperiences": 7930,
      "anal": 7931,
      "Ġreturned": 7932,
      "ĠTC": 7933,
      "ellent": 7934,
      "ĠStatistical": 7935,
      "Ġbiosynthesis": 7936,
      "Ġ62": 7937,
      "Ġchicken": 7938,
      "Ġthresholds": 7939,
      "Ġacceptable": 7940,
      "If": 7941,
      "Ġ68": 7942,
      "Ġadenocarcin": 7943,
      "Ġaccompanied": 7944,
      "Ġconformation": 7945,
      "Ġgp": 7946,
      "Ġfelt": 7947,
      "Ġ(-": 7948,
      "Ġrequiring": 7949,
      "Ġrepress": 7950,
      "Ġborder": 7951,
      "Ġathe": 7952,
      "Ġsubtype": 7953,
      "lings": 7954,
      "Ġhex": 7955,
      "Ġacad": 7956,
      "Ġframes": 7957,
      "He": 7958,
      "Ġ58": 7959,
      "Ġdriven": 7960,
      "mol": 7961,
      "ĠWil": 7962,
      "Ac": 7963,
      "CTG": 7964,
      "Ġanalyzing": 7965,
      "publication": 7966,
      "phosphate": 7967,
      "ĠPan": 7968,
      "Ġinactivation": 7969,
      "Ġobstr": 7970,
      "Ġendomet": 7971,
      "Ġcorrected": 7972,
      "oblot": 7973,
      "CSF": 7974,
      "Ġcultiv": 7975,
      "Ġundergoing": 7976,
      "omb": 7977,
      "Ġabuse": 7978,
      "Ġhighlighted": 7979,
      "Ġrs": 7980,
      "Ġentered": 7981,
      "Ġtolerance": 7982,
      "Ġbootstrap": 7983,
      "Ġcontributing": 7984,
      "Ġinterested": 7985,
      "Ġtaxa": 7986,
      "Ġeukaryotes": 7987,
      "Ġextensively": 7988,
      "Ġsarc": 7989,
      "ĠTT": 7990,
      "igue": 7991,
      "Ġinsurance": 7992,
      "Ġconfounding": 7993,
      "ĠLik": 7994,
      "ĠTI": 7995,
      "eta": 7996,
      "Ġwithdra": 7997,
      "att": 7998,
      "Ġcerebral": 7999,
      "Ġgranul": 8000,
      "ĠMay": 8001,
      "ĠBMP": 8002,
      "Ġstorage": 8003,
      "RR": 8004,
      "ultural": 8005,
      "ĠAM": 8006,
      "cler": 8007,
      "Ġenab": 8008,
      "Ġdisse": 8009,
      "Ġhomologs": 8010,
      "Ġdefinitions": 8011,
      "Ġquantification": 8012,
      "Ġpronounced": 8013,
      "aled": 8014,
      "osine": 8015,
      "Ġdeletions": 8016,
      "grade": 8017,
      "anth": 8018,
      "aped": 8019,
      "Ġdepos": 8020,
      "Ġsalt": 8021,
      "ĠCarl": 8022,
      "Ġblocking": 8023,
      "icial": 8024,
      "Ġunus": 8025,
      "Ġpolicies": 8026,
      "aved": 8027,
      "ĠVari": 8028,
      "affected": 8029,
      "gf": 8030,
      "Ġanest": 8031,
      "ĠAG": 8032,
      "Ġphosphatase": 8033,
      "Ġneonatal": 8034,
      "Ġnod": 8035,
      "Ġinfusion": 8036,
      "ĠProt": 8037,
      "Ġeti": 8038,
      "Ġcloning": 8039,
      "Ġventilation": 8040,
      "Ġvast": 8041,
      "ends": 8042,
      "ĠÎ¼L": 8043,
      "Ġtrauma": 8044,
      "Ġpi": 8045,
      "Ġinner": 8046,
      "Ġintraven": 8047,
      "ĠEl": 8048,
      "rangements": 8049,
      "Ġundertaken": 8050,
      "ĠServ": 8051,
      "QL": 8052,
      "edical": 8053,
      "Ġmanually": 8054,
      "ails": 8055,
      "With": 8056,
      "uits": 8057,
      "NOS": 8058,
      "kary": 8059,
      "ĠHF": 8060,
      "sisl": 8061,
      "Ġcow": 8062,
      "Ġsubmitted": 8063,
      "ĠDCs": 8064,
      "Ġrarely": 8065,
      "eck": 8066,
      "Ġdesignated": 8067,
      "lastic": 8068,
      "mp": 8069,
      "Ġfaster": 8070,
      "Ġfinger": 8071,
      "Ġimmunore": 8072,
      "ĠPH": 8073,
      "fortunately": 8074,
      "Ġslope": 8075,
      "Ġago": 8076,
      "ĠSpecifically": 8077,
      "ĠCNS": 8078,
      "idase": 8079,
      "Ġheavy": 8080,
      "Ġcultural": 8081,
      "Ġenable": 8082,
      "Ġ49": 8083,
      "Ġretinal": 8084,
      "Ġinver": 8085,
      "Ġresection": 8086,
      "acchar": 8087,
      "Ġinstances": 8088,
      "aeiilaWI": 8089,
      "uffered": 8090,
      "Ġcongen": 8091,
      "Ġincomplete": 8092,
      "aaale": 8093,
      "Ġhydrophobic": 8094,
      "ĠHS": 8095,
      "Ġmodest": 8096,
      "Ġancestor": 8097,
      "infection": 8098,
      "Ġadapted": 8099,
      "Ġadopted": 8100,
      "Ġmating": 8101,
      "ĠTH": 8102,
      "Ġattitudes": 8103,
      "isp": 8104,
      "omers": 8105,
      "osed": 8106,
      "ocated": 8107,
      "Ġribosomal": 8108,
      "Ġremod": 8109,
      "ĠDue": 8110,
      "ĠÎ´": 8111,
      "Ġoriginally": 8112,
      "stimulated": 8113,
      "Ġinherent": 8114,
      "alities": 8115,
      "Ġincorporation": 8116,
      "Ġsearched": 8117,
      "Ġminute": 8118,
      "Ġ(+": 8119,
      "Ġoffers": 8120,
      "Ġmagnetic": 8121,
      "ĠEff": 8122,
      "Ġregen": 8123,
      "ancing": 8124,
      "ming": 8125,
      "Ġpup": 8126,
      "Ġna": 8127,
      "Ġhapp": 8128,
      "ĠGenes": 8129,
      "aight": 8130,
      "osing": 8131,
      "Ġgoals": 8132,
      "Ġvulner": 8133,
      "Ġaccessible": 8134,
      "Ġmeeting": 8135,
      "Ġobject": 8136,
      "While": 8137,
      "aste": 8138,
      "vidually": 8139,
      "adequ": 8140,
      "alk": 8141,
      "Ġhal": 8142,
      "ĠBcl": 8143,
      "Ġtemperatures": 8144,
      "Ġcust": 8145,
      "Us": 8146,
      "pair": 8147,
      "Ġduplicate": 8148,
      "omial": 8149,
      "Ġanne": 8150,
      "Ġinterference": 8151,
      "Ġpolyclonal": 8152,
      "Ġelong": 8153,
      "Ġassuming": 8154,
      "Ġsound": 8155,
      "Ġds": 8156,
      "tum": 8157,
      "Ġusual": 8158,
      "Ġinformative": 8159,
      "jected": 8160,
      "ns": 8161,
      "oration": 8162,
      "Ġglass": 8163,
      "Fs": 8164,
      "Ġincons": 8165,
      "forward": 8166,
      "Ġcomputation": 8167,
      "Ġrot": 8168,
      "Ġlysis": 8169,
      "ashion": 8170,
      "Ġgenetically": 8171,
      "Ġharm": 8172,
      "Ġhypoxia": 8173,
      "Ġimmunoprecip": 8174,
      "gaq": 8175,
      "Ġloaded": 8176,
      "Ġmening": 8177,
      "Ġprevalent": 8178,
      "tage": 8179,
      "Ġquad": 8180,
      "Ġfourth": 8181,
      "deficient": 8182,
      "Ġinfarc": 8183,
      "Ġ1993": 8184,
      "ried": 8185,
      "Ġvolumes": 8186,
      "Ġfine": 8187,
      "Ġagreed": 8188,
      "itional": 8189,
      "ĠVi": 8190,
      "ĠExperim": 8191,
      "erestim": 8192,
      "ograms": 8193,
      "Ġmask": 8194,
      "Ġtransgene": 8195,
      "Ġdisruption": 8196,
      "sb": 8197,
      "ĠLT": 8198,
      "Ġretention": 8199,
      "titative": 8200,
      "conjugated": 8201,
      "opsies": 8202,
      "Ġattempts": 8203,
      "vas": 8204,
      "iiG": 8205,
      "tures": 8206,
      "ĠGH": 8207,
      "Ġsick": 8208,
      "Ġ66": 8209,
      "Ġpred": 8210,
      "Ġcolony": 8211,
      "PbqA": 8212,
      "DM": 8213,
      "Ġarchitecture": 8214,
      "ĠSH": 8215,
      "oL": 8216,
      "aldehyde": 8217,
      "Ġretrieved": 8218,
      "After": 8219,
      "Ġborn": 8220,
      "ders": 8221,
      "Ġapproval": 8222,
      "Ġdescribing": 8223,
      "Ġjus": 8224,
      "PE": 8225,
      "inson": 8226,
      "Ġgaps": 8227,
      "Ġgir": 8228,
      "Ġorganic": 8229,
      "blue": 8230,
      "Ġmosquitoes": 8231,
      "Ġmetric": 8232,
      "Ġindividually": 8233,
      "Ġfashion": 8234,
      "anged": 8235,
      "actic": 8236,
      "Ġexcellent": 8237,
      "igene": 8238,
      "wards": 8239,
      "Ġjournal": 8240,
      "iar": 8241,
      "Ġspermat": 8242,
      "Ġarbitr": 8243,
      "Ġconcepts": 8244,
      "Ġatrial": 8245,
      "Ġunderestim": 8246,
      "aper": 8247,
      "Ġdistant": 8248,
      "Ġsurviv": 8249,
      "disc": 8250,
      "oming": 8251,
      "Ġnurse": 8252,
      "Ġdepth": 8253,
      "Ġadmitted": 8254,
      "Ġpredicting": 8255,
      "Ġpanels": 8256,
      "Ġpenet": 8257,
      "reviewed": 8258,
      "habil": 8259,
      "Ġana": 8260,
      "Ġleaves": 8261,
      "ivariate": 8262,
      "Ġpostoperative": 8263,
      "Saalc": 8264,
      "ocytic": 8265,
      "Ġsynovial": 8266,
      "Ġtrim": 8267,
      "Ġarrows": 8268,
      "Ġelic": 8269,
      "acial": 8270,
      "achment": 8271,
      "Ġblast": 8272,
      "Ġserved": 8273,
      "ĠTreatment": 8274,
      "Ġopin": 8275,
      "hydrogen": 8276,
      "Ġstraight": 8277,
      "Ġfibers": 8278,
      "Ġbarrier": 8279,
      "Ġaccounted": 8280,
      "oint": 8281,
      "Ġdecades": 8282,
      "Chip": 8283,
      "Ġsurge": 8284,
      "Ġdefault": 8285,
      "Ġrecognize": 8286,
      "Ġpresumably": 8287,
      "ĠGenome": 8288,
      "Ġassignment": 8289,
      "GenBank": 8290,
      "Ġtopology": 8291,
      "UTR": 8292,
      "ĠIndian": 8293,
      "FI": 8294,
      "Ġbab": 8295,
      "ura": 8296,
      "Ġinstruments": 8297,
      "pn": 8298,
      "Ġzinc": 8299,
      "Ġadvice": 8300,
      "Ġultrasound": 8301,
      "local": 8302,
      "ĠSI": 8303,
      "Ġradical": 8304,
      "Ġrunning": 8305,
      "Ġdiscrete": 8306,
      "Ġadministr": 8307,
      "ĠLaboratories": 8308,
      "ush": 8309,
      "Ġthous": 8310,
      "idium": 8311,
      "ĠMat": 8312,
      "Ġcontributes": 8313,
      "amycin": 8314,
      "Ġprotect": 8315,
      "ĠWithin": 8316,
      "Ġalbumin": 8317,
      "Ġcarriers": 8318,
      "Ġquantify": 8319,
      "His": 8320,
      "Ġouter": 8321,
      "Ġhosts": 8322,
      "ĠIT": 8323,
      "Ġdemand": 8324,
      "Ġyellow": 8325,
      "hematical": 8326,
      "itz": 8327,
      "Ġcomprom": 8328,
      "Ġ57": 8329,
      "Ġsay": 8330,
      "Ġdispar": 8331,
      "Ġstructured": 8332,
      "Ġproven": 8333,
      "open": 8334,
      "rowth": 8335,
      "NR": 8336,
      "Ġsafe": 8337,
      "Several": 8338,
      "Ġbreastfeeding": 8339,
      "vol": 8340,
      "Ġdisturb": 8341,
      "ophys": 8342,
      "cm": 8343,
      "cqGGPaqk": 8344,
      "Ġtendency": 8345,
      "Ġdigestion": 8346,
      "Ġinsufficient": 8347,
      "Ġpartly": 8348,
      "Ġdramatically": 8349,
      "wy": 8350,
      "Ġdiffusion": 8351,
      "ausal": 8352,
      "cr": 8353,
      "Waam": 8354,
      "ĠOD": 8355,
      "Ġmutagen": 8356,
      "gaU": 8357,
      "Because": 8358,
      "Ġtransmembrane": 8359,
      "ĠParticipants": 8360,
      "log": 8361,
      "oney": 8362,
      "oking": 8363,
      "bach": 8364,
      "anine": 8365,
      "Ġmicrotub": 8366,
      "Ġcentres": 8367,
      "ĠIncre": 8368,
      "Ġemotional": 8369,
      "ĠHy": 8370,
      "abaGccqGG": 8371,
      "Ġmaintaining": 8372,
      "iples": 8373,
      "itant": 8374,
      "Ġcorrelates": 8375,
      "09": 8376,
      "omical": 8377,
      "Ġforming": 8378,
      "Ġmim": 8379,
      "Ġeosin": 8380,
      "Ġmitochondria": 8381,
      "Ġautomatically": 8382,
      "cbe": 8383,
      "posure": 8384,
      "Ġprofiling": 8385,
      "Ġspent": 8386,
      "urk": 8387,
      "Ġawareness": 8388,
      "mal": 8389,
      "Ġinstitutions": 8390,
      "anese": 8391,
      "Ġpartner": 8392,
      "affin": 8393,
      "BH": 8394,
      "ĠDat": 8395,
      "jk": 8396,
      "Ġedges": 8397,
      "Ġgoat": 8398,
      "Ġvaccines": 8399,
      "qGG": 8400,
      "ger": 8401,
      "Ġstimulate": 8402,
      "usting": 8403,
      "Ġ63": 8404,
      "inese": 8405,
      "Ġruns": 8406,
      "Ġpreparations": 8407,
      "itol": 8408,
      "Ġcoinc": 8409,
      "ĠMb": 8410,
      "Ġnamed": 8411,
      "Ġeggs": 8412,
      "Ġspleen": 8413,
      "ait": 8414,
      "Ġstock": 8415,
      "Ġintergenic": 8416,
      "Ġreper": 8417,
      "Ġcass": 8418,
      "Ġcity": 8419,
      "Ġviewed": 8420,
      "iment": 8421,
      "Ġgenerations": 8422,
      "Ġsearching": 8423,
      "Ġblotting": 8424,
      "Two": 8425,
      "aker": 8426,
      "Ġlayers": 8427,
      "iation": 8428,
      "Ġsharing": 8429,
      "Ġhrs": 8430,
      "ĠWest": 8431,
      "Ġinverse": 8432,
      "Ġmmol": 8433,
      "stage": 8434,
      "ading": 8435,
      "akes": 8436,
      "ĠOut": 8437,
      "Ġrevised": 8438,
      "Ġconverted": 8439,
      "Ġfeasible": 8440,
      "Ġprovision": 8441,
      "Ġantioxid": 8442,
      "Ġglycer": 8443,
      "Ġsaliv": 8444,
      "Î´": 8445,
      "Ġcombining": 8446,
      "ĠProb": 8447,
      "ĠCurrent": 8448,
      "ĠSamples": 8449,
      "ĠShe": 8450,
      "Ġscientists": 8451,
      "Ġplaus": 8452,
      "Ġgastrointestinal": 8453,
      "site": 8454,
      "panz": 8455,
      "tin": 8456,
      "Ġign": 8457,
      "Ġcompletion": 8458,
      "Ġpreventing": 8459,
      "Ġleukemia": 8460,
      "Ġbegan": 8461,
      "Ġconnections": 8462,
      "two": 8463,
      "Ġemerging": 8464,
      "ĠModel": 8465,
      "Ġangle": 8466,
      "ilies": 8467,
      "Ġstudying": 8468,
      "Ġviable": 8469,
      "Ġviews": 8470,
      "Ġbleeding": 8471,
      "Ġnt": 8472,
      "ĠGE": 8473,
      "Ġproph": 8474,
      "Ġanticip": 8475,
      "ibration": 8476,
      "ĠQu": 8477,
      "Ġcommittee": 8478,
      "LD": 8479,
      "usions": 8480,
      "Ġbeads": 8481,
      "Ġscanning": 8482,
      "ician": 8483,
      "Ġneurological": 8484,
      "%âĢĵ": 8485,
      "Ġsel": 8486,
      "Ġserine": 8487,
      "Ġradio": 8488,
      "Ġfiltered": 8489,
      "Ġpol": 8490,
      "ĠUTR": 8491,
      "Ġrepression": 8492,
      "coprotein": 8493,
      "ĠJanuary": 8494,
      "HCl": 8495,
      "tem": 8496,
      "Ġgold": 8497,
      "rangement": 8498,
      "Ġ**": 8499,
      "tiz": 8500,
      "Ġinadequ": 8501,
      "adic": 8502,
      "Ġmovements": 8503,
      "astr": 8504,
      "ĠEGFR": 8505,
      "Applied": 8506,
      "Ġpicture": 8507,
      "high": 8508,
      "reas": 8509,
      "RNAs": 8510,
      "Ġlabelled": 8511,
      "ĠHMM": 8512,
      "ashed": 8513,
      "Ġpropag": 8514,
      "ĠQuan": 8515,
      "UbG": 8516,
      "xin": 8517,
      "Ġretin": 8518,
      "ochastic": 8519,
      "Ġtreating": 8520,
      "Ġtriplic": 8521,
      "flow": 8522,
      "Ġcys": 8523,
      "Ġmediate": 8524,
      "Ġcircumst": 8525,
      "Ġmicrosatellite": 8526,
      "Ġtro": 8527,
      "Ġgangl": 8528,
      "Ġproximity": 8529,
      "plasia": 8530,
      "Ġeyes": 8531,
      "terminus": 8532,
      "Ġantic": 8533,
      "AB": 8534,
      "Ġsymmet": 8535,
      "DB": 8536,
      "ĠFisher": 8537,
      "Ġaqu": 8538,
      "emographic": 8539,
      "Ġquantity": 8540,
      "habilitation": 8541,
      "lip": 8542,
      "Ġinactive": 8543,
      "Ġintegrity": 8544,
      "iabcIcaO": 8545,
      "zk": 8546,
      "Ġcompetition": 8547,
      "Ġbiologically": 8548,
      "ipped": 8549,
      "ĠBiosciences": 8550,
      "Ġsinus": 8551,
      "Ġminimize": 8552,
      "Ġcoordinated": 8553,
      "then": 8554,
      "Ġbioinform": 8555,
      "horts": 8556,
      "lysis": 8557,
      "ypical": 8558,
      "Ġtables": 8559,
      "Ġchoose": 8560,
      "inn": 8561,
      "Ġacting": 8562,
      "Ġattack": 8563,
      "ucas": 8564,
      "Ġyields": 8565,
      "Ġclosed": 8566,
      "tise": 8567,
      "ĠChildren": 8568,
      "Ġleaf": 8569,
      "ochrom": 8570,
      "osterone": 8571,
      "inely": 8572,
      "Ġregulates": 8573,
      "Ġradiotherapy": 8574,
      "Ġtranslocation": 8575,
      "opausal": 8576,
      "ĠState": 8577,
      "infor": 8578,
      "Ġsufficiently": 8579,
      "Ġpesticides": 8580,
      "ĠEnglish": 8581,
      "Ġpoli": 8582,
      "ĠIniti": 8583,
      "KO": 8584,
      "ele": 8585,
      "Ġfoot": 8586,
      "ĠSix": 8587,
      "ayer": 8588,
      "Ġcalls": 8589,
      "Ġlimb": 8590,
      "ophilic": 8591,
      "Ġdental": 8592,
      "urity": 8593,
      "ĠAct": 8594,
      "meaabaqaciaacaGaaeqabaqabeGadaaakeaa": 8595,
      "Ġchecked": 8596,
      "oplast": 8597,
      "Ġinsights": 8598,
      "Ġabsorb": 8599,
      "Ġlifestyle": 8600,
      "Ġhelix": 8601,
      "Ġcomplicated": 8602,
      "gabaG": 8603,
      "ĠMut": 8604,
      "Ġmodulation": 8605,
      "Ġnom": 8606,
      "graph": 8607,
      "Ġentries": 8608,
      "Ġattached": 8609,
      "Ġcircles": 8610,
      "Ġhighlight": 8611,
      "Ġ98": 8612,
      "Ġembedded": 8613,
      "Ġlif": 8614,
      "Ġvacu": 8615,
      "Ġaberr": 8616,
      "aaSbaaSqaaiab": 8617,
      "Ġregistered": 8618,
      "Rad": 8619,
      "score": 8620,
      "ĠNE": 8621,
      "species": 8622,
      "ĠMann": 8623,
      "prot": 8624,
      "Ġvide": 8625,
      "esides": 8626,
      "rovers": 8627,
      "hr": 8628,
      "rew": 8629,
      "ĠTest": 8630,
      "Ġideal": 8631,
      "Ġdifferentiate": 8632,
      "Ġoffic": 8633,
      "eries": 8634,
      "Ġimmunost": 8635,
      "Ġoccasion": 8636,
      "Des": 8637,
      "Ġobjects": 8638,
      "Ġanch": 8639,
      "AIDS": 8640,
      "gluc": 8641,
      "Ġsupervised": 8642,
      "ĠAnal": 8643,
      "ĠOnce": 8644,
      "cells": 8645,
      "ĠGR": 8646,
      "Ġregarded": 8647,
      "ĠSTAT": 8648,
      "Ġmicrobial": 8649,
      "ĠART": 8650,
      "Ġthermal": 8651,
      "Ġexogenous": 8652,
      "ump": 8653,
      "Ġmodern": 8654,
      "Ġsynth": 8655,
      "arp": 8656,
      "Ġapplicable": 8657,
      "Ġoocytes": 8658,
      "Ġoperating": 8659,
      "Ġconnectivity": 8660,
      "Ġpulse": 8661,
      "Ġillustrates": 8662,
      "ĠComparison": 8663,
      "Ġmi": 8664,
      "Ġdistrict": 8665,
      "Ġtun": 8666,
      "Ġregimen": 8667,
      "NI": 8668,
      "ille": 8669,
      "ĠGeneral": 8670,
      "rig": 8671,
      "ochrome": 8672,
      "Ġconservative": 8673,
      "Ġoverexp": 8674,
      "150": 8675,
      "relation": 8676,
      "Ġintended": 8677,
      "Ġconsultation": 8678,
      "SO": 8679,
      "Ġfly": 8680,
      "roscler": 8681,
      "En": 8682,
      "comp": 8683,
      "Ġsuspension": 8684,
      "ĠSequence": 8685,
      "Ġresol": 8686,
      "Ġprokary": 8687,
      "Ġindication": 8688,
      "ĠDiagn": 8689,
      "Ġprinciples": 8690,
      "aemOAa": 8691,
      "omat": 8692,
      "ĠMac": 8693,
      "Ġdigested": 8694,
      "Per": 8695,
      "ĠET": 8696,
      "Ġreconstruc": 8697,
      "Ġneighborhood": 8698,
      "Ġsuperfamily": 8699,
      "ATP": 8700,
      "Ġsuspected": 8701,
      "ouis": 8702,
      "cqaIXaqm": 8703,
      "osity": 8704,
      "Ġexec": 8705,
      "Ġcompati": 8706,
      "plex": 8707,
      "ĠThose": 8708,
      "Ġentirely": 8709,
      "Using": 8710,
      "ĠPharm": 8711,
      "ĠOP": 8712,
      "ĠChinese": 8713,
      "etherlands": 8714,
      "left": 8715,
      "ĠTRP": 8716,
      "ĠHist": 8717,
      "Ġbiopsies": 8718,
      "Ġdiscontin": 8719,
      "Ġassisted": 8720,
      "Ġanalytical": 8721,
      "Ic": 8722,
      "ĠPearson": 8723,
      "Ġadjuvant": 8724,
      "Ġcoordinates": 8725,
      "Ġworldwide": 8726,
      "ience": 8727,
      "Ġretina": 8728,
      "ĠNeu": 8729,
      "ĠGM": 8730,
      "Ġdimer": 8731,
      "Ġfixation": 8732,
      "Ġ67": 8733,
      "Ġ293": 8734,
      "Ġesc": 8735,
      "Ġreflecting": 8736,
      "Ġmutated": 8737,
      "wenty": 8738,
      "Ġpesticide": 8739,
      "Ag": 8740,
      "Ġwant": 8741,
      "Ġ59": 8742,
      "ĠNetherlands": 8743,
      "Ġaid": 8744,
      "ĠHIF": 8745,
      "Ġdepicted": 8746,
      "Ġthreat": 8747,
      "ewise": 8748,
      "Ġfif": 8749,
      "ĠTw": 8750,
      "Ġquickly": 8751,
      "HV": 8752,
      "acill": 8753,
      "Ġconcentrated": 8754,
      "Ġdensities": 8755,
      "Ġcommunic": 8756,
      "ĠAppro": 8757,
      "600": 8758,
      "augh": 8759,
      "Ġdot": 8760,
      "panic": 8761,
      "ĠcDNAs": 8762,
      "Ġvolunteers": 8763,
      "Ġdivergent": 8764,
      "Ġpremature": 8765,
      "rometry": 8766,
      "mented": 8767,
      "Ġattributable": 8768,
      "ĠmtDNA": 8769,
      "ĠHC": 8770,
      "ĠGag": 8771,
      "Ġlifetime": 8772,
      "ĠÏĩ": 8773,
      "Ġglutamate": 8774,
      "1000": 8775,
      "exist": 8776,
      "box": 8777,
      "Ġconcom": 8778,
      "Ġbiased": 8779,
      "Ġillustrate": 8780,
      "Ġsubsc": 8781,
      "Ġcomprising": 8782,
      "ĠNone": 8783,
      "Ġcohorts": 8784,
      "Ġagencies": 8785,
      "Ġtranslated": 8786,
      "Ġknockout": 8787,
      "Ġpercentages": 8788,
      "tte": 8789,
      "ĠâĢĺ": 8790,
      "Ġobese": 8791,
      "ĠHT": 8792,
      "ĠLC": 8793,
      "Bio": 8794,
      "dU": 8795,
      "ĠNH": 8796,
      "ĠSweden": 8797,
      "Ġmathematical": 8798,
      "ĠAlternatively": 8799,
      "ĠSARS": 8800,
      "Ġpercenti": 8801,
      "wal": 8802,
      "etus": 8803,
      "ĠICD": 8804,
      "Ġreferral": 8805,
      "xA": 8806,
      "iguous": 8807,
      "robial": 8808,
      "Ġemerged": 8809,
      "acerb": 8810,
      "orous": 8811,
      "Ġcontrovers": 8812,
      "aceutical": 8813,
      "Ġdiagram": 8814,
      "Ġapart": 8815,
      "Ġpeer": 8816,
      "Ġhazard": 8817,
      "water": 8818,
      "Ġ61": 8819,
      "Ġcaptured": 8820,
      "Ġhip": 8821,
      "Ġexactly": 8822,
      "itary": 8823,
      "Ġvenous": 8824,
      "cons": 8825,
      "Ġdeal": 8826,
      "Ġscenarios": 8827,
      "005": 8828,
      "ĠUp": 8829,
      "Ġpublications": 8830,
      "Ġhybridized": 8831,
      "2000": 8832,
      "ĠSystems": 8833,
      "ĠLTR": 8834,
      "Ġpathogenic": 8835,
      "Ġstret": 8836,
      "ompass": 8837,
      "Ġaliqu": 8838,
      "ptomatic": 8839,
      "Ġoperon": 8840,
      "Ġpolymorphic": 8841,
      "rele": 8842,
      "Ġworse": 8843,
      "Bl": 8844,
      "Ġlimiting": 8845,
      "Ġaggregation": 8846,
      "Ġstochastic": 8847,
      "Ġovercome": 8848,
      "Ġsmear": 8849,
      "Ġdefining": 8850,
      "Ġconstitute": 8851,
      "ĠTax": 8852,
      "oline": 8853,
      "opathic": 8854,
      "Ġbiotin": 8855,
      "Of": 8856,
      "ĠcAMP": 8857,
      "step": 8858,
      "PH": 8859,
      "fa": 8860,
      "pat": 8861,
      "Ġ1991": 8862,
      "rocyte": 8863,
      "ester": 8864,
      "process": 8865,
      "ĠcM": 8866,
      "ĠPe": 8867,
      "ilst": 8868,
      "Ġpromoting": 8869,
      "Ġyour": 8870,
      "ĠLouis": 8871,
      "Ġdendritic": 8872,
      "ĠFrance": 8873,
      "fusion": 8874,
      "using": 8875,
      "ĠRE": 8876,
      "Ġresponsiveness": 8877,
      "acqWF": 8878,
      "ureus": 8879,
      "ofluorescence": 8880,
      "ĠÏĦ": 8881,
      "Ġmeaningful": 8882,
      "leuk": 8883,
      "Ġwashing": 8884,
      "Ġfatigue": 8885,
      "ĠDevelop": 8886,
      "Ġpneumonia": 8887,
      "Ġsurfaces": 8888,
      "Ġsucrose": 8889,
      "urated": 8890,
      "Ġcloser": 8891,
      "aques": 8892,
      "uclear": 8893,
      "Ġimmunoblot": 8894,
      "Ġlac": 8895,
      "ĠIM": 8896,
      "ĠVir": 8897,
      "Ġhomes": 8898,
      "Ġdesired": 8899,
      "Another": 8900,
      "Ġdehydrogen": 8901,
      "Ġnotion": 8902,
      "ĠÎµ": 8903,
      "ĠÎ¸": 8904,
      "Ġmetabolite": 8905,
      "Ġworth": 8906,
      "Ġvein": 8907,
      "stolic": 8908,
      "rands": 8909,
      "Ġrotation": 8910,
      "Ġinten": 8911,
      "iabb": 8912,
      "yloid": 8913,
      "Ġfear": 8914,
      "ĠBas": 8915,
      "Ġabsorption": 8916,
      "Ġtubes": 8917,
      "ĠRespon": 8918,
      "Ġ97": 8919,
      "Ġfitted": 8920,
      "iabgkHiT": 8921,
      "Ġroutinely": 8922,
      "Sp": 8923,
      "Ġambient": 8924,
      "Ġwoman": 8925,
      "ama": 8926,
      "Ġencompass": 8927,
      "DC": 8928,
      "Ġproved": 8929,
      "Ġsynonymous": 8930,
      "caR": 8931,
      "Ġpage": 8932,
      "Ġagar": 8933,
      "aGaayzk": 8934,
      "Ġbeg": 8935,
      "ĠMo": 8936,
      "apol": 8937,
      "ĠGreen": 8938,
      "UbGB": 8939,
      "Ġfolding": 8940,
      "Ġdramatic": 8941,
      "Ġcortic": 8942,
      "Ġenvelope": 8943,
      "ya": 8944,
      "Data": 8945,
      "Ġpriority": 8946,
      "ĠWhat": 8947,
      "Ġassembled": 8948,
      "UcaR": 8949,
      "ĠNorthern": 8950,
      "ulph": 8951,
      "ago": 8952,
      "Ġoutpatient": 8953,
      "Ġgamma": 8954,
      "ĠMyc": 8955,
      "Ġdisplays": 8956,
      "ectives": 8957,
      "Ġhomeost": 8958,
      "Ġwidth": 8959,
      "ĠEF": 8960,
      "Ġprovider": 8961,
      "Ġharb": 8962,
      "hyp": 8963,
      "anges": 8964,
      "Ġpix": 8965,
      "Ġthin": 8966,
      "arial": 8967,
      "Ġdecided": 8968,
      "LOaGaayzk": 8969,
      "report": 8970,
      "ĠBSA": 8971,
      "Ġestimating": 8972,
      "domain": 8973,
      "Ġgenomics": 8974,
      "Ġexacerb": 8975,
      "mo": 8976,
      "arest": 8977,
      "odynamic": 8978,
      "Ġjoints": 8979,
      "orrect": 8980,
      "ĠRB": 8981,
      "Ġadditive": 8982,
      "kelet": 8983,
      "Ġaxons": 8984,
      "Ġfavour": 8985,
      "Ġnutrition": 8986,
      "Ġattempted": 8987,
      "ĠEquation": 8988,
      "Ġure": 8989,
      "Ġreinfor": 8990,
      "ĠPos": 8991,
      "Ġartificial": 8992,
      "ovirus": 8993,
      "Ġdrafting": 8994,
      "ĠDecember": 8995,
      "ĠTri": 8996,
      "ophosph": 8997,
      "Ġmobility": 8998,
      "acic": 8999,
      "romy": 9000,
      "requency": 9001,
      "Ġacademic": 9002,
      "Ġserial": 9003,
      "Ġpreferences": 9004,
      "Ġeventually": 9005,
      "Ġhepar": 9006,
      "Ġresponded": 9007,
      "Ġgirls": 9008,
      "Cell": 9009,
      "ĠGTP": 9010,
      "Ġaureus": 9011,
      "WT": 9012,
      "ĠIndex": 9013,
      "Ġvertebrates": 9014,
      "ĠMgCl": 9015,
      "Ġfinally": 9016,
      "ĠSl": 9017,
      "ĠRR": 9018,
      "inder": 9019,
      "Ġpromising": 9020,
      "Ġadjusting": 9021,
      "Ġmacrophage": 9022,
      "lux": 9023,
      "Ġepitopes": 9024,
      "Ġsupernatants": 9025,
      "hetical": 9026,
      "Ġdevices": 9027,
      "ĠMAPK": 9028,
      "Ġ(\"": 9029,
      "Ġultimately": 9030,
      "td": 9031,
      "Ġpromotion": 9032,
      "ĠNAD": 9033,
      "omestic": 9034,
      "Ġclassifier": 9035,
      "Ġduc": 9036,
      "vascular": 9037,
      "ĠRho": 9038,
      "Ġtestis": 9039,
      "Ġconnection": 9040,
      "omon": 9041,
      "ĠSB": 9042,
      "Ġsynaps": 9043,
      "ĠCaucas": 9044,
      "ĠTS": 9045,
      "Ġconj": 9046,
      "Ġranked": 9047,
      "Ġinnate": 9048,
      "Ġreagent": 9049,
      "ibilities": 9050,
      "bohydr": 9051,
      "ara": 9052,
      "Ġapical": 9053,
      "Ġmoving": 9054,
      "keep": 9055,
      "Ġorganized": 9056,
      "tiated": 9057,
      "Ġrehabilitation": 9058,
      "abase": 9059,
      "Ġdepartment": 9060,
      "del": 9061,
      "Ġfulf": 9062,
      "effective": 9063,
      "Ġvaginal": 9064,
      "yses": 9065,
      "Ġsystematically": 9066,
      "ococcal": 9067,
      "acuWG": 9068,
      "ĠEnvironmental": 9069,
      "Ã¯": 9070,
      "Gae": 9071,
      "ota": 9072,
      "ĠmmHg": 9073,
      "olin": 9074,
      "ĠFGF": 9075,
      "Ġspind": 9076,
      "Ġfungal": 9077,
      "Ġconcerned": 9078,
      "Ġring": 9079,
      "ĠThird": 9080,
      "served": 9081,
      "])": 9082,
      "endit": 9083,
      "Ġtermin": 9084,
      "Ġenzymatic": 9085,
      "sensitive": 9086,
      "Prot": 9087,
      "stained": 9088,
      "Ġprescribed": 9089,
      "Ġlocally": 9090,
      "baD": 9091,
      "oses": 9092,
      "standing": 9093,
      "Ġunexpected": 9094,
      "enign": 9095,
      "Ġchimpanz": 9096,
      "Ġswitch": 9097,
      "Ġstation": 9098,
      "Ġneurot": 9099,
      "ĠâĪ¼": 9100,
      "olid": 9101,
      "acaGLP": 9102,
      "Ġdepri": 9103,
[...]
