{
  "version": "1.0",
  "truncation": null,
  "padding": null,
  "added_tokens": [
    {
      "id": 0,
      "content": "[UNK]",
      "single_word": false,
      "lstrip": false,
      "rstrip": false,
      "normalized": false,
      "special": true
    },
    {
      "id": 1,
      "content": "[PAD]",
      "single_word": false,
      "lstrip": false,
      "rstrip": false,
      "normalized": false,
      "special": true
    },
    {
      "id": 2,
      "content": "[BOS]",
      "single_word": false,
      "lstrip": false,
      "rstrip": false,
      "normalized": false,
      "special": true
    },
    {
      "id": 3,
      "content": "[EOS]",
      "single_word": false,
      "lstrip": false,
      "rstrip": false,
      "normalized": false,
      "special": true
    }
  ],
  "normalizer": null,
  "pre_tokenizer": {
    "type": "ByteLevel",
    "add_prefix_space": false,
    "trim_offsets": true,
    "use_regex": true
  },
  "post_processor": null,
  "decoder": null,
  "model": {
    "type": "BPE",
    "dropout": null,
    "unk_token": "[UNK]",
    "continuing_subword_prefix": null,
    "end_of_word_suffix": null,
    "fuse_unk": false,
    "byte_fallback": false,
    "ignore_merges": false,
    "vocab": {
      "[UNK]": 0,
      "[PAD]": 1,
      "[BOS]": 2,
      "[EOS]": 3,
      "!": 4,
      "\"": 5,
      "#": 6,
      "$": 7,
      "%": 8,
      "&": 9,
      "'": 10,
      "(": 11,
      ")": 12,
      "*": 13,
      "+": 14,
      ",": 15,
      "-": 16,
      ".": 17,
      "/": 18,
      "0": 19,
      "1": 20,
      "2": 21,
      "3": 22,
      "4": 23,
      "5": 24,
      "6": 25,
      "7": 26,
      "8": 27,
      "9": 28,
      ":": 29,
      ";": 30,
      "<": 31,
      "=": 32,
      ">": 33,
      "?": 34,
      "@": 35,
      "A": 36,
      "B": 37,
      "C": 38,
      "D": 39,
      "E": 40,
      "F": 41,
      "G": 42,
      "H": 43,
      "I": 44,
      "J": 45,
      "K": 46,
      "L": 47,
      "M": 48,
      "N": 49,
      "O": 50,
      "P": 51,
      "Q": 52,
      "R": 53,
      "S": 54,
      "T": 55,
      "U": 56,
      "V": 57,
      "W": 58,
      "X": 59,
      "Y": 60,
      "Z": 61,
      "[": 62,
      "\\": 63,
      "]": 64,
      "^": 65,
      "_": 66,
      "`": 67,
      "a": 68,
      "b": 69,
      "c": 70,
      "d": 71,
      "e": 72,
      "f": 73,
      "g": 74,
      "h": 75,
      "i": 76,
      "j": 77,
      "k": 78,
      "l": 79,
      "m": 80,
      "n": 81,
      "o": 82,
      "p": 83,
      "q": 84,
      "r": 85,
      "s": 86,
      "t": 87,
      "u": 88,
      "v": 89,
      "w": 90,
      "x": 91,
      "y": 92,
      "z": 93,
      "{": 94,
      "|": 95,
      "}": 96,
      "~": 97,
      "¡": 98,
      "¢": 99,
      "£": 100,
      "¤": 101,
      "¥": 102,
      "¦": 103,
      "§": 104,
      "¨": 105,
      "©": 106,
      "ª": 107,
      "«": 108,
      "¬": 109,
      "®": 110,
      "¯": 111,
      "°": 112,
      "±": 113,
      "²": 114,
      "³": 115,
      "´": 116,
      "µ": 117,
      "¶": 118,
      "·": 119,
      "¸": 120,
      "¹": 121,
      "º": 122,
      "»": 123,
      "¼": 124,
      "½": 125,
      "¾": 126,
      "¿": 127,
      "Â": 128,
      "Ã": 129,
      "Ä": 130,
      "Å": 131,
      "Æ": 132,
      "Ç": 133,
      "È": 134,
      "É": 135,
      "Ê": 136,
      "Ë": 137,
      "Ì": 138,
      "Î": 139,
      "Ï": 140,
      "Ð": 141,
      "Ñ": 142,
      "á": 143,
      "â": 144,
      "ã": 145,
      "è": 146,
      "ï": 147,
      "ð": 148,
      "Ġ": 149,
      "Ģ": 150,
      "ģ": 151,
      "Ĥ": 152,
      "ĥ": 153,
      "Ħ": 154,
      "ħ": 155,
      "Ĩ": 156,
      "ĩ": 157,
      "Ī": 158,
      "ī": 159,
      "Ĭ": 160,
      "ĭ": 161,
      "Į": 162,
      "į": 163,
      "İ": 164,
      "ı": 165,
      "Ĳ": 166,
      "ĳ": 167,
      "Ĵ": 168,
      "ĵ": 169,
      "Ķ": 170,
      "ķ": 171,
      "ĸ": 172,
      "Ĺ": 173,
      "ĺ": 174,
      "Ļ": 175,
      "ļ": 176,
      "Ľ": 177,
      "ľ": 178,
      "Ŀ": 179,
      "ŀ": 180,
      "Ł": 181,
      "ł": 182,
      "Ń": 183,
      "Ġt": 184,
      "Ġa": 185,
      "in": 186,
      "re": 187,
      "he": 188,
      "on": 189,
      "at": 190,
      "en": 191,
      "Ġthe": 192,
      "Ġo": 193,
      "Ġs": 194,
      "er": 195,
      "ed": 196,
      "Ġc": 197,
      "Ġp": 198,
      "es": 199,
      "al": 200,
      "Ġin": 201,
      "ti": 202,
      "Ġw": 203,
      "Ġof": 204,
      "or": 205,
      "Ġan": 206,
      "is": 207,
      "Ġf": 208,
      "an": 209,
      "Ġm": 210,
      "ro": 211,
      "it": 212,
      "Ġd": 213,
      "Ġb": 214,
      "Ġand": 215,
      "as": 216,
      "ic": 217,
      "ar": 218,
      "ing": 219,
      "ion": 220,
      "Ġre": 221,
      "le": 222,
      "Ġe": 223,
      "Ġto": 224,
      "ent": 225,
      "el": 226,
      "ation": 227,
      "us": 228,
      "Ġth": 229,
      "ec": 230,
      "om": 231,
      "Ġ(": 232,
      "ĠT": 233,
      "Ġn": 234,
      "Ġh": 235,
      "ac": 236,
      "ul": 237,
      "tion": 238,
      "ly": 239,
      "et": 240,
      "Ġg": 241,
      "os": 242,
      "ere": 243,
      "Ġl": 244,
      "id": 245,
      "ur": 246,
      "ol": 247,
      "im": 248,
      "ve": 249,
      "un": 250,
      "ith": 251,
      "ig": 252,
      "Ġfor": 253,
      "ot": 254,
      "Ġwith": 255,
      "Ġst": 256,
      "Ġcon": 257,
      "Ġpro": 258,
      "ce": 259,
      "res": 260,
      "il": 261,
      "if": 262,
      "ter": 263,
      "Ġis": 264,
      "Ġas": 265,
      "Ġex": 266,
      "ut": 267,
      "ow": 268,
      "ĠA": 269,
      "ĠThe": 270,
      "am": 271,
      "Ġthat": 272,
      "ab": 273,
      "Ġv": 274,
      "uc": 275,
      "Ġbe": 276,
      "od": 277,
      "ated": 278,
      "Ġal": 279,
      "um": 280,
      "ts": 281,
      "ĠI": 282,
      "Ġon": 283,
      "Ġ1": 284,
      "Ġwere": 285,
      "Ġwas": 286,
      "ĠC": 287,
      "st": 288,
      "ri": 289,
      "ĠS": 290,
      "qu": 291,
      "ir": 292,
      "oc": 293,
      "se": 294,
      "ver": 295,
      "ted": 296,
      "ain": 297,
      "Ġ.": 298,
      "ity": 299,
      "ell": 300,
      "ud": 301,
      "ate": 302,
      "rom": 303,
      "tic": 304,
      "Ġby": 305,
      "her": 306,
      "Ġcom": 307,
      "ment": 308,
      "ati": 309,
      "Ġgen": 310,
      "Ġare": 311,
      "Ġr": 312,
      "op": 313,
      "Ġor": 314,
      "ĠP": 315,
      "ad": 316,
      "ag": 317,
      "ay": 318,
      "Ġse": 319,
      "th": 320,
      "Ġres": 321,
      "Ġac": 322,
      "Ġus": 323,
      "Ġexp": 324,
      "em": 325,
      "og": 326,
      "ure": 327,
      "Ġ2": 328,
      "ĠM": 329,
      "up": 330,
      "Ġfrom": 331,
      "Ġat": 332,
      "ĠH": 333,
      "ant": 334,
      "ess": 335,
      "ap": 336,
      "vel": 337,
      "Ġcomp": 338,
      "ĠF": 339,
      "ore": 340,
      "Ġde": 341,
      "Ġch": 342,
      "ress": 343,
      "Ġcell": 344,
      "te": 345,
      "ub": 346,
      "ical": 347,
      "ers": 348,
      "Ġwh": 349,
      "ies": 350,
      "00": 351,
      "ase": 352,
      "ist": 353,
      ").": 354,
      "ff": 355,
      "ĠD": 356,
      "ĠB": 357,
      "ran": 358,
      "ĠIn": 359,
      "Ġsh": 360,
      "ents": 361,
      "ine": 362,
      "pl": 363,
      "Ġinc": 364,
      "ign": 365,
      "pec": 366,
      "und": 367,
      "orm": 368,
      "Ġnot": 369,
      "Ġstud": 370,
      "ence": 371,
      "Ġcont": 372,
      "por": 373,
      "ug": 374,
      "Ġpre": 375,
      "igh": 376,
      "ĠE": 377,
      "ĠR": 378,
      "iz": 379,
      "ous": 380,
      "ations": 381,
      "ific": 382,
      "Ġle": 383,
      "Ġim": 384,
      "âĢ": 385,
      "di": 386,
      "Ġad": 387,
      "ys": 388,
      "Ġwe": 389,
      "yp": 390,
      "Ġthis": 391,
      "ther": 392,
      "Ġha": 393,
      "fere": 394,
      "ĠW": 395,
      "are": 396,
      "Ġhe": 397,
      "feren": 398,
      "Ġper": 399,
      "ĠN": 400,
      "est": 401,
      "duc": 402,
      "ib": 403,
      "Ġco": 404,
      "Ġdif": 405,
      "Ġen": 406,
      "ĠG": 407,
      "Ġne": 408,
      "ch": 409,
      "Ġhave": 410,
      "ved": 411,
      "Ġcl": 412,
      "act": 413,
      "iti": 414,
      "Ġass": 415,
      "ge": 416,
      "Ġ3": 417,
      "tions": 418,
      "and": 419,
      "Ġpar": 420,
      "rans": 421,
      "Ġinf": 422,
      "Ġdat": 423,
      "Ġap": 424,
      "ich": 425,
      "aa": 426,
      "Ġdis": 427,
      "Ġit": 428,
      "Ġint": 429,
      "),": 430,
      "able": 431,
      "ip": 432,
      "etw": 433,
      "Ġcan": 434,
      "ally": 435,
      "vi": 436,
      "enti": 437,
      "Ġdifferen": 438,
      "Ġpati": 439,
      "lec": 440,
      "ari": 441,
      "vid": 442,
      "Ġcells": 443,
      "ach": 444,
      "Ġanal": 445,
      "NA": 446,
      "ĠO": 447,
      "ome": 448,
      "ect": 449,
      "age": 450,
      "ens": 451,
      "Ġsign": 452,
      "Ġshow": 453,
      "Ġtrans": 454,
      "Ġ0": 455,
      "ary": 456,
      "ors": 457,
      "Ġinter": 458,
      "Ġreg": 459,
      "ost": 460,
      "enc": 461,
      "Ġwhich": 462,
      "tein": 463,
      "ph": 464,
      "Ġab": 465,
      "ression": 466,
      "ĠL": 467,
      "olog": 468,
      "ast": 469,
      "Ġgro": 470,
      "ding": 471,
      "een": 472,
      "Ġall": 473,
      "Ġob": 474,
      "Ġdi": 475,
      "Ġstudy": 476,
      "etween": 477,
      "Ġsub": 478,
      "ĠTh": 479,
      "pro": 480,
      "cri": 481,
      "Ġbetween": 482,
      "ue": 483,
      "Ġk": 484,
      "tiv": 485,
      "Ġcons": 486,
      "ance": 487,
      "Ġdata": 488,
      "Ġeff": 489,
      "Ġ5": 490,
      "ative": 491,
      "ong": 492,
      "ased": 493,
      "Ġwhe": 494,
      "our": 495,
      "Ġmod": 496,
      "ple": 497,
      "ates": 498,
      "ia": 499,
      "Ġprotein": 500,
      "Ġme": 501,
      "pt": 502,
      "Ġsy": 503,
      "ak": 504,
      "Ġthese": 505,
      "âĢĵ": 506,
      "Ġun": 507,
      "uld": 508,
      "pon": 509,
      "Ġmet": 510,
      "Ġstr": 511,
      "Ġpl": 512,
      "so": 513,
      "Ġrec": 514,
      "Ġpatients": 515,
      "ular": 516,
      "str": 517,
      "oci": 518,
      "dic": 519,
      "Ġsam": 520,
      "Ġanalys": 521,
      "Ġ=": 522,
      "Ġspec": 523,
      "ill": 524,
      "Ġresul": 525,
      "Ġ4": 526,
      "Ġdet": 527,
      "Ġgene": 528,
      "ied": 529,
      "Ġbeen": 530,
      "Ġsc": 531,
      "ose": 532,
      "all": 533,
      "wo": 534,
      "Ġused": 535,
      "erm": 536,
      "ory": 537,
      "ven": 538,
      "Ġalso": 539,
      "ugh": 540,
      "Ġpos": 541,
      "val": 542,
      "tim": 543,
      "Ġrel": 544,
      "ep": 545,
      "Ġph": 546,
      "reat": 547,
      "Ġother": 548,
      "end": 549,
      "Ġusing": 550,
      "Ġthan": 551,
      "Ġam": 552,
      "ight": 553,
      "ear": 554,
      "Ġhas": 555,
      "ely": 556,
      "ree": 557,
      "tive": 558,
      "Ġpres": 559,
      "form": 560,
      "rol": 561,
      "tr": 562,
      "Ġsequ": 563,
      "Ġy": 564,
      "port": 565,
      "lud": 566,
      "Ġlevel": 567,
      "Ġgenes": 568,
      "ĠU": 569,
      "Ġtwo": 570,
      "Ġsignific": 571,
      "ound": 572,
      "ren": 573,
      "Ġmore": 574,
      "Ġmay": 575,
      "Ġgroup": 576,
      "Ġvari": 577,
      "Ġdes": 578,
      "ual": 579,
      "Ġincre": 580,
      "ĠÎ": 581,
      "unc": 582,
      "Ġcor": 583,
      "Ġexpression": 584,
      "ber": 585,
      "Ġqu": 586,
      "Ġnum": 587,
      "ĠThis": 588,
      "Ġ,": 589,
      "ial": 590,
      "alth": 591,
      "Ġtheir": 592,
      "ass": 593,
      "uch": 594,
      "ĠWe": 595,
      "oth": 596,
      "ulation": 597,
      "ath": 598,
      "tional": 599,
      "Ġeach": 600,
      "ility": 601,
      "Ġsignificant": 602,
      "ected": 603,
      "Ġacc": 604,
      "out": 605,
      "Ġpr": 606,
      "oll": 607,
      "Ġid": 608,
      "ser": 609,
      "Ġman": 610,
      "ases": 611,
      "Ġno": 612,
      "Ġtr": 613,
      "Ġactiv": 614,
      "Ġanalysis": 615,
      "Ġone": 616,
      "ew": 617,
      "aus": 618,
      "ard": 619,
      "Ġpo": 620,
      "ever": 621,
      "Ġbut": 622,
      "ues": 623,
      "Ġtim": 624,
      "one": 625,
      "Ġsim": 626,
      "tain": 627,
      "Ġmodel": 628,
      "fter": 629,
      "Ġar": 630,
      "Ġhigh": 631,
      "Ġmic": 632,
      "Ġinv": 633,
      "Ġrespon": 634,
      "Ġinclud": 635,
      "Ġanti": 636,
      "ail": 637,
      "Ġval": 638,
      "ype": 639,
      "Ġrep": 640,
      "iss": 641,
      "ive": 642,
      "Ġover": 643,
      "Ġdist": 644,
      "Ġout": 645,
      "ution": 646,
      "ects": 647,
      "entif": 648,
      "Ġsur": 649,
      "Ġmeth": 650,
      "ges": 651,
      "tal": 652,
      "Ġassoci": 653,
      "Ġcontrol": 654,
      "rib": 655,
      "ating": 656,
      "ined": 657,
      "ures": 658,
      "Ġdifferent": 659,
      "Ġpartic": 660,
      "yl": 661,
      "ik": 662,
      "Ġfact": 663,
      "Ġnumber": 664,
      "Ġboth": 665,
      "Ġund": 666,
      "Ġhealth": 667,
      "ces": 668,
      "velop": 669,
      "mun": 670,
      "ite": 671,
      "Ġ6": 672,
      "vely": 673,
      "ood": 674,
      "ork": 675,
      "Ġfunc": 676,
      "ection": 677,
      "tern": 678,
      "ized": 679,
      "Ġonly": 680,
      "ould": 681,
      "Ġresults": 682,
      "Ġmed": 683,
      "ult": 684,
      "entr": 685,
      "ae": 686,
      "Ġag": 687,
      "Ġro": 688,
      "Ġbl": 689,
      "Ġcol": 690,
      "Ġappro": 691,
      "ays": 692,
      "Ġsp": 693,
      "cer": 694,
      "ments": 695,
      "ros": 696,
      "Ġstudies": 697,
      "Ġlow": 698,
      "ĠAl": 699,
      "ared": 700,
      "owever": 701,
      "Ġmo": 702,
      "ting": 703,
      "Ġobser": 704,
      "Ġthere": 705,
      "Ġmeas": 706,
      "ile": 707,
      "Ġsup": 708,
      "Ġdevelop": 709,
      "istic": 710,
      "Ġ10": 711,
      "Ġidentif": 712,
      "stem": 713,
      "ered": 714,
      "ons": 715,
      "red": 716,
      "Ġexper": 717,
      "rap": 718,
      "Ġsuch": 719,
      "Ġour": 720,
      "uring": 721,
      "rec": 722,
      "de": 723,
      "Ġhad": 724,
      "Ġ200": 725,
      "ide": 726,
      "hes": 727,
      "hed": 728,
      "cess": 729,
      "Ġfound": 730,
      "Ġunder": 731,
      "Ġafter": 732,
      "yt": 733,
      "der": 734,
      "Ġindic": 735,
      "les": 736,
      "als": 737,
      "Ġtreat": 738,
      "Ġgener": 739,
      "ox": 740,
      "ogen": 741,
      "ech": 742,
      "ack": 743,
      "Ġchan": 744,
      "gen": 745,
      "Ġbi": 746,
      "Ġcomple": 747,
      "Ġtime": 748,
      "ants": 749,
      "Ġmethod": 750,
      "ollow": 751,
      "Ġperform": 752,
      "acter": 753,
      "gr": 754,
      "Ġuse": 755,
      "ions": 756,
      "Ġser": 757,
      "Ġdec": 758,
      "Ġexam": 759,
      "Ġprob": 760,
      "duced": 761,
      "inding": 762,
      "Ġet": 763,
      "ild": 764,
      "inal": 765,
      "Ġpresent": 766,
      "Ġcar": 767,
      "ĠV": 768,
      "uman": 769,
      "per": 770,
      "ism": 771,
      "ilar": 772,
      "arg": 773,
      "ici": 774,
      "Ġlevels": 775,
      "Ġshown": 776,
      "uct": 777,
      "ond": 778,
      "Ġset": 779,
      "Ġform": 780,
      "Ġrepor": 781,
      "Ġsug": 782,
      "Ġinto": 783,
      "Ġ7": 784,
      "Ġnon": 785,
      "ace": 786,
      "own": 787,
      "Ġfollow": 788,
      "Ġmost": 789,
      "lic": 790,
      "Ġsm": 791,
      "ible": 792,
      "lu": 793,
      "Ġconc": 794,
      "plic": 795,
      "ough": 796,
      "Ġdise": 797,
      "Ġsystem": 798,
      "rel": 799,
      "Ġloc": 800,
      "Ġpop": 801,
      "ause": 802,
      "Ġmin": 803,
      "cc": 804,
      "Ġ9": 805,
      "Ġprovid": 806,
      "ater": 807,
      "ition": 808,
      "ences": 809,
      "Ġthey": 810,
      "ob": 811,
      "Ġhuman": 812,
      "Ġtreatment": 813,
      "fore": 814,
      "Ġ19": 815,
      "Ġup": 816,
      "vious": 817,
      "Ġmut": 818,
      "ĠK": 819,
      "irst": 820,
      "ological": 821,
      "Ġes": 822,
      "'s": 823,
      "Ġsec": 824,
      "ok": 825,
      "Ġem": 826,
      "aining": 827,
      "ne": 828,
      "ĠFor": 829,
      "yc": 830,
      "Ġduring": 831,
      "hen": 832,
      "Ġdef": 833,
      "ization": 834,
      "itive": 835,
      "Ġinform": 836,
      "Ġwell": 837,
      "ark": 838,
      "atory": 839,
      "Ġits": 840,
      "Ġdr": 841,
      "crib": 842,
      "ans": 843,
      "Ġthree": 844,
      "ulated": 845,
      "Ġsimilar": 846,
      "ities": 847,
      "Ġmon": 848,
      "Ġyear": 849,
      "Ġwhen": 850,
      "Ġstat": 851,
      "ord": 852,
      "par": 853,
      "ains": 854,
      "ĠHowever": 855,
      "ody": 856,
      "Ġmeasure": 857,
      "old": 858,
      "cept": 859,
      "isk": 860,
      "Ġdo": 861,
      "Ġcould": 862,
      "Ġkn": 863,
      "Ġ8": 864,
      "ucle": 865,
      "Ġwhere": 866,
      "Ġindi": 867,
      "ability": 868,
      "ix": 869,
      "Ġaddi": 870,
      "ale": 871,
      "Ġobserved": 872,
      "Ġdeterm": 873,
      "Ġexperim": 874,
      "ym": 875,
      "Ġrem": 876,
      "osis": 877,
      "Ġhig": 878,
      "iv": 879,
      "pos": 880,
      "Ġproteins": 881,
      "Ġsome": 882,
      "Ġwho": 883,
      "Ġtest": 884,
      "ines": 885,
      "hem": 886,
      "action": 887,
      "ric": 888,
      "Ġprim": 889,
      "crip": 890,
      "Ġbec": 891,
      "arch": 892,
      "til": 893,
      "Ġsequence": 894,
      "urther": 895,
      "Ġcompared": 896,
      "hib": 897,
      "Ġwithin": 898,
      "Ġma": 899,
      "Ġclin": 900,
      "Ġreported": 901,
      "tit": 902,
      "ature": 903,
      "ination": 904,
      "vidual": 905,
      "Ġfirst": 906,
      "ently": 907,
      "br": 908,
      "Ġimport": 909,
      "Ġpath": 910,
      "Ġassociated": 911,
      "10": 912,
      "oun": 913,
      "Ġwill": 914,
      "ĠDNA": 915,
      "Ġprevious": 916,
      "Ġthose": 917,
      "ize": 918,
      "fer": 919,
      "Ġpredic": 920,
      "ormal": 921,
      "Ġselec": 922,
      "ĠÎ¼": 923,
      "duction": 924,
      "Ġactivity": 925,
      "Ġsampl": 926,
      "Ġstruct": 927,
      "Ġend": 928,
      "Ġposs": 929,
      "CR": 930,
      "qui": 931,
      "Ġrepres": 932,
      "mon": 933,
      "Ġhyp": 934,
      "rough": 935,
      "ai": 936,
      "Ġ\"": 937,
      "Ġspecific": 938,
      "Ġev": 939,
      "ium": 940,
      "ology": 941,
      "Ġdisease": 942,
      "ery": 943,
      "ĠAs": 944,
      "ĠAn": 945,
      "ten": 946,
      "Ġindividual": 947,
      "ited": 948,
      "Ġdescrib": 949,
      "Ġrisk": 950,
      "ency": 951,
      "Ġtum": 952,
      "Ġeffect": 953,
      "Ġfr": 954,
      "tained": 955,
      "ĠThese": 956,
      "Ġexpos": 957,
      "Ġsame": 958,
      "RNA": 959,
      "aq": 960,
      "Ġinformation": 961,
      "Ġcompar": 962,
      "Ġconf": 963,
      "Ġocc": 964,
      "Ġmul": 965,
      "Ġop": 966,
      "Ġlik": 967,
      "Ġperformed": 968,
      "Ġapp": 969,
      "ise": 970,
      "ĠFig": 971,
      "amm": 972,
      "ential": 973,
      "Ġprocess": 974,
      "xim": 975,
      "ind": 976,
      "ĠIt": 977,
      "vers": 978,
      "Ġdem": 979,
      "ores": 980,
      "Ġrespec": 981,
      "Ġparticip": 982,
      "its": 983,
      "Ġconsid": 984,
      "Ġage": 985,
      "Ġestim": 986,
      "ust": 987,
      "Ġaut": 988,
      "tively": 989,
      "Ġwould": 990,
      "vir": 991,
      "Ġso": 992,
      "ites": 993,
      "Ġsyn": 994,
      "Ġsequences": 995,
      "atic": 996,
      "agn": 997,
      "urren": 998,
      "pit": 999,
      "Ġpot": 1000,
      "ational": 1001,
      "ically": 1002,
      "Ġthrough": 1003,
      "Ġgroups": 1004,
      "Ġcancer": 1005,
      "Ġfunction": 1006,
      "Ġhigher": 1007,
      "Ġpopulation": 1008,
      "anc": 1009,
      "Ġwork": 1010,
      "Ġbased": 1011,
      "alc": 1012,
      "Ġimmun": 1013,
      "ressed": 1014,
      "Ġamong": 1015,
      "Ġvir": 1016,
      "ages": 1017,
      "Ġincreased": 1018,
      "Ġconcentr": 1019,
      "Ġeffects": 1020,
      "ink": 1021,
      "rect": 1022,
      "Ġmem": 1023,
      "adi": 1024,
      "omes": 1025,
      "ute": 1026,
      "Ġtiss": 1027,
      "Ġassess": 1028,
      "gan": 1029,
      "Ġrese": 1030,
      "aG": 1031,
      "Ġav": 1032,
      "ex": 1033,
      "air": 1034,
      "Ġinvol": 1035,
      "Ġj": 1036,
      "Ġdisc": 1037,
      "Ġclass": 1038,
      "Ġdep": 1039,
      "Ġchar": 1040,
      "tical": 1041,
      "Ġany": 1042,
      "led": 1043,
      "Ġind": 1044,
      "Ġgl": 1045,
      "ĠTo": 1046,
      "ake": 1047,
      "requ": 1048,
      "ort": 1049,
      "Ġresponse": 1050,
      "Ġabout": 1051,
      "onstr": 1052,
      "Ġ<": 1053,
      "ft": 1054,
      "Ġcondi": 1055,
      "ified": 1056,
      "ves": 1057,
      "Ġimportant": 1058,
      "though": 1059,
      "Ġrepresent": 1060,
      "other": 1061,
      "Ġran": 1062,
      "ĠThere": 1063,
      "view": 1064,
      "Ġcoun": 1065,
      "tig": 1066,
      "raph": 1067,
      "endent": 1068,
      "Ġrate": 1069,
      "ock": 1070,
      "Ġyears": 1071,
      "ron": 1072,
      "Ġfactors": 1073,
      "ived": 1074,
      "Ġtranscrip": 1075,
      "Ġphys": 1076,
      "Ġpat": 1077,
      "ĠJ": 1078,
      "Ġcare": 1079,
      "Ġsamples": 1080,
      "Ġsmall": 1081,
      "Ġtotal": 1082,
      "lis": 1083,
      "Ġcorrel": 1084,
      "Ġdid": 1085,
      "ma": 1086,
      "Ġgrow": 1087,
      "Ġmulti": 1088,
      "ately": 1089,
      "int": 1090,
      "Ġidentified": 1091,
      "Ġnucle": 1092,
      "ade": 1093,
      "med": 1094,
      "Ġins": 1095,
      "ĠSt": 1096,
      "Ġdom": 1097,
      "Ġfe": 1098,
      "Ġif": 1099,
      "Ġnormal": 1100,
      "valu": 1101,
      "Ġ[": 1102,
      "ene": 1103,
      "Ġthen": 1104,
      "Ġsignificantly": 1105,
      "ian": 1106,
      "Ġchild": 1107,
      "arge": 1108,
      "Ġcases": 1109,
      "Ġdescribed": 1110,
      "Ġinhib": 1111,
      "oid": 1112,
      "lym": 1113,
      "Â°": 1114,
      "Ġmice": 1115,
      "Ġclinical": 1116,
      "Ġext": 1117,
      "ural": 1118,
      "ained": 1119,
      "Ġpatient": 1120,
      "ateg": 1121,
      "Ġrequi": 1122,
      "reated": 1123,
      "Ġvalues": 1124,
      "Ġdistrib": 1125,
      "Ġfam": 1126,
      "Ġfrequ": 1127,
      "Ġshowed": 1128,
      "Ġaff": 1129,
      "omen": 1130,
      "ypes": 1131,
      "arly": 1132,
      "Ġbecause": 1133,
      "iqu": 1134,
      "Ġcharacter": 1135,
      "Ġmicro": 1136,
      "Ġsubj": 1137,
      "inc": 1138,
      "000": 1139,
      "Ġdesign": 1140,
      "Ġmark": 1141,
      "Ġbas": 1142,
      "arget": 1143,
      "ving": 1144,
      "ingle": 1145,
      "olution": 1146,
      "âĪ": 1147,
      "Ġdevelopment": 1148,
      "CA": 1149,
      "ĠCD": 1150,
      "art": 1151,
      "Ġevalu": 1152,
      "ha": 1153,
      "Ġline": 1154,
      "Ġsecond": 1155,
      "Ġmean": 1156,
      "Ġobtained": 1157,
      "Ġspecies": 1158,
      "andard": 1159,
      "Ġsever": 1160,
      "Ġprom": 1161,
      "cript": 1162,
      "Ġcalc": 1163,
      "Ġnew": 1164,
      "Ġregion": 1165,
      "Ġincrease": 1166,
      "Ġfl": 1167,
      "ice": 1168,
      "ie": 1169,
      "tif": 1170,
      "Ġdifferences": 1171,
      "ross": 1172,
      "Ġmat": 1173,
      "Ġneed": 1174,
      "iven": 1175,
      "Ġmain": 1176,
      "hel": 1177,
      "Ġtri": 1178,
      "Ġcyt": 1179,
      "Ġstatistic": 1180,
      "ither": 1181,
      ".,": 1182,
      "Ġantib": 1183,
      "Ġacid": 1184,
      "ĠFigure": 1185,
      "Ġincluding": 1186,
      "Ġsingle": 1187,
      "Ġpattern": 1188,
      "Ġpub": 1189,
      "Ġless": 1190,
      "uster": 1191,
      "Ġlim": 1192,
      "Ġavail": 1193,
      "Ġevid": 1194,
      "GF": 1195,
      "Ġdemonstr": 1196,
      "Ġshould": 1197,
      "omic": 1198,
      "reg": 1199,
      "ry": 1200,
      "amet": 1201,
      "gest": 1202,
      "ful": 1203,
      "%)": 1204,
      "IV": 1205,
      "Ġtes": 1206,
      "ouse": 1207,
      "ily": 1208,
      "Ġtarget": 1209,
      "ĠRNA": 1210,
      "over": 1211,
      "SA": 1212,
      "12": 1213,
      "Ġmor": 1214,
      "Ġcomplex": 1215,
      "Ġ20": 1216,
      "Ġimp": 1217,
      "Ġterm": 1218,
      "iod": 1219,
      "Ġlarge": 1220,
      "ĠâĢ": 1221,
      "Ġdue": 1222,
      "Ġ12": 1223,
      "Ġmemb": 1224,
      "Ġele": 1225,
      "ĠÂ": 1226,
      "respon": 1227,
      "Ġlead": 1228,
      "Ġrat": 1229,
      "Ġlong": 1230,
      "Ġexpl": 1231,
      "ĠAll": 1232,
      "rop": 1233,
      "Ġ199": 1234,
      "echan": 1235,
      "erg": 1236,
      "urrent": 1237,
      "ental": 1238,
      "iter": 1239,
      "iab": 1240,
      "Ġcase": 1241,
      "Ġsuggest": 1242,
      "oph": 1243,
      "Ġrespectively": 1244,
      "uff": 1245,
      "Ġorgan": 1246,
      "Ġstandard": 1247,
      "hip": 1248,
      "Ġaddition": 1249,
      "Ġmany": 1250,
      "jor": 1251,
      "Ġcomb": 1252,
      "Ġrespons": 1253,
      "Ġextr": 1254,
      "cent": 1255,
      "Ġexposure": 1256,
      "Ġinves": 1257,
      "Ġcult": 1258,
      "Ġbre": 1259,
      "verage": 1260,
      "spec": 1261,
      "Ġchanges": 1262,
      "Ġinvestig": 1263,
      "Ġpossible": 1264,
      "Ġfurther": 1265,
      "Ġblood": 1266,
      "Ġmechan": 1267,
      "ince": 1268,
      "Ġsample": 1269,
      "echn": 1270,
      "eng": 1271,
      "ependent": 1272,
      "Ġiniti": 1273,
      "Ġrole": 1274,
      "ra": 1275,
      "ification": 1276,
      "Ġsugges": 1277,
      "Ġmajor": 1278,
      "Ġresearch": 1279,
      "roph": 1280,
      "ness": 1281,
      "Ġdecre": 1282,
      "Ġcluster": 1283,
      "Ġpositive": 1284,
      "osph": 1285,
      "Ġfinding": 1286,
      "Ġdiagn": 1287,
      "Ġcommon": 1288,
      "ek": 1289,
      "Ġchrom": 1290,
      "ST": 1291,
      "Ġwhile": 1292,
      "Ġoccur": 1293,
      "50": 1294,
      "Ġques": 1295,
      "ording": 1296,
      "yz": 1297,
      "ality": 1298,
      "Ġlower": 1299,
      "Ġknown": 1300,
      "ĠUn": 1301,
      "Ġcle": 1302,
      "Ġcontr": 1303,
      "Ġresid": 1304,
      "Ġhist": 1305,
      "ms": 1306,
      "Ġmolec": 1307,
      "Ġavailable": 1308,
      "Ġprogr": 1309,
      "Ġseveral": 1310,
      "Ġfour": 1311,
      "Ġpe": 1312,
      "Ġrecept": 1313,
      "Ġexpressed": 1314,
      "av": 1315,
      "Ġsens": 1316,
      "Ġlikely": 1317,
      "ĠâĢĵ": 1318,
      "sequ": 1319,
      "ov": 1320,
      "Ġmal": 1321,
      "Ġincluded": 1322,
      "min": 1323,
      "Ġperiod": 1324,
      "Ġwomen": 1325,
      "Ġsites": 1326,
      "ective": 1327,
      "Ġeither": 1328,
      "Ġpresence": 1329,
      "Ġtype": 1330,
      "Ġmethods": 1331,
      "not": 1332,
      "Ġpart": 1333,
      "Ġcollec": 1334,
      "Ġevidence": 1335,
      "Ġproduc": 1336,
      "las": 1337,
      "usion": 1338,
      "cl": 1339,
      "ised": 1340,
      "Ġimpro": 1341,
      "Ġrelated": 1342,
      "Ġprof": 1343,
      "Ġvis": 1344,
      "Ġbinding": 1345,
      "way": 1346,
      "Ġfollowing": 1347,
      "actions": 1348,
      "Ġgenome": 1349,
      "Ġpreviously": 1350,
      "uted": 1351,
      "Ġcyc": 1352,
      "ray": 1353,
      "viron": 1354,
      "Ġhy": 1355,
      "ins": 1356,
      "ning": 1357,
      "Ġregions": 1358,
      "Ġpost": 1359,
      "Ġsignal": 1360,
      "aac": 1361,
      "Ġtissue": 1362,
      "ograph": 1363,
      "Ġsize": 1364,
      "Ġpotential": 1365,
      "ds": 1366,
      "ty": 1367,
      "otype": 1368,
      "Ġlab": 1369,
      "Ġvery": 1370,
      "ĠCh": 1371,
      "Ġgreat": 1372,
      "uce": 1373,
      "isms": 1374,
      "iel": 1375,
      "Ġprot": 1376,
      "cep": 1377,
      "Î±": 1378,
      "otic": 1379,
      "Ġlocal": 1380,
      "Ġchildren": 1381,
      "Ġconditions": 1382,
      "Ġbel": 1383,
      "reen": 1384,
      "ove": 1385,
      "con": 1386,
      "Ġallow": 1387,
      "Ġdrug": 1388,
      "Ġexample": 1389,
      "Ġwhether": 1390,
      "Ġabs": 1391,
      "Ġtherap": 1392,
      "Ġcr": 1393,
      "Ġpers": 1394,
      "Ġfactor": 1395,
      "ĠHIV": 1396,
      "lished": 1397,
      "Ġcap": 1398,
      "Ġparticular": 1399,
      "Ġstim": 1400,
      "AT": 1401,
      "Ġ30": 1402,
      "Ġgrowth": 1403,
      "CT": 1404,
      "NP": 1405,
      "andom": 1406,
      "ĠÂ±": 1407,
      "ung": 1408,
      "yn": 1409,
      "Ġgiven": 1410,
      "Ġrele": 1411,
      "ulations": 1412,
      "Ġanim": 1413,
      "ator": 1414,
      "arc": 1415,
      "ĠTable": 1416,
      "tide": 1417,
      "Ġconsist": 1418,
      "olic": 1419,
      "Ġwithout": 1420,
      "ually": 1421,
      "ospit": 1422,
      "Ġhom": 1423,
      "Ġdifferenti": 1424,
      "Ġinfection": 1425,
      "Ġcontrib": 1426,
      "PA": 1427,
      "ĠQ": 1428,
      "Ġstructure": 1429,
      "ish": 1430,
      "Ġtechn": 1431,
      "Ġmight": 1432,
      "Ġgenetic": 1433,
      "Ġel": 1434,
      "Ġisol": 1435,
      "Ġrandom": 1436,
      "ax": 1437,
      "Ġadd": 1438,
      "Ġphen": 1439,
      "11": 1440,
      "Ġcorrespon": 1441,
      "Ġtem": 1442,
      "Ġref": 1443,
      "Ġanalyz": 1444,
      "Ġgeneral": 1445,
      "Ġpromot": 1446,
      "Ġanalyses": 1447,
      "Ġleast": 1448,
      "vironment": 1449,
      "05": 1450,
      "nal": 1451,
      "Ġplas": 1452,
      "Ġsym": 1453,
      "Ġvalue": 1454,
      "Ġret": 1455,
      "erest": 1456,
      "Ġdistribution": 1457,
      "oma": 1458,
      "Ġsl": 1459,
      "Ġresult": 1460,
      "âĪĴ": 1461,
      "ours": 1462,
      "Ġatt": 1463,
      "Ġbr": 1464,
      "af": 1465,
      "Ġ15": 1466,
      "Ġcurrent": 1467,
      "Ġsite": 1468,
      "Ġagain": 1469,
      "Ġdirect": 1470,
      "Ġ100": 1471,
      "Ġcod": 1472,
      "Ġol": 1473,
      "round": 1474,
      "Ġcomparis": 1475,
      "ication": 1476,
      "ĠX": 1477,
      "Ġ50": 1478,
      "ced": 1479,
      "Ġorder": 1480,
      "Ġapproach": 1481,
      "Ġmodels": 1482,
      "aren": 1483,
      "ength": 1484,
      "erv": 1485,
      "AP": 1486,
      "GG": 1487,
      "Ġprac": 1488,
      "Ġrati": 1489,
      "Ġneg": 1490,
      "Ġprimary": 1491,
      "Ġauth": 1492,
      "Ġinvolved": 1493,
      "havi": 1494,
      "ÃĹ": 1495,
      "Ġcommun": 1496,
      "ĠIL": 1497,
      "icient": 1498,
      "Ġmultiple": 1499,
      "Ġdifference": 1500,
      "II": 1501,
      "ount": 1502,
      "co": 1503,
      "ata": 1504,
      "onal": 1505,
      "Ġ-": 1506,
      "eth": 1507,
      "Ġconsidered": 1508,
      "Ġexperiments": 1509,
      "Ġdays": 1510,
      "Ġequ": 1511,
      "ea": 1512,
      "Ġflu": 1513,
      "Ġlink": 1514,
      "Ġstrong": 1515,
      "Ġbeing": 1516,
      "Ġchange": 1517,
      "vant": 1518,
      "Ġinflu": 1519,
      "etwork": 1520,
      "Ġtumor": 1521,
      "Ġrelations": 1522,
      "Ġproble": 1523,
      "Ġaverage": 1524,
      "ensity": 1525,
      "ward": 1526,
      "Ġparamet": 1527,
      "Ġrecom": 1528,
      "Ġvers": 1529,
      "ĠAb": 1530,
      "Ġinj": 1531,
      "Ġrates": 1532,
      "Ġprogram": 1533,
      "ane": 1534,
      "Ġenc": 1535,
      "atively": 1536,
      "aem": 1537,
      "Ġmonth": 1538,
      "Ġregul": 1539,
      "Ġfunctional": 1540,
      "ull": 1541,
      "ĠPro": 1542,
      "Ġpair": 1543,
      "iver": 1544,
      "Î²": 1545,
      "ĠPCR": 1546,
      "Ġep": 1547,
      "Ġed": 1548,
      "ables": 1549,
      "err": 1550,
      "Ġmeasured": 1551,
      "Ġcaus": 1552,
      "ptom": 1553,
      "mit": 1554,
      "ĠOn": 1555,
      "Ġbehavi": 1556,
      "Ġoutc": 1557,
      "plement": 1558,
      "ino": 1559,
      "hesis": 1560,
      "zym": 1561,
      "based": 1562,
      "ists": 1563,
      "ick": 1564,
      "ision": 1565,
      "Ġfamily": 1566,
      "20": 1567,
      "ocyt": 1568,
      "ĠAlthough": 1569,
      "Ġ'": 1570,
      "specific": 1571,
      "Ġest": 1572,
      "lect": 1573,
      "erc": 1574,
      "Ġbefore": 1575,
      "Ġdetermined": 1576,
      "ĠHe": 1577,
      "ife": 1578,
      "Ġpri": 1579,
      "tis": 1580,
      "Ġpur": 1581,
      "ĠAd": 1582,
      "Ġchromos": 1583,
      "Ġbreast": 1584,
      "Ġdatab": 1585,
      "elf": 1586,
      "Ġidentify": 1587,
      "ang": 1588,
      "âĢĿ": 1589,
      "Ġrelationship": 1590,
      "Ġassociation": 1591,
      "itro": 1592,
      "Ġconstr": 1593,
      "Ġchem": 1594,
      "cq": 1595,
      "Ġi": 1596,
      "Ġindividuals": 1597,
      "ogn": 1598,
      "Ġnetwork": 1599,
      "Ġsubjects": 1600,
      "Ġgr": 1601,
      "Ġphosph": 1602,
      "ference": 1603,
      "Ġalle": 1604,
      "Ġexc": 1605,
      "Ġsupport": 1606,
      "Ġmanus": 1607,
      "Ġappear": 1608,
      "ĠY": 1609,
      "Ġeven": 1610,
      "Ġrelative": 1611,
      "Ġenvironment": 1612,
      "13": 1613,
      "AC": 1614,
      "15": 1615,
      "Ġweek": 1616,
      "Ġaccess": 1617,
      "Ġreve": 1618,
      "ĠOur": 1619,
      "sy": 1620,
      "Ġdel": 1621,
      "Ġ24": 1622,
      "see": 1623,
      "Ġvirus": 1624,
      "Ġdetected": 1625,
      "row": 1626,
      "Ġmanuscript": 1627,
      "app": 1628,
      "Ġabove": 1629,
      "Ġthem": 1630,
      "Ġorig": 1631,
      "ĠâĢľ": 1632,
      "Ġrange": 1633,
      "vention": 1634,
      "Ġreview": 1635,
      "Ġlo": 1636,
      "Ġhel": 1637,
      "ĠmRNA": 1638,
      "Ġprovide": 1639,
      "ably": 1640,
      "ogene": 1641,
      "Ġscore": 1642,
      "verse": 1643,
      "Ġcompon": 1644,
      "ĠEx": 1645,
      "Ġquan": 1646,
      "Ġvi": 1647,
      "ĠCom": 1648,
      "DNA": 1649,
      "Ġinhibit": 1650,
      "ier": 1651,
      "16": 1652,
      "Ġcontaining": 1653,
      "Ġhospit": 1654,
      "fic": 1655,
      "Ġsubs": 1656,
      "oss": 1657,
      "face": 1658,
      "Ġconfir": 1659,
      "Ġred": 1660,
      "Ġquestion": 1661,
      "Ġearly": 1662,
      "Ġaccording": 1663,
      "ĠRe": 1664,
      "Ġmen": 1665,
      "lamm": 1666,
      "line": 1667,
      "Ġfindings": 1668,
      "Ġtreated": 1669,
      "MP": 1670,
      "Ġshows": 1671,
      "Ġday": 1672,
      "Ġmetab": 1673,
      "ĠAm": 1674,
      "Ġhowever": 1675,
      "acy": 1676,
      "ĠThus": 1677,
      "aw": 1678,
      "Ġpublic": 1679,
      "rane": 1680,
      "Ġlarg": 1681,
      "Ġadj": 1682,
      "hy": 1683,
      "Ġprog": 1684,
      "14": 1685,
      "19": 1686,
      "asc": 1687,
      "Ġtranscription": 1688,
      "Ġrece": 1689,
      "WG": 1690,
      "medi": 1691,
      "Ġsepar": 1692,
      "Ġu": 1693,
      "to": 1694,
      "usc": 1695,
      "Ġagainst": 1696,
      "BP": 1697,
      "idence": 1698,
      "ĠFurther": 1699,
      "ules": 1700,
      "CC": 1701,
      "Ġrepe": 1702,
      "pre": 1703,
      "Ġneur": 1704,
      "eu": 1705,
      "Ġfem": 1706,
      "Ġculture": 1707,
      "lik": 1708,
      "Ġfib": 1709,
      "Ġdomain": 1710,
      "Ġsoci": 1711,
      "Ġconcentrations": 1712,
      "Ġvol": 1713,
      "Ġlength": 1714,
      "tid": 1715,
      "ield": 1716,
      "ml": 1717,
      "Ġder": 1718,
      "Ġselected": 1719,
      "asing": 1720,
      "ties": 1721,
      "ety": 1722,
      "eration": 1723,
      "Ġdeveloped": 1724,
      "Ġz": 1725,
      "Ġquality": 1726,
      "lation": 1727,
      "miss": 1728,
      "Ġhypot": 1729,
      "ension": 1730,
      "vere": 1731,
      "Ġnec": 1732,
      "och": 1733,
      "Ġarea": 1734,
      "Ġtherefore": 1735,
      "Ġadditional": 1736,
      "ways": 1737,
      "Ġanalyzed": 1738,
      "ĠCA": 1739,
      "Ġconcentration": 1740,
      "Ġdefined": 1741,
      "ĠCon": 1742,
      "ics": 1743,
      "ĠAt": 1744,
      "Ġalign": 1745,
      "Ġmouse": 1746,
      "Ġreport": 1747,
      "plied": 1748,
      "Ġactivation": 1749,
      "Ġreveal": 1750,
      "Ġhighly": 1751,
      "Ġdoes": 1752,
      "cop": 1753,
      "Ġintr": 1754,
      "Ġreduced": 1755,
      "ration": 1756,
      "irc": 1757,
      "Ġconduc": 1758,
      "ĠRes": 1759,
      "Ġbacter": 1760,
      "Ġsus": 1761,
      "Ġsurve": 1762,
      "plication": 1763,
      "Ġdemonstrated": 1764,
      "ĠÃĹ": 1765,
      "ands": 1766,
      "ended": 1767,
      "Ġnegative": 1768,
      "Ġcalculated": 1769,
      "Ġpercent": 1770,
      "els": 1771,
      "term": 1772,
      "Ġcontrast": 1773,
      "ators": 1774,
      "25": 1775,
      "18": 1776,
      "Ġmedical": 1777,
      "Ġsurvi": 1778,
      "arm": 1779,
      "Ġparticipants": 1780,
      "Ġrequired": 1781,
      "Ġreceptor": 1782,
      "Ġ16": 1783,
      "Ġenzym": 1784,
      "utes": 1785,
      "Ġfac": 1786,
      "tegr": 1787,
      "Ġampl": 1788,
      "Ġsymptom": 1789,
      "Ġ14": 1790,
      "ste": 1791,
      "Ġcorrelation": 1792,
      "of": 1793,
      "Ġgreater": 1794,
      "omet": 1795,
      "Ġcarri": 1796,
      "Ġindicated": 1797,
      "Ġknow": 1798,
      "ke": 1799,
      "Ġtak": 1800,
      "eric": 1801,
      "Ġcateg": 1802,
      "hold": 1803,
      "Ġbet": 1804,
      "Ġproced": 1805,
      "Ġprovided": 1806,
      "Ġill": 1807,
      "Ġhow": 1808,
      "ower": 1809,
      "Ġlines": 1810,
      "Ġdown": 1811,
      "vity": 1812,
      "Ġpap": 1813,
      "Ġprior": 1814,
      "Ġlung": 1815,
      "Ġinterest": 1816,
      "Ġevolution": 1817,
      "Ġfew": 1818,
      "ior": 1819,
      "Ġsour": 1820,
      "Ġpolym": 1821,
      "Ġdetermine": 1822,
      "Ġdeath": 1823,
      "Ġback": 1824,
      "pir": 1825,
      "Ġlack": 1826,
      "put": 1827,
      "Ġstatus": 1828,
      "Ġox": 1829,
      "ĠÎ²": 1830,
      "Ġcontin": 1831,
      "ocus": 1832,
      "sc": 1833,
      "ĠÎ¼g": 1834,
      "Ġweight": 1835,
      "Ġcharacteristic": 1836,
      "Ġresponses": 1837,
      "Ġapproxim": 1838,
      "Ġsmok": 1839,
      "xt": 1840,
      "Ġsince": 1841,
      "ling": 1842,
      "Ġfrequency": 1843,
      "stract": 1844,
      "Ġexpected": 1845,
      "ware": 1846,
      "Ġfil": 1847,
      "Ġalg": 1848,
      "ols": 1849,
      "atal": 1850,
      "Ġ18": 1851,
      "Ġcent": 1852,
      "Ġamino": 1853,
      "Ġvarious": 1854,
      "Ġhours": 1855,
      "Ġmonths": 1856,
      "Ġlife": 1857,
      "Ġpoly": 1858,
      "Ġact": 1859,
      "posed": 1860,
      "type": 1861,
      "ored": 1862,
      "ique": 1863,
      "inant": 1864,
      "ĠmM": 1865,
      "Ġpropor": 1866,
      "Ġcomparison": 1867,
      "Ġfive": 1868,
      "ĠBody": 1869,
      "Ġtra": 1870,
      "Ġassum": 1871,
      "Ġmade": 1872,
      "Ġtested": 1873,
      "utions": 1874,
      "ocytes": 1875,
      "Ġincub": 1876,
      "Ġerr": 1877,
      "ector": 1878,
      "Ġ13": 1879,
      "Ġratio": 1880,
      "AR": 1881,
      "ets": 1882,
      "Ġareas": 1883,
      "Ġstate": 1884,
      "Ġmg": 1885,
      "Ġacross": 1886,
      "ibility": 1887,
      "ints": 1888,
      "Ġoften": 1889,
      "Ġcontrols": 1890,
      "Ġresist": 1891,
      "Ġneu": 1892,
      "ĠSNP": 1893,
      "tt": 1894,
      "aW": 1895,
      "eline": 1896,
      "Ġunderst": 1897,
      "Ġserum": 1898,
      "Ġobserv": 1899,
      "Ġsex": 1900,
      "ule": 1901,
      "Ġsuc": 1902,
      "Ġthus": 1903,
      "Ġimprove": 1904,
      "ellular": 1905,
      "Ġselection": 1906,
      "PS": 1907,
      "Ġ25": 1908,
      "pr": 1909,
      "dom": 1910,
      "abe": 1911,
      "ner": 1912,
      "odies": 1913,
      "Ġgu": 1914,
      "CD": 1915,
      "Ġpresented": 1916,
      "uit": 1917,
      "LA": 1918,
      "Ġindicate": 1919,
      "Ġtypes": 1920,
      "Ġanimals": 1921,
      "Ġstep": 1922,
      "Ġtherapy": 1923,
      "atures": 1924,
      "Ġwild": 1925,
      "Ġpreval": 1926,
      "Ġloss": 1927,
      "inf": 1928,
      "ides": 1929,
      "bb": 1930,
      "orith": 1931,
      "ales": 1932,
      "activ": 1933,
      "orph": 1934,
      "Ġfinal": 1935,
      "Ġvalid": 1936,
      "Ġke": 1937,
      "Ġcirc": 1938,
      "Ġmusc": 1939,
      "Ġpoint": 1940,
      "Ġpep": 1941,
      "otypes": 1942,
      "Ġtimes": 1943,
      "ĠAbstract": 1944,
      "ĠWh": 1945,
      "aacq": 1946,
      "Ġradi": 1947,
      "Ġseen": 1948,
      "Ġexamined": 1949,
      "ĠBi": 1950,
      "Ġindependent": 1951,
      "bers": 1952,
      "Ġintegr": 1953,
      "acc": 1954,
      "Ġstrateg": 1955,
      "DH": 1956,
      "tality": 1957,
      "Ġâ": 1958,
      "Ġalthough": 1959,
      "Ġalgorith": 1960,
      "Ġsum": 1961,
      "Ġmaxim": 1962,
      "Ġconsider": 1963,
      "eff": 1964,
      "Ġwhereas": 1965,
      "ries": 1966,
      "Ġinclude": 1967,
      "uration": 1968,
      "ections": 1969,
      "Ġinteraction": 1970,
      "Ġstatistical": 1971,
      "Ġpatterns": 1972,
      "Ġsol": 1973,
      "ged": 1974,
      "Ġread": 1975,
      "Ġvariables": 1976,
      "Ġhere": 1977,
      "Ġ+": 1978,
      "Ġepit": 1979,
      "Ġantibody": 1980,
      "Ġproduction": 1981,
      "ĠCO": 1982,
      "itivity": 1983,
      "opt": 1984,
      "ether": 1985,
      "AS": 1986,
      "roup": 1987,
      "Ġextrac": 1988,
      "Ġlog": 1989,
      "related": 1990,
      "aps": 1991,
      "esis": 1992,
      "Ġaccur": 1993,
      "vr": 1994,
      "Ġoverall": 1995,
      "Ġestab": 1996,
      "Ġposition": 1997,
      "Ġrecord": 1998,
      "lymph": 1999,
      "Ġmotif": 2000,
      "versity": 2001,
      "Ġpopulations": 2002,
      "Ġdatabase": 2003,
      "Ġprol": 2004,
      "Ġmolecular": 2005,
      "Ġcount": 2006,
      "Ġdetect": 2007,
      "Ġbiological": 2008,
      "ĠZ": 2009,
      "Ġcorresponding": 2010,
      "Ġrecent": 2011,
      "Ġhospital": 2012,
      "Ġauthors": 2013,
      "ĠOne": 2014,
      "Ġdose": 2015,
      "BS": 2016,
      "Ġblock": 2017,
      "stan": 2018,
      "bry": 2019,
      "ronic": 2020,
      "ones": 2021,
      "Ġsynt": 2022,
      "Ġcriter": 2023,
      "Ġassay": 2024,
      "uss": 2025,
      "brid": 2026,
      "Ġreas": 2027,
      "ture": 2028,
      "Ġinflamm": 2029,
      "Ġpain": 2030,
      "30": 2031,
      "Ġparameters": 2032,
      "ĠEn": 2033,
      "ĠSc": 2034,
      "Ġbody": 2035,
      "Ġpracti": 2036,
      "jab": 2037,
      "Xd": 2038,
      "oy": 2039,
      "ems": 2040,
      "ustr": 2041,
      "Ġstrains": 2042,
      "Cs": 2043,
      "Ġconsistent": 2044,
      "ices": 2045,
      "Ġscreen": 2046,
      "Ġmortality": 2047,
      "40": 2048,
      "ga": 2049,
      "Ġfocus": 2050,
      "Ġscores": 2051,
      "mission": 2052,
      "Ġexperimental": 2053,
      "17": 2054,
      "uk": 2055,
      "Ġphysical": 2056,
      "qaa": 2057,
      "Ġhelp": 2058,
      "ople": 2059,
      "Ġ95": 2060,
      "Ġmutations": 2061,
      "Ġpredicted": 2062,
      "Ff": 2063,
      "Ġinteractions": 2064,
      "Ġver": 2065,
      "oring": 2066,
      "Ġfollowed": 2067,
      "ĠAfter": 2068,
      "Ġcur": 2069,
      "DS": 2070,
      "Ġpathway": 2071,
      "erved": 2072,
      "pri": 2073,
      "ĠHealth": 2074,
      "enced": 2075,
      "Ġfail": 2076,
      "mb": 2077,
      "ense": 2078,
      "Ġgenomic": 2079,
      "Ġmembrane": 2080,
      "Ġdetail": 2081,
      "Ġcollected": 2082,
      "TP": 2083,
      "Ġmuch": 2084,
      "Ġinduced": 2085,
      "AG": 2086,
      "Ġprec": 2087,
      "Ġsk": 2088,
      "Ġmicroar": 2089,
      "ame": 2090,
      "Ġphase": 2091,
      "minist": 2092,
      "Ġestimated": 2093,
      "sych": 2094,
      "Ġminim": 2095,
      "Ġsurg": 2096,
      "po": 2097,
      "ots": 2098,
      "abaq": 2099,
      "ledge": 2100,
      "like": 2101,
      "Ġlymph": 2102,
      "Ġexperi": 2103,
      "Ġdiagnos": 2104,
      "Ġmy": 2105,
      "Ġdatas": 2106,
      "till": 2107,
      "Ġshort": 2108,
      "Ġwater": 2109,
      "Ġheter": 2110,
      "Ġrevealed": 2111,
      "ĠTherefore": 2112,
      "tial": 2113,
      "Ġincreasing": 2114,
      "Ġserv": 2115,
      "Ġvariation": 2116,
      "Ġactive": 2117,
      "Ġeth": 2118,
      "trans": 2119,
      "rix": 2120,
      ");": 2121,
      "ĠMore": 2122,
      "Ġpress": 2123,
      "Ġenh": 2124,
      "Ġcentr": 2125,
      "ixed": 2126,
      "Ġdiagnosis": 2127,
      "helial": 2128,
      "Ġproper": 2129,
      "ĠÎ±": 2130,
      "Ġsurface": 2131,
      "ER": 2132,
      "Ġhyper": 2133,
      "me": 2134,
      "Ġcross": 2135,
      "ults": 2136,
      "%,": 2137,
      "Ġtemper": 2138,
      "Ġbrain": 2139,
      "ĠII": 2140,
      "Ġdoc": 2141,
      "BI": 2142,
      "ĠGen": 2143,
      "more": 2144,
      "ising": 2145,
      "dro": 2146,
      "Ġembry": 2147,
      "pression": 2148,
      "Ġur": 2149,
      "Ġsuggests": 2150,
      "ode": 2151,
      "Ġmass": 2152,
      "Ġconducted": 2153,
      "Ġmater": 2154,
      "vent": 2155,
      "lys": 2156,
      "ocy": 2157,
      "Ġte": 2158,
      "iving": 2159,
      "Ġterms": 2160,
      "Ġdispl": 2161,
      "Ġprevalence": 2162,
      "ascular": 2163,
      "Ġ11": 2164,
      "Ġlimit": 2165,
      "MT": 2166,
      "Ġdiffic": 2167,
      "Ġcomplete": 2168,
      "ĠAr": 2169,
      "Ġsymptoms": 2170,
      "Ġcarried": 2171,
      "Ġcardi": 2172,
      "ank": 2173,
      "oplas": 2174,
      "Ġpeople": 2175,
      "ĠCI": 2176,
      "ĠCl": 2177,
      "Ġsets": 2178,
      "Ġmeasures": 2179,
      "Ġgenerated": 2180,
      "Ġair": 2181,
      "Ġstress": 2182,
      "urn": 2183,
      "Ġstimul": 2184,
      "Ġbetter": 2185,
      "Ġsix": 2186,
      "any": 2187,
      "read": 2188,
      "ining": 2189,
      "Ġinitial": 2190,
      "Ġaltern": 2191,
      "tle": 2192,
      "Ġapproximately": 2193,
      "Ġsuper": 2194,
      "icity": 2195,
      "Ġsoft": 2196,
      "Ġunderstand": 2197,
      "Ġderived": 2198,
      "Ġstill": 2199,
      "inally": 2200,
      "Ġsurvival": 2201,
      "ask": 2202,
      "Ġinde": 2203,
      "Ġmutant": 2204,
      "ulin": 2205,
      "Ġrecogn": 2206,
      "fact": 2207,
      "Ġannot": 2208,
      "Ġparen": 2209,
      "Ġsystems": 2210,
      "NF": 2211,
      "Ġself": 2212,
      "Ġpaper": 2213,
      "Ġbar": 2214,
      "Ġreduction": 2215,
      "Ġcycle": 2216,
      "Ġbene": 2217,
      "otide": 2218,
      "Ġnumbers": 2219,
      "oles": 2220,
      "Ġlimited": 2221,
      "Ġfrag": 2222,
      "aff": 2223,
      "Ġabsence": 2224,
      "Ġcellular": 2225,
      "cin": 2226,
      "Ġhand": 2227,
      "Ġknowledge": 2228,
      "Ġmit": 2229,
      "Ġapplied": 2230,
      "Ġtop": 2231,
      "Ġtissues": 2232,
      "atin": 2233,
      "tides": 2234,
      "rim": 2235,
      "ram": 2236,
      "Ġsuccess": 2237,
      "ters": 2238,
      "Ġinterval": 2239,
      "Ġfamil": 2240,
      "Ġevents": 2241,
      "ĠWhen": 2242,
      "EF": 2243,
      "Ġconserved": 2244,
      "Ġsearch": 2245,
      "Ġ17": 2246,
      "Ġhistory": 2247,
      "01": 2248,
      "ĠSe": 2249,
      "Ġ>": 2250,
      "Ġleft": 2251,
      "Ġability": 2252,
      "urs": 2253,
      "Ġsuggested": 2254,
      "com": 2255,
      "hood": 2256,
      "Ġ40": 2257,
      "Ġnecess": 2258,
      "Ġlater": 2259,
      "Ġmedium": 2260,
      "ĠAddi": 2261,
      "ĠIf": 2262,
      "Ġsubsequ": 2263,
      "man": 2264,
      "Ġstrain": 2265,
      "Ġcharacteristics": 2266,
      "rial": 2267,
      "nai": 2268,
      "lor": 2269,
      "Ġrespond": 2270,
      "amin": 2271,
      "Ġexperiment": 2272,
      "Ġmarkers": 2273,
      "ify": 2274,
      "Ġeduc": 2275,
      "Ġresulting": 2276,
      "Ġmechanisms": 2277,
      "ject": 2278,
      "Ġstage": 2279,
      "ancy": 2280,
      "Ġsuff": 2281,
      "Ġregression": 2282,
      "Ġmembers": 2283,
      "cence": 2284,
      "we": 2285,
      "ption": 2286,
      "ially": 2287,
      "ĠFurthermore": 2288,
      "Ġsch": 2289,
      "Ġcop": 2290,
      "Ġimpact": 2291,
      "olar": 2292,
      "95": 2293,
      "ographic": 2294,
      "aneous": 2295,
      "Ġvolum": 2296,
      "Ġbaseline": 2297,
      "Ġadminist": 2298,
      "rob": 2299,
      "FP": 2300,
      "Ġlip": 2301,
      "001": 2302,
      "Ġexist": 2303,
      "Ġcommunity": 2304,
      "TR": 2305,
      "Ġdeg": 2306,
      "Ġoper": 2307,
      "Ġperformance": 2308,
      "hest": 2309,
      "encing": 2310,
      "Ġrather": 2311,
      "92": 2312,
      "ral": 2313,
      "Ġfeatures": 2314,
      "itud": 2315,
      "Ġcriteria": 2316,
      "Ġchronic": 2317,
      "Ġaffect": 2318,
      "ave": 2319,
      "Ġpromoter": 2320,
      "ĠcDNA": 2321,
      "Ġach": 2322,
      "ld": 2323,
      "Ġtox": 2324,
      "Ġmutation": 2325,
      "Ġtests": 2326,
      "induced": 2327,
      "onic": 2328,
      "apl": 2329,
      "Ġcri": 2330,
      "ibr": 2331,
      "Ġinterpre": 2332,
      "Ġstructures": 2333,
      "Ġvitro": 2334,
      "24": 2335,
      "MS": 2336,
      "Ġcategor": 2337,
      "100": 2338,
      "Ġcer": 2339,
      "Ġcontinu": 2340,
      "Ġrelatively": 2341,
      "Ġoptim": 2342,
      "Ġiss": 2343,
      "Ġanother": 2344,
      "Ġachie": 2345,
      "Ġassessed": 2346,
      "ream": 2347,
      "odes": 2348,
      "Ġtraining": 2349,
      "PCR": 2350,
      "Ġever": 2351,
      "Ġrecomb": 2352,
      "ings": 2353,
      "Ġclear": 2354,
      "Ġeffective": 2355,
      "Ġfat": 2356,
      "Ġviral": 2357,
      "Ġdecreased": 2358,
      "80": 2359,
      "Ġapopt": 2360,
      "Ġmedi": 2361,
      "ploy": 2362,
      "Ġimplement": 2363,
      "Ġfunctions": 2364,
      "Ġweeks": 2365,
      "fold": 2366,
      "isted": 2367,
      "ument": 2368,
      "Ġseg": 2369,
      "Ġantibodies": 2370,
      "ird": 2371,
      "Ġable": 2372,
      "Ġdetection": 2373,
      "Ġmetabol": 2374,
      "itions": 2375,
      "oz": 2376,
      "Ġthough": 2377,
      "Ġproportion": 2378,
      "Ġview": 2379,
      "Ġâī": 2380,
      "lying": 2381,
      "omal": 2382,
      "Ġmac": 2383,
      "Ġchromosome": 2384,
      "Ġhybrid": 2385,
      "Ġcause": 2386,
      "Ġversus": 2387,
      "Ġdiscuss": 2388,
      "ĠPh": 2389,
      "Ġmechanism": 2390,
      "Ġreaction": 2391,
      "abil": 2392,
      "Ġsal": 2393,
      "Ġphysici": 2394,
      "Ġsensitivity": 2395,
      "Ġkin": 2396,
      "Ġformation": 2397,
      "Ġdiseases": 2398,
      "Ġproblem": 2399,
      "Ġent": 2400,
      "Ġright": 2401,
      "priate": 2402,
      "ĠMed": 2403,
      "the": 2404,
      "ĠIm": 2405,
      "Ġmicros": 2406,
      "Ġmamm": 2407,
      "anced": 2408,
      "ressing": 2409,
      "Ġintervention": 2410,
      "Ġtrial": 2411,
      "Ġgo": 2412,
      "fe": 2413,
      "etes": 2414,
      "Ġrap": 2415,
      "tation": 2416,
      "Ġprotoc": 2417,
      "Ġadv": 2418,
      "TT": 2419,
      "Ġrestr": 2420,
      "Cl": 2421,
      "53": 2422,
      "Ġpairs": 2423,
      "aria": 2424,
      "Ġplace": 2425,
      "Ġcarcin": 2426,
      "Ġclos": 2427,
      "Ġviv": 2428,
      "Ġpressure": 2429,
      "Ġtemperature": 2430,
      "Ġproducts": 2431,
      "encies": 2432,
      "Ġtrials": 2433,
      "Ġvacc": 2434,
      "ochem": 2435,
      "Ġenvironmental": 2436,
      "gl": 2437,
      "RT": 2438,
      "MI": 2439,
      "ulate": 2440,
      "Ġstudied": 2441,
      "tib": 2442,
      "pe": 2443,
      "Ġliter": 2444,
      "ferred": 2445,
      "Ġoutcome": 2446,
      "Ġproduced": 2447,
      "Ġbelow": 2448,
      "Ġregulation": 2449,
      "Ġsurvey": 2450,
      "Ġreal": 2451,
      "Ġpower": 2452,
      "az": 2453,
      "ardi": 2454,
      "Ġpsych": 2455,
      "Ġtub": 2456,
      "Ġfull": 2457,
      "ev": 2458,
      "Ġpractice": 2459,
      "Ġepid": 2460,
      "Ġtyp": 2461,
      "Ġdistinc": 2462,
      "Ġsevere": 2463,
      "ĠER": 2464,
      "Ġsumm": 2465,
      "Ġprolif": 2466,
      "aae": 2467,
      "Ġelements": 2468,
      "Ġconcer": 2469,
      "Ġpoints": 2470,
      "uble": 2471,
      "Ġphyl": 2472,
      "Ġdecrease": 2473,
      "ogenesis": 2474,
      "amp": 2475,
      "aging": 2476,
      "Ġremo": 2477,
      "Ġess": 2478,
      "Ġscale": 2479,
      "Ġvisual": 2480,
      "Ġdomains": 2481,
      "mid": 2482,
      "Ġcost": 2483,
      "Ġmm": 2484,
      "Ġsoftware": 2485,
      "Ġexclud": 2486,
      "Ġmicroarray": 2487,
      "Ġbehavior": 2488,
      "Ġcountries": 2489,
      "Ġsuggesting": 2490,
      "omy": 2491,
      "Ġdirectly": 2492,
      "Ġlat": 2493,
      "Ġ60": 2494,
      "Ġinfected": 2495,
      "Ġcomponents": 2496,
      "21": 2497,
      "Ġdifficult": 2498,
      "Ġwor": 2499,
      "Ġresistance": 2500,
      "Ġquestionnai": 2501,
      "Ġcombination": 2502,
      "Ġir": 2503,
      "Ġutil": 2504,
      "ef": 2505,
      "dependent": 2506,
      "ĠSim": 2507,
      "Ġdim": 2508,
      "otyp": 2509,
      "Ġtransf": 2510,
      "Ġcontent": 2511,
      "Ġneurons": 2512,
      "Ġfile": 2513,
      "SP": 2514,
      "].": 2515,
      "arl": 2516,
      "Ġpathways": 2517,
      "Ġpoor": 2518,
      "Ġresidues": 2519,
      "27": 2520,
      "Ġfluores": 2521,
      "23": 2522,
      "agement": 2523,
      "Ġrequire": 2524,
      "Ġbest": 2525,
      "Ġreference": 2526,
      "Ġisolated": 2527,
      "Ġpredict": 2528,
      "itu": 2529,
      "Ġvia": 2530,
      "Ġinfluence": 2531,
      "Ġalgorithm": 2532,
      "ensive": 2533,
      "go": 2534,
      "ii": 2535,
      "RI": 2536,
      "ES": 2537,
      "Ġbir": 2538,
      "Ġpeak": 2539,
      "Ġsecondary": 2540,
      "inary": 2541,
      "AL": 2542,
      "Ġmust": 2543,
      "Ġconfirmed": 2544,
      "Ġdesigned": 2545,
      "Ġvivo": 2546,
      "ĠRT": 2547,
      "Ġsubstan": 2548,
      "active": 2549,
      "ectiv": 2550,
      "Ġwhole": 2551,
      "Ġliver": 2552,
      "Ġfit": 2553,
      "Ġimmune": 2554,
      "Ġpolymorph": 2555,
      "Ġtumors": 2556,
      "Ġgood": 2557,
      "ĠSince": 2558,
      "Ġmuscle": 2559,
      "urse": 2560,
      "Ġamount": 2561,
      "Ġflow": 2562,
      "Ġlarger": 2563,
      "yg": 2564,
      "Ġallele": 2565,
      "Ġstaining": 2566,
      "Ġprocesses": 2567,
      "for": 2568,
      "here": 2569,
      "ported": 2570,
      "ĠCa": 2571,
      "Ġlabor": 2572,
      "ury": 2573,
      "Ġestimates": 2574,
      "âĢĻ": 2575,
      "Ġfacil": 2576,
      "Ġtog": 2577,
      "Ġhem": 2578,
      "Ġclusters": 2579,
      "Ġintro": 2580,
      "Ġindicates": 2581,
      "Ġevaluated": 2582,
      "fr": 2583,
      "Ġconstruc": 2584,
      "izing": 2585,
      "Ġplay": 2586,
      "Ġtogether": 2587,
      "Ġsignaling": 2588,
      "Ġcall": 2589,
      "Ġadded": 2590,
      "ou": 2591,
      "Ġrapid": 2592,
      "Ġquantit": 2593,
      "Ġvariable": 2594,
      "Ġassessment": 2595,
      "ophil": 2596,
      "kn": 2597,
      "bq": 2598,
      "Ġaffected": 2599,
      "iological": 2600,
      "âĢ²": 2601,
      "Ġelect": 2602,
      "Ġfree": 2603,
      "Ġdele": 2604,
      "alf": 2605,
      "entially": 2606,
      "Ġcompos": 2607,
      "AA": 2608,
      "reshold": 2609,
      "Ġrecently": 2610,
      "Ġpublished": 2611,
      "Ġcondition": 2612,
      "Ġprovides": 2613,
      "eding": 2614,
      "Ġsignificance": 2615,
      "RF": 2616,
      "Ġoff": 2617,
      "Ġassign": 2618,
      "Ġproblems": 2619,
      "ient": 2620,
      "erative": 2621,
      "Ġrestric": 2622,
      "Ġhaving": 2623,
      "ĠUSA": 2624,
      "Ġtaken": 2625,
      "60": 2626,
      "Ġsocial": 2627,
      "oding": 2628,
      "ĠRec": 2629,
      "Ġmorph": 2630,
      "Ġnuclear": 2631,
      "Ġ2004": 2632,
      "Ġmeans": 2633,
      "RP": 2634,
      "Ġvs": 2635,
      "ns": 2636,
      "CS": 2637,
      "stream": 2638,
      "ked": 2639,
      "treated": 2640,
      "Ġdensity": 2641,
      "Ġexhib": 2642,
      "Ġvector": 2643,
      "cell": 2644,
      "ylation": 2645,
      "EM": 2646,
      "ĠTr": 2647,
      "Ls": 2648,
      "Ġhost": 2649,
      "Ġmale": 2650,
      "alys": 2651,
      "Ġprote": 2652,
      "Ġminutes": 2653,
      "Ġtesting": 2654,
      "pan": 2655,
      "Ġinstr": 2656,
      "Ġresour": 2657,
      "Ġ2003": 2658,
      "iting": 2659,
      "Ġprocedure": 2660,
      "ĠÏ": 2661,
      "Ġcytok": 2662,
      "Ġuseful": 2663,
      "Ġvolume": 2664,
      "Ġcoll": 2665,
      "Ġerror": 2666,
      "Ġstatistically": 2667,
      "Ġfamilies": 2668,
      "Ġx": 2669,
      "Ġparas": 2670,
      "Ġgluc": 2671,
      "Ġbuff": 2672,
      "dc": 2673,
      "Ġappropriate": 2674,
      "Ġdisplay": 2675,
      "ital": 2676,
      "aged": 2677,
      "Ġ37": 2678,
      "ĠBec": 2679,
      "Ġdepend": 2680,
      "Ġmak": 2681,
      "Ġmonit": 2682,
      "lex": 2683,
      "Ġprofil": 2684,
      "Ġevaluation": 2685,
      "Ġhypothesis": 2686,
      "ground": 2687,
      "Ġrelevant": 2688,
      "roc": 2689,
      "otherap": 2690,
      "Ġpul": 2691,
      "ĠThey": 2692,
      "rome": 2693,
      "Ġway": 2694,
      "Ġlig": 2695,
      "Ġestimate": 2696,
      "vari": 2697,
      "Ġconsum": 2698,
      "Ġrats": 2699,
      "Ġbenef": 2700,
      "Ġplasma": 2701,
      "iciency": 2702,
      "Ġsplic": 2703,
      "Ġconn": 2704,
      "Ġreceptors": 2705,
      "Ġtoward": 2706,
      "Ġles": 2707,
      "aries": 2708,
      "semb": 2709,
      "abetes": 2710,
      "Ġincubated": 2711,
      "Ġrecomm": 2712,
      "Ġliterature": 2713,
      "Ġincreases": 2714,
      "Ġrecr": 2715,
      "Ġkey": 2716,
      "Ġpercentage": 2717,
      "agen": 2718,
      "aced": 2719,
      "ĠWhile": 2720,
      "Ġsci": 2721,
      "ession": 2722,
      "ĠWith": 2723,
      "Ġsitu": 2724,
      "ious": 2725,
      "Ġreceived": 2726,
      "Ġwhat": 2727,
      "LI": 2728,
      "Ġincidence": 2729,
      "pose": 2730,
      "Ġproposed": 2731,
      "..": 2732,
      "duce": 2733,
      "ogenetic": 2734,
      "CG": 2735,
      "Ġoutcomes": 2736,
      "Ġemploy": 2737,
      "Ġdirec": 2738,
      "gn": 2739,
      "Ġalone": 2740,
      "Ġevery": 2741,
      "Ġthreshold": 2742,
      "ĠAc": 2743,
      "Ġsetting": 2744,
      "Ġalternative": 2745,
      "Ġlit": 2746,
      "Ġregulatory": 2747,
      "Ġindex": 2748,
      "Ġinterview": 2749,
      "Ġglob": 2750,
      "ances": 2751,
      "ologic": 2752,
      "Ġmel": 2753,
      "Ġhapl": 2754,
      "ĠOf": 2755,
      "Ġlast": 2756,
      "Ġdiabetes": 2757,
      "mic": 2758,
      "pite": 2759,
      "Ġsmoking": 2760,
      "Ġdistance": 2761,
      "22": 2762,
      "ĠNo": 2763,
      "ĠPC": 2764,
      "Ġbone": 2765,
      "Ġinser": 2766,
      "Ġalong": 2767,
      "Ġparticularly": 2768,
      "Ġpan": 2769,
      "aaaa": 2770,
      "Ġparticipated": 2771,
      "Ġprobability": 2772,
      "Ġcombined": 2773,
      "abaG": 2774,
      "Ġactivities": 2775,
      "genic": 2776,
      "osts": 2777,
      "Ġlight": 2778,
      "Ġgenomes": 2779,
      "Ġbp": 2780,
      "aches": 2781,
      "200": 2782,
      "Ġfield": 2783,
      "formation": 2784,
      "uture": 2785,
      "Ġlocated": 2786,
      "Ġindicating": 2787,
      "ĠPre": 2788,
      "OS": 2789,
      "trol": 2790,
      "Ġacute": 2791,
      "iversity": 2792,
      "iRNA": 2793,
      "ats": 2794,
      "Ġmatrix": 2795,
      "Ġupon": 2796,
      "Ġher": 2797,
      "Ġguid": 2798,
      "ĠGene": 2799,
      "Ġprobe": 2800,
      "hort": 2801,
      "lectr": 2802,
      "Ġtranscripts": 2803,
      "itation": 2804,
      "ĠBecause": 2805,
      "regulated": 2806,
      "Ġfood": 2807,
      "Ġphosphory": 2808,
      "ĠAf": 2809,
      "Ġreduc": 2810,
      "Ġcho": 2811,
      "ples": 2812,
      "Ġsource": 2813,
      "Ġmaximum": 2814,
      "Ġmeasurements": 2815,
      "Ġchall": 2816,
      "iabd": 2817,
      "28": 2818,
      "ergy": 2819,
      "arily": 2820,
      "Ġsecre": 2821,
      "izes": 2822,
      "terior": 2823,
      "most": 2824,
      "ĠRA": 2825,
      "acaG": 2826,
      "asis": 2827,
      "Ġenti": 2828,
      "Ġhighest": 2829,
      "lo": 2830,
      "Ġput": 2831,
      "Ġdegree": 2832,
      "time": 2833,
      "bo": 2834,
      "inated": 2835,
      "Ġexposed": 2836,
      "pecially": 2837,
      "Ġcontain": 2838,
      "Ġmid": 2839,
      "Ġcertain": 2840,
      "ool": 2841,
      "Ġcolon": 2842,
      "Ġopen": 2843,
      "Ġax": 2844,
      "eres": 2845,
      "eting": 2846,
      "Ġpregn": 2847,
      "let": 2848,
      "lusion": 2849,
      "Ġdup": 2850,
      "Ġconte": 2851,
      "35": 2852,
      "pati": 2853,
      "Ġadult": 2854,
      "Ġbirth": 2855,
      "Ġgly": 2856,
      "Ġmarker": 2857,
      "Ġ2002": 2858,
      "apping": 2859,
      "Ġfemale": 2860,
      "Ġtree": 2861,
      "Ġmajority": 2862,
      "aaS": 2863,
      "ging": 2864,
      "Ġmalaria": 2865,
      "ogenic": 2866,
      "ĠAP": 2867,
      "Ġphenotype": 2868,
      "Ġcontains": 2869,
      "ĠUs": 2870,
      "ocal": 2871,
      "Ġhome": 2872,
      "Ġge": 2873,
      "Ġlike": 2874,
      "Ġtranscript": 2875,
      "lish": 2876,
      "ulf": 2877,
      "Ġbasis": 2878,
      "ĠEach": 2879,
      "Ġdistinct": 2880,
      "Î³": 2881,
      "ca": 2882,
      "Ġapproved": 2883,
      "Ġmake": 2884,
      "70": 2885,
      "TA": 2886,
      "Ġservices": 2887,
      "Ġaim": 2888,
      "36": 2889,
      "hers": 2890,
      "Ġnat": 2891,
      "Ġmedic": 2892,
      "ann": 2893,
      "ops": 2894,
      "Ġdrugs": 2895,
      "acts": 2896,
      "isation": 2897,
      "ĠMoreover": 2898,
      "Ġstar": 2899,
      "Ġinhibition": 2900,
      "normal": 2901,
      "Ġreason": 2902,
      "be": 2903,
      "Ġestablished": 2904,
      "Ġsolution": 2905,
      "Ġalignment": 2906,
      "Ġadap": 2907,
      "26": 2908,
      "Ġbo": 2909,
      "ĠData": 2910,
      "ĠIg": 2911,
      "Ġneeded": 2912,
      "AU": 2913,
      "rP": 2914,
      "Ġsee": 2915,
      "Ġnovel": 2916,
      "land": 2917,
      "ote": 2918,
      "Ġheart": 2919,
      "Ġfind": 2920,
      "Ġnecessary": 2921,
      "ĠSNPs": 2922,
      "Ġapoptosis": 2923,
      "Ġplasmid": 2924,
      "Ġreports": 2925,
      "ĠTwo": 2926,
      "Ġinvestigated": 2927,
      "Ġprevent": 2928,
      "vement": 2929,
      "itis": 2930,
      "ĠInc": 2931,
      "CI": 2932,
      "Ġbro": 2933,
      "andid": 2934,
      "oung": 2935,
      "âĢĶ": 2936,
      "Ġhomolog": 2937,
      "Ġespecially": 2938,
      "last": 2939,
      "Ġatten": 2940,
      "ĠSimilar": 2941,
      "Ps": 2942,
      "ĠCT": 2943,
      "Ġenzyme": 2944,
      "piratory": 2945,
      "ĠÎ¼M": 2946,
      "SS": 2947,
      "Ġaccount": 2948,
      "Ġscreening": 2949,
      "Ġwid": 2950,
      "Ġintensity": 2951,
      "CL": 2952,
      "ĠCell": 2953,
      "Ġlinear": 2954,
      "Ġrepro": 2955,
      "Ġcritical": 2956,
      "ps": 2957,
      "Ġ2000": 2958,
      "Ġdil": 2959,
      "Ġbackground": 2960,
      "Ġbound": 2961,
      "ynam": 2962,
      "90": 2963,
      "Aae": 2964,
      "ystem": 2965,
      "Ġshowing": 2966,
      "Ġartic": 2967,
      "qq": 2968,
      "Ġappears": 2969,
      "DA": 2970,
      "RE": 2971,
      "Ġbuffer": 2972,
      "MA": 2973,
      "Ġproperties": 2974,
      "order": 2975,
      "erase": 2976,
      "Ġdefin": 2977,
      "king": 2978,
      "Ġul": 2979,
      "Ġresulted": 2980,
      "ĠAfric": 2981,
      "Ġorth": 2982,
      "otherapy": 2983,
      "Ġcentral": 2984,
      "pared": 2985,
      "Ġload": 2986,
      "Ġmanagement": 2987,
      "erate": 2988,
      "ring": 2989,
      "Ġcoeff": 2990,
      "ĠÎ¼l": 2991,
      "usted": 2992,
      "Ġcat": 2993,
      "Ġcorrelated": 2994,
      "Ġlist": 2995,
      "by": 2996,
      "Ġhealthy": 2997,
      "Ġmolecules": 2998,
      "Ġcomponent": 2999,
      "Ġconsequ": 3000,
      "abor": 3001,
      "ĠIntern": 3002,
      "wise": 3003,
      "Ġgenerally": 3004,
      "Ġneut": 3005,
      "ĠStud": 3006,
      "taining": 3007,
      "Ġcaused": 3008,
      "Ġdos": 3009,
      "Ġcannot": 3010,
      "Ġimportance": 3011,
      "Ġfraction": 3012,
      "group": 3013,
      "Ġidentification": 3014,
      "Ġduplic": 3015,
      "ifically": 3016,
      "Ġquestions": 3017,
      "uter": 3018,
      "ww": 3019,
      "orpor": 3020,
      "Ġrepresents": 3021,
      "Ġunique": 3022,
      "Ġdam": 3023,
      "Ġepidem": 3024,
      "Ġessential": 3025,
      "aacqWG": 3026,
      "Ġcut": 3027,
      "Ġanimal": 3028,
      "Ġprimers": 3029,
      "Ġelev": 3030,
      "Ġothers": 3031,
      "amine": 3032,
      "yr": 3033,
      "Ġpeptide": 3034,
      "ocyte": 3035,
      "Ġdataset": 3036,
      "ĠPA": 3037,
      "rays": 3038,
      "Ġeas": 3039,
      "hol": 3040,
      "38": 3041,
      "Ġtask": 3042,
      "Ġcompound": 3043,
      "IP": 3044,
      "eled": 3045,
      "Ġreli": 3046,
      "rees": 3047,
      "Ġaround": 3048,
      "Ġseries": 3049,
      "iat": 3050,
      "Ġstructural": 3051,
      "data": 3052,
      "Ġdecl": 3053,
      "CM": 3054,
      "tially": 3055,
      "Ġproduct": 3056,
      "Ġsurgery": 3057,
      "Ġlys": 3058,
      "Ġcontext": 3059,
      "Ġmetast": 3060,
      "Ġ*": 3061,
      "Ġspecificity": 3062,
      "Ġmix": 3063,
      "Ġdevi": 3064,
      "Ġjo": 3065,
      "Ġregard": 3066,
      "arent": 3067,
      "Ġspecial": 3068,
      "ochond": 3069,
      "Ġdeveloping": 3070,
      "wn": 3071,
      "orn": 3072,
      "Ġreduce": 3073,
      "ceptib": 3074,
      "Ġnow": 3075,
      "ĠCo": 3076,
      "Ġacids": 3077,
      "aaW": 3078,
      "Ġprediction": 3079,
      "Ġproliferation": 3080,
      "Ġ48": 3081,
      "Ġoverl": 3082,
      "bs": 3083,
      "alysis": 3084,
      "Ġyoung": 3085,
      "Ġwr": 3086,
      "75": 3087,
      "ensus": 3088,
      "set": 3089,
      "Ġaccum": 3090,
      "Ġagree": 3091,
      "Ġentire": 3092,
      "Ġhalf": 3093,
      "Ġsimilarity": 3094,
      "Ġprotocol": 3095,
      "rand": 3096,
      "Ġcoli": 3097,
      "Ġalter": 3098,
      "Ġinflammatory": 3099,
      "Ġang": 3100,
      "Ġtw": 3101,
      "Ġsat": 3102,
      "equ": 3103,
      "Ġcourse": 3104,
      "Ġunderstanding": 3105,
      "ole": 3106,
      "known": 3107,
      "Ġdifferentiation": 3108,
      "Ġsubstr": 3109,
      "ches": 3110,
      "gc": 3111,
      "Ġ2005": 3112,
      "arding": 3113,
      "Ġrun": 3114,
      "ĠAdditional": 3115,
      "fg": 3116,
      "Ġmedian": 3117,
      "Ġobj": 3118,
      "Ġresponsible": 3119,
      "Ġlittle": 3120,
      "tered": 3121,
      "Ġmiss": 3122,
      "Ġinfections": 3123,
      "OR": 3124,
      "Ġapproaches": 3125,
      "Ġbase": 3126,
      "ĠIF": 3127,
      "estern": 3128,
      "bl": 3129,
      "Ġdynam": 3130,
      "Ġbelie": 3131,
      "Ġoriginal": 3132,
      "iotic": 3133,
      "ext": 3134,
      "ĠBoth": 3135,
      "Ġmutants": 3136,
      "ĠTNF": 3137,
      "day": 3138,
      "Ġglucose": 3139,
      "ĠUsing": 3140,
      "Ġlear": 3141,
      "fi": 3142,
      "ights": 3143,
      "Ġdiet": 3144,
      "Ġglobal": 3145,
      "Ġthird": 3146,
      "Ġml": 3147,
      "ĠFinally": 3148,
      "Ġng": 3149,
      "GH": 3150,
      "Ġquestionnaire": 3151,
      "Ġoccurred": 3152,
      "45": 3153,
      "Ġolig": 3154,
      "aily": 3155,
      "ĠInt": 3156,
      "Ġreplic": 3157,
      "Ġinterven": 3158,
      "Ġeducation": 3159,
      "GFP": 3160,
      "ĠAmeric": 3161,
      "Ġcandid": 3162,
      "east": 3163,
      "Ġevent": 3164,
      "Ġcoord": 3165,
      "29": 3166,
      "range": 3167,
      "Ġrelease": 3168,
      "alian": 3169,
      "Ġbias": 3170,
      "Ġcorrect": 3171,
      "ingly": 3172,
      "cb": 3173,
      "Ġasth": 3174,
      "Ġinduction": 3175,
      "Ġhydro": 3176,
      "Ġdig": 3177,
      "Ġside": 3178,
      "Ġve": 3179,
      "Ġuntil": 3180,
      "ler": 3181,
      "Ġreflec": 3182,
      "mitted": 3183,
      "Ġcategories": 3184,
      "ope": 3185,
      "ĠpH": 3186,
      "ean": 3187,
      "Ġfuture": 3188,
      "ĠIns": 3189,
      "Ġrecorded": 3190,
      "less": 3191,
      "Ġaccuracy": 3192,
      "Ġapplication": 3193,
      "Ġrest": 3194,
      "Ġemerg": 3195,
      "Ġsubject": 3196,
      "wi": 3197,
      "Ġcultures": 3198,
      "Ġoxid": 3199,
      "itude": 3200,
      "Ġsubsequent": 3201,
      "ina": 3202,
      "Ġcollection": 3203,
      "Ġmicroscop": 3204,
      "Ġinst": 3205,
      "ĠAp": 3206,
      "33": 3207,
      "rup": 3208,
      "Ġ2001": 3209,
      "PD": 3210,
      "Ġauthor": 3211,
      "Ġinternal": 3212,
      "Ġprofiles": 3213,
      "Ġduration": 3214,
      "Ġelectr": 3215,
      "Ġsection": 3216,
      "Ġnoted": 3217,
      "Ġinput": 3218,
      "ĠST": 3219,
      "Ġspati": 3220,
      "Ġmales": 3221,
      "pub": 3222,
      "Ġcere": 3223,
      "Ġsusceptib": 3224,
      "wh": 3225,
      "acia": 3226,
      "unction": 3227,
      "Ġlaboratory": 3228,
      "Ġstimulation": 3229,
      "Ġdon": 3230,
      "ozyg": 3231,
      "Ġreplication": 3232,
      "Ġmig": 3233,
      "ception": 3234,
      "Gi": 3235,
      "Ġtren": 3236,
      "da": 3237,
      "uW": 3238,
      "Ġsw": 3239,
      "Ġdiver": 3240,
      "Ġsynthesis": 3241,
      "Ġpolic": 3242,
      "Ġhouse": 3243,
      "opath": 3244,
      "Gu": 3245,
      "Ġtrue": 3246,
      "Ġbacterial": 3247,
      "ye": 3248,
      "onucle": 3249,
      "Ġlocation": 3250,
      "Ġevaluate": 3251,
      "SH": 3252,
      "Ġorigin": 3253,
      "Ġtransmission": 3254,
      "Ġ21": 3255,
      "Ġintra": 3256,
      "Ġclassification": 3257,
      "Ġslight": 3258,
      "Ġfig": 3259,
      "ĠCan": 3260,
      "Ġcharacterized": 3261,
      "ogenous": 3262,
      "Ġdone": 3263,
      "Ġproduce": 3264,
      "nr": 3265,
      "eness": 3266,
      "Ġlonger": 3267,
      "VA": 3268,
      "Ġextent": 3269,
      "qi": 3270,
      "Ġfar": 3271,
      "Ġmagn": 3272,
      "Ġforms": 3273,
      "Ġnucleotide": 3274,
      "ography": 3275,
      "Ġconst": 3276,
      "Ġmaterial": 3277,
      "ending": 3278,
      "eli": 3279,
      "Ġbacteria": 3280,
      "Ġremains": 3281,
      "Ġconfirm": 3282,
      "Ġfemales": 3283,
      "Type": 3284,
      "Ġtranscriptional": 3285,
      "Fr": 3286,
      "Ġsimple": 3287,
      "%.": 3288,
      "omas": 3289,
      "Ġsubstit": 3290,
      "Ġdiss": 3291,
      "ĠMath": 3292,
      "xb": 3293,
      "Oq": 3294,
      "Ġsignals": 3295,
      "overy": 3296,
      "Ġintrac": 3297,
      "%),": 3298,
      "Ġvariance": 3299,
      "Ġsections": 3300,
      "Ġden": 3301,
      "ĠPM": 3302,
      "Ġprobes": 3303,
      "aaeq": 3304,
      "Ġimplic": 3305,
      "Ġcontained": 3306,
      "Ġversion": 3307,
      "aaake": 3308,
      "Ġprograms": 3309,
      "Ġdys": 3310,
      "Ġquantif": 3311,
      "CO": 3312,
      "grad": 3313,
      "Ġstrongly": 3314,
      "Ġarter": 3315,
      "Ġdemonstrate": 3316,
      "Ġkinase": 3317,
      "virus": 3318,
      "Ġpossibility": 3319,
      "off": 3320,
      "ressive": 3321,
      "ched": 3322,
      "bI": 3323,
      "Ġmitochond": 3324,
      "Ġhumans": 3325,
      "Ġclearly": 3326,
      "Ġcohort": 3327,
      "Ġconfidence": 3328,
      "den": 3329,
      "Ġdependent": 3330,
      "utri": 3331,
      "Ġpass": 3332,
      "Ġcontribute": 3333,
      "Ġsil": 3334,
      "Ġchemical": 3335,
      "urrence": 3336,
      "Ġepithelial": 3337,
      "Ġrepresented": 3338,
      "Ġstrategy": 3339,
      "Ġdiffer": 3340,
      "Ġfund": 3341,
      "'-": 3342,
      "Ġresearc": 3343,
      "Ġfailure": 3344,
      "sh": 3345,
      "Ġdaily": 3346,
      "orb": 3347,
      "sp": 3348,
      "Ġsupp": 3349,
      "monary": 3350,
      "Ġassays": 3351,
      "Ġlibr": 3352,
      "atC": 3353,
      "Ġnor": 3354,
      "Ġleading": 3355,
      "ba": 3356,
      "ĠSP": 3357,
      "Ġsuccessful": 3358,
      "Ġstrategies": 3359,
      "ochemical": 3360,
      "ĠUnited": 3361,
      "Ġsources": 3362,
      "Ġusually": 3363,
      "vAU": 3364,
      "Ġearl": 3365,
      "Ġclose": 3366,
      "atCvAU": 3367,
      "Ġprimer": 3368,
      "Ġenergy": 3369,
      "Ġphylogenetic": 3370,
      "Ġskin": 3371,
      "Fj": 3372,
      "Ġgenotype": 3373,
      "rep": 3374,
      "Ġcomplic": 3375,
      "+=": 3376,
      "hD": 3377,
      "Ġprofile": 3378,
      "earch": 3379,
      "bba": 3380,
      "MTEF": 3381,
      "vq": 3382,
      "@+=": 3383,
      "feaa": 3384,
      "ĠMathType": 3385,
      "Ġsynd": 3386,
      "gB": 3387,
      "Ġ90": 3388,
      "MBP": 3389,
      "Ġobservations": 3390,
      "Ġcoding": 3391,
      "Ġmotifs": 3392,
      "In": 3393,
      "outh": 3394,
      "dir": 3395,
      "qqaq": 3396,
      "Ffea": 3397,
      "34": 3398,
      "vis": 3399,
      "Ġ80": 3400,
      "ĠPati": 3401,
      "ĠPD": 3402,
      "Ġrespiratory": 3403,
      "Ġnatural": 3404,
      "aaatCvAU": 3405,
      "ĠPar": 3406,
      "dXd": 3407,
      "Ee": 3408,
      "Ġaddress": 3409,
      "fiart": 3410,
      "feaafiart": 3411,
      "Ġmetabolic": 3412,
      "Ġattrib": 3413,
      "fif": 3414,
      "Xdbba": 3415,
      "Ġexcluded": 3416,
      "mea": 3417,
      "ĠMS": 3418,
      "Ġ28": 3419,
      "Ġadults": 3420,
      "Ġagg": 3421,
      "pgc": 3422,
      "Ġendot": 3423,
      "hGu": 3424,
      "kuc": 3425,
      "frFj": 3426,
      "LsFr": 3427,
      "acaGaaeq": 3428,
      "qiLsFr": 3429,
      "OqFfea": 3430,
      "vqai": 3431,
      "dirpe": 3432,
      "dXdd": 3433,
      "Eeeu": 3434,
      "meaabaq": 3435,
      "hGuQ": 3436,
      "Ġiden": 3437,
      "xXdbba": 3438,
      "Ġinterventions": 3439,
      "nel": 3440,
      "Ġillustr": 3441,
      "Ġexon": 3442,
      "Ġisolates": 3443,
      "dH": 3444,
      "Ġtend": 3445,
      "Ġweak": 3446,
      "ape": 3447,
      "Ġlinkage": 3448,
      "Lx": 3449,
      "ids": 3450,
      "Ġbecome": 3451,
      "qV": 3452,
      "Ġfold": 3453,
      "Ġrespect": 3454,
      "IF": 3455,
      "ceived": 3456,
      "aired": 3457,
      "Ġneuro": 3458,
      "Ġrepl": 3459,
      "iques": 3460,
      "Ġnam": 3461,
      "Ġaspec": 3462,
      "Ġtransfer": 3463,
      "fK": 3464,
      "GE": 3465,
      "Ġevolutionary": 3466,
      "ĠUniversity": 3467,
      "Lear": 3468,
      "Ġfacilit": 3469,
      "rich": 3470,
      "Ġcosts": 3471,
      "Ġtransl": 3472,
      "NO": 3473,
      "Ġarray": 3474,
      "Ġalleles": 3475,
      "ĠMeth": 3476,
      "Ġitems": 3477,
      "MDH": 3478,
      "Ġbu": 3479,
      "Ġprinc": 3480,
      "ighb": 3481,
      "uWrP": 3482,
      "ct": 3483,
      "32": 3484,
      "bIqV": 3485,
      "MBPbIqV": 3486,
      "fKtt": 3487,
      "Xat": 3488,
      "LxBI": 3489,
      "XatLxBI": 3490,
      "AaeXatLxBI": 3491,
      "LearuWrP": 3492,
      "fKttLearuWrP": 3493,
      "Ġcore": 3494,
      "ĠEST": 3495,
      "Ġyeast": 3496,
      "Ġtool": 3497,
      "ĠNor": 3498,
      "Ġapparent": 3499,
      "enz": 3500,
      "Ġdeliver": 3501,
      "ĠMost": 3502,
      "Ġmeasurement": 3503,
      "Ġstages": 3504,
      "ĠIC": 3505,
      "ively": 3506,
      "Ġyet": 3507,
      "aaatCvAUfKttLearuWrP": 3508,
      "ĠBy": 3509,
      "ĠSome": 3510,
      "gin": 3511,
      "SD": 3512,
      "ygen": 3513,
      "YdH": 3514,
      "Ġche": 3515,
      "HhD": 3516,
      "Yfg": 3517,
      "asaac": 3518,
      "akY": 3519,
      "aebb": 3520,
      "nrfif": 3521,
      "HhDYfg": 3522,
      "asaacH": 3523,
      "aebbnrfif": 3524,
      "HhDYfgasaacH": 3525,
      "aebbnrfifHhDYfgasaacH": 3526,
      "FfYdH": 3527,
      "wiFfYdH": 3528,
      "Gipec": 3529,
      "Ġrepeated": 3530,
      "Ġobservation": 3531,
      "atives": 3532,
      "Ġalmost": 3533,
      "Ġchallen": 3534,
      "Ġfixed": 3535,
      "Ġconstit": 3536,
      "ĠÎ¼m": 3537,
      "ipher": 3538,
      "Ġparal": 3539,
      "%).": 3540,
      "Ġassemb": 3541,
      "ĠâĪĴ": 3542,
      "Ġassociations": 3543,
      "Ġsmaller": 3544,
      "icular": 3545,
      "ĠOther": 3546,
      "Ġincorpor": 3547,
      "Ġvariety": 3548,
      "fam": 3549,
      "Ġfragment": 3550,
      "Ġplant": 3551,
      "Ġimages": 3552,
      "Ġphysicians": 3553,
      "Ġquantitative": 3554,
      "Ġclones": 3555,
      "Ġdivid": 3556,
      "Ġapplic": 3557,
      "Ġtumour": 3558,
      "AD": 3559,
      "Ġvary": 3560,
      "ĠCH": 3561,
      "Ġ35": 3562,
      "Ġidentical": 3563,
      "Ġdri": 3564,
      "Ġexperience": 3565,
      "vision": 3566,
      "Ġbind": 3567,
      "ĠFirst": 3568,
      "Ġloci": 3569,
      "Ġnetworks": 3570,
      "Ġadvant": 3571,
      "TG": 3572,
      "Ġremaining": 3573,
      "etal": 3574,
      "occ": 3575,
      "Ġasthma": 3576,
      "tics": 3577,
      "Ġpositions": 3578,
      "Ġolder": 3579,
      "ritis": 3580,
      "ĠGerm": 3581,
      "Ġmacroph": 3582,
      "ached": 3583,
      "Ġrelationships": 3584,
      "urop": 3585,
      "ering": 3586,
      "Ġmother": 3587,
      "Ġalco": 3588,
      "Ġreactions": 3589,
      "ready": 3590,
      "Ġ22": 3591,
      "Ġexamination": 3592,
      "Ġinvas": 3593,
      "Ġabnormal": 3594,
      "Ġinsulin": 3595,
      "Ġventr": 3596,
      "arb": 3597,
      "ĠGO": 3598,
      "ĠLe": 3599,
      "Ġshe": 3600,
      "aster": 3601,
      "aciaacaGaaeq": 3602,
      "meaabaqaciaacaGaaeq": 3603,
      "Ġantigen": 3604,
      "Ġoccurs": 3605,
      "heren": 3606,
      "Ġmill": 3607,
      "ured": 3608,
      "Ġorganisms": 3609,
      "Ġtechniques": 3610,
      "Ġallows": 3611,
      "Ġmelan": 3612,
      "Ġdocument": 3613,
      "Ġregarding": 3614,
      "Ġconserv": 3615,
      "alse": 3616,
      "Ġplants": 3617,
      "Ġimproved": 3618,
      "ulating": 3619,
      "Ġresources": 3620,
      "Ġpor": 3621,
      "ods": 3622,
      "Ġexerc": 3623,
      "istry": 3624,
      "Ġgraph": 3625,
      "Ġthroughout": 3626,
      "37": 3627,
      "Ġlay": 3628,
      "state": 3629,
      "Ġanc": 3630,
      "Ġrare": 3631,
      "aro": 3632,
      "positive": 3633,
      "arrow": 3634,
      "Ġprepar": 3635,
      "Ġalready": 3636,
      "Ġens": 3637,
      "Ġcomparisons": 3638,
      "year": 3639,
      "Ġspectr": 3640,
      "oh": 3641,
      "Ġprobably": 3642,
      "Ġ198": 3643,
      "Ġequal": 3644,
      "Ġproject": 3645,
      "Ġimage": 3646,
      "Ġsupplement": 3647,
      "cbaG": 3648,
      "terminal": 3649,
      "Ġ70": 3650,
      "Ġputative": 3651,
      "epend": 3652,
      "au": 3653,
      "EP": 3654,
      "inations": 3655,
      "65": 3656,
      "Ġratios": 3657,
      "99": 3658,
      "olved": 3659,
      "aei": 3660,
      "Ġsampling": 3661,
      "orders": 3662,
      "test": 3663,
      "Ġpharm": 3664,
      "Ġaction": 3665,
      "Ġdamage": 3666,
      "Ġbran": 3667,
      "Ġvariability": 3668,
      "Ġcauses": 3669,
      "Ġembryos": 3670,
      "ĠInde": 3671,
      "DL": 3672,
      "anning": 3673,
      "ĠSp": 3674,
      "ĠSec": 3675,
      "Ġavoid": 3676,
      "Ġcompare": 3677,
      "Ġabund": 3678,
      "OD": 3679,
      "part": 3680,
      "ingu": 3681,
      "Ġextre": 3682,
      "Ġcomput": 3683,
      "Ġmarked": 3684,
      "Ġenzymes": 3685,
      "Ġwhose": 3686,
      "Ġunknown": 3687,
      "Ġnature": 3688,
      "Ġprocedures": 3689,
      "ycin": 3690,
      "Ġprofession": 3691,
      "ĠPBS": 3692,
      "IN": 3693,
      "DR": 3694,
      "itrogen": 3695,
      "Ġinjury": 3696,
      "Ġcurrently": 3697,
      "ounts": 3698,
      "Ġlate": 3699,
      "Ġcontinuous": 3700,
      "Ġspatial": 3701,
      "Ġimmedi": 3702,
      "ĠHP": 3703,
      "Ġtargets": 3704,
      "Ġattem": 3705,
      "Ġpotentially": 3706,
      "obacter": 3707,
      "mod": 3708,
      "Ġbroad": 3709,
      "Ġsubun": 3710,
      "Ġactivated": 3711,
      "Ġprepared": 3712,
      "iae": 3713,
      "cription": 3714,
      "Ġcapac": 3715,
      "mediated": 3716,
      "Ġlocus": 3717,
      "Ġreverse": 3718,
      "Ġfrequently": 3719,
      "TC": 3720,
      "ĠPer": 3721,
      "Ġdiagnostic": 3722,
      "elihood": 3723,
      "ĠIFN": 3724,
      "Ġearlier": 3725,
      "osen": 3726,
      "Ġyield": 3727,
      "adaaake": 3728,
      "abeG": 3729,
      "Ġcontact": 3730,
      "Ġcolum": 3731,
      "met": 3732,
      "seud": 3733,
      "Ġinduc": 3734,
      "Ġhead": 3735,
      "Ġcarb": 3736,
      "aling": 3737,
      "Ġshif": 3738,
      "ÎĶ": 3739,
      "Ġinflammation": 3740,
      "Ġdouble": 3741,
      "ching": 3742,
      "Ġsufficient": 3743,
      "elling": 3744,
      "Ġprogression": 3745,
      "Ġown": 3746,
      "isc": 3747,
      "tically": 3748,
      "orts": 3749,
      "Ġparameter": 3750,
      "Ġremoved": 3751,
      "Ġtag": 3752,
      "Ġpanel": 3753,
      "Ġcontrolled": 3754,
      "Ġinvestigate": 3755,
      "icacy": 3756,
      "Ġtechnique": 3757,
      "ĠSever": 3758,
      "ĠSub": 3759,
      "Ġneighb": 3760,
      "Ġfluorescence": 3761,
      "Ġnear": 3762,
      "Ġaden": 3763,
      "Ġlinked": 3764,
      "Ġconstant": 3765,
      "ologies": 3766,
      "Ġcm": 3767,
      "ĠIndi": 3768,
      "RA": 3769,
      "Ġamplification": 3770,
      "ont": 3771,
      "Ġpool": 3772,
      "Ġgel": 3773,
      "ĠDes": 3774,
      "Ġunderlying": 3775,
      "Ġspecifically": 3776,
      "Ġseparate": 3777,
      "Ġextracted": 3778,
      "gBaebbnrfifHhDYfgasaacH": 3779,
      "Ġplate": 3780,
      "abaqabeG": 3781,
      "Ġlesions": 3782,
      "Ġsensitive": 3783,
      "Ġinterpretation": 3784,
      "elines": 3785,
      "Ġcre": 3786,
      "Ġelevated": 3787,
      "Ġperson": 3788,
      "Ġbiom": 3789,
      "Ġ45": 3790,
      "Ġtake": 3791,
      "eling": 3792,
      "ĠCol": 3793,
      "EC": 3794,
      "reng": 3795,
      "rogen": 3796,
      "Ġunits": 3797,
      "Ġphosphorylation": 3798,
      "Ġfrequencies": 3799,
      "ĠStates": 3800,
      "Ġ).": 3801,
      "abaqabeGadaaake": 3802,
      "ney": 3803,
      "Ġsequencing": 3804,
      "Ġreproduc": 3805,
      "Ġincludes": 3806,
      "Ġagreement": 3807,
      "Ġobtain": 3808,
      "ĠHere": 3809,
      "Ġplot": 3810,
      "Ġdecision": 3811,
      "aces": 3812,
      "ĠInterest": 3813,
      "Ġmainly": 3814,
      "Ġperipher": 3815,
      "SI": 3816,
      "Ġworld": 3817,
      "Ġspecim": 3818,
      "atically": 3819,
      "Ġclustering": 3820,
      "Ġprocessing": 3821,
      "Ġallowed": 3822,
      "Ġblot": 3823,
      "Ġreflect": 3824,
      "ives": 3825,
      "ĠAmong": 3826,
      "Ġneeds": 3827,
      "ĠOver": 3828,
      "Ġspace": 3829,
      "Ġcomplement": 3830,
      "Ġseven": 3831,
      "SV": 3832,
      "Ġturn": 3833,
      "rotein": 3834,
      "eutic": 3835,
      "Ġpoll": 3836,
      "ĠNF": 3837,
      "Ġ;": 3838,
      "gans": 3839,
      "CV": 3840,
      "Ġfalse": 3841,
      "Ġresearchers": 3842,
      "Ġstable": 3843,
      "Ġinduce": 3844,
      "operative": 3845,
      "Ġoste": 3846,
      "SC": 3847,
      "Ġmetabolism": 3848,
      "ĠâĢ¢": 3849,
      "Ġtowards": 3850,
      "ĠCent": 3851,
      "Ġ)": 3852,
      "GA": 3853,
      "itr": 3854,
      "Ġfeature": 3855,
      "aI": 3856,
      "lin": 3857,
      "ĠAss": 3858,
      "Ġcytoplas": 3859,
      "Ġfram": 3860,
      "Ġeight": 3861,
      "use": 3862,
      "Ġintracellular": 3863,
      "Ġcomplexes": 3864,
      "Ġobes": 3865,
      "ĠSeveral": 3866,
      "Ġsaf": 3867,
      "Ġschool": 3868,
      "Ġconven": 3869,
      "Ġexamine": 3870,
      "Ġissues": 3871,
      "meaabaqaciaacaGaaeqabaqabeGadaaake": 3872,
      "68": 3873,
      "ifferen": 3874,
      "ĠBl": 3875,
      "Ġmap": 3876,
      "TL": 3877,
      "Ġexpect": 3878,
      "ĠInstit": 3879,
      "57": 3880,
      "enic": 3881,
      "ĠInterestingly": 3882,
      "cqWG": 3883,
      "Ġinhibitor": 3884,
      "Ġnext": 3885,
      "Ġtable": 3886,
      "Ġbur": 3887,
      "Ġten": 3888,
      "idity": 3889,
      "Ġusers": 3890,
      "Ġbehaviour": 3891,
      "Ġclassified": 3892,
      "Ġelement": 3893,
      "Ġhis": 3894,
      "ĠNational": 3895,
      "Ġregulated": 3896,
      "Ġcompr": 3897,
      "Ġsqu": 3898,
      "ĠResearch": 3899,
      "ero": 3900,
      "Ġseems": 3901,
      "Ġcarcinoma": 3902,
      "Ġortholog": 3903,
      "Ġalcohol": 3904,
      "lasts": 3905,
      "otes": 3906,
      "Ġimprovement": 3907,
      "48": 3908,
      "Ġchosen": 3909,
      "otor": 3910,
      "Ġidenti": 3911,
      "ises": 3912,
      "overn": 3913,
      "Ġstudents": 3914,
      "eral": 3915,
      "47": 3916,
      "ocardi": 3917,
      "Ġpulmonary": 3918,
      "io": 3919,
      "Ġadministration": 3920,
      "value": 3921,
      "ufact": 3922,
      "Ġcompeting": 3923,
      "ethyl": 3924,
      "Ġstreng": 3925,
      "Ġuser": 3926,
      "Ġstained": 3927,
      "rief": 3928,
      "Ġunc": 3929,
      "Ġrob": 3930,
      "Ġdiverg": 3931,
      "MD": 3932,
      "Ġinjection": 3933,
      "wide": 3934,
      "Ġhorm": 3935,
      "Ġexpressing": 3936,
      "ĠGFP": 3937,
      "ipp": 3938,
      "Ġrepresentative": 3939,
      "ton": 3940,
      "Ġappe": 3941,
      "Ġpack": 3942,
      "Ġsyndrome": 3943,
      "Ġhypothes": 3944,
      "Ġmalign": 3945,
      "Ġ29": 3946,
      "Ġvariants": 3947,
      "olester": 3948,
      "Ġautom": 3949,
      "ĠPR": 3950,
      "ĠEurop": 3951,
      "ĠAcc": 3952,
      "Ġ26": 3953,
      "Ġâī¥": 3954,
      "Ġexplain": 3955,
      "Ġrequires": 3956,
      "Ġcapacity": 3957,
      "Ġcatal": 3958,
      "Ġnm": 3959,
      "ished": 3960,
      "kg": 3961,
      "Ġinteract": 3962,
      "dr": 3963,
      "Ġtransport": 3964,
      "Ġ%": 3965,
      "ET": 3966,
      "resent": 3967,
      "Ġpast": 3968,
      "Ġrespondents": 3969,
      "Ġdegrad": 3970,
      "Ġillness": 3971,
      "stead": 3972,
      "Ġful": 3973,
      "Ġinteres": 3974,
      "regulation": 3975,
      "Ġjust": 3976,
      "Ġdetailed": 3977,
      "Ġrib": 3978,
      "Ġgender": 3979,
      "Ġeng": 3980,
      "ison": 3981,
      "Ġ27": 3982,
      "iatric": 3983,
      "Ġcomparing": 3984,
      "Ġworkers": 3985,
      "Ġtools": 3986,
      "Ġdifferential": 3987,
      "Ġold": 3988,
      "Ġcultured": 3989,
      "Ġinterests": 3990,
      "Ġasked": 3991,
      "Ġanalysed": 3992,
      "point": 3993,
      "Ġ23": 3994,
      "MC": 3995,
      "ectiveness": 3996,
      "Ġachieved": 3997,
      "emic": 3998,
      "Ġpregnancy": 3999,
      "Ġmanufact": 4000,
      "indow": 4001,
      "Ġdisorders": 4002,
      "otides": 4003,
      "Ġdev": 4004,
      "son": 4005,
      "back": 4006,
      "IC": 4007,
      "istent": 4008,
      "Ġdelay": 4009,
      "Ġstates": 4010,
      "ĠNa": 4011,
      "Ġslightly": 4012,
      "tely": 4013,
      "Ġexcept": 4014,
      "heless": 4015,
      "ĠBr": 4016,
      "Ġexact": 4017,
      "sive": 4018,
      "def": 4019,
      "Ġmedia": 4020,
      "ĠPatients": 4021,
      "Ġexcl": 4022,
      "Ġgenerate": 4023,
      "ĠNew": 4024,
      "ares": 4025,
      "igma": 4026,
      "Ġcommonly": 4027,
      "oxic": 4028,
      "Ġovere": 4029,
      "li": 4030,
      "Ġhypert": 4031,
      "ĠSw": 4032,
      "aph": 4033,
      "Ġoptimal": 4034,
      "Îº": 4035,
      "Ġremain": 4036,
      "oform": 4037,
      "plant": 4038,
      "ades": 4039,
      "Ġnumer": 4040,
      "Ġassigned": 4041,
      "NS": 4042,
      "ovascular": 4043,
      "Ġexplan": 4044,
      "ange": 4045,
      "Ġconclud": 4046,
      "Ġdepression": 4047,
      "Ġstart": 4048,
      "ĠOnly": 4049,
      "Ġnorm": 4050,
      "ĠDi": 4051,
      "Ġliving": 4052,
      "Ġroom": 4053,
      "Ġprogramm": 4054,
      "Ġwidely": 4055,
      "Ġadverse": 4056,
      "Ġencoding": 4057,
      "Ġefficacy": 4058,
      "Ġchec": 4059,
      "Ġestablish": 4060,
      "44": 4061,
      "Ġcomm": 4062,
      "ĠSur": 4063,
      "cribed": 4064,
      "Ġwashed": 4065,
      "Ġgast": 4066,
      "tex": 4067,
      "ociated": 4068,
      "bre": 4069,
      "ometric": 4070,
      "Ġrecombination": 4071,
      "tebr": 4072,
      "Ġoxygen": 4073,
      "Ġcontributed": 4074,
      "],": 4075,
      "PAR": 4076,
      "Ġdate": 4077,
      "Ġclasses": 4078,
      "aaWcbaG": 4079,
      "valent": 4080,
      "Ġprogn": 4081,
      "Ġarth": 4082,
      "BD": 4083,
      "side": 4084,
      "Ġrecruit": 4085,
      "gg": 4086,
      "Ġyou": 4087,
      "Ġlikelihood": 4088,
      "Ġonset": 4089,
      "ticip": 4090,
      "aak": 4091,
      "Ġleads": 4092,
      "Ġguidelines": 4093,
      "ateral": 4094,
      "mitte": 4095,
      "Ġsegment": 4096,
      "Ġdoses": 4097,
      "Ġod": 4098,
      "ĠDuring": 4099,
      "Ġconsensus": 4100,
      "Ġcardiac": 4101,
      "inate": 4102,
      "39": 4103,
      "reatment": 4104,
      "urb": 4105,
      "/-": 4106,
      "Ġreasons": 4107,
      "Ġcompounds": 4108,
      "Ġcurve": 4109,
      "rs": 4110,
      "Ġremained": 4111,
      "formed": 4112,
      "ĠHR": 4113,
      "ĠSD": 4114,
      "Ġchlor": 4115,
      "Ġlatter": 4116,
      "Ġrecommend": 4117,
      "sw": 4118,
      "acent": 4119,
      "Ġfully": 4120,
      "ĠIII": 4121,
      "Ġsupported": 4122,
      "Ġconcept": 4123,
      "Ġwide": 4124,
      "ĠMethods": 4125,
      "rac": 4126,
      "Ġfeed": 4127,
      "Ġword": 4128,
      "anol": 4129,
      "aring": 4130,
      "Ġdescribe": 4131,
      "Ġadjusted": 4132,
      "OG": 4133,
      "bG": 4134,
      "ĠNe": 4135,
      "Ġdatabases": 4136,
      "ĠSuch": 4137,
      "Ġgeneration": 4138,
      "ĠÎĶ": 4139,
      "ariate": 4140,
      "Ġcalled": 4141,
      "ash": 4142,
      "Ġindepend": 4143,
      "Ġpolicy": 4144,
      "49": 4145,
      "HC": 4146,
      "Ġintervals": 4147,
      "tor": 4148,
      "ighted": 4149,
      "Ġenhanced": 4150,
      "67": 4151,
      "Ġcomparable": 4152,
      "Ġdiscrim": 4153,
      "Ġpeptides": 4154,
      "tioned": 4155,
      "emia": 4156,
      "BL": 4157,
      "pective": 4158,
      "Ġnutri": 4159,
      "try": 4160,
      "Ġplaced": 4161,
      "olesterol": 4162,
      "Ġtreatments": 4163,
      "ibly": 4164,
      "lob": 4165,
      "activity": 4166,
      "Ġhep": 4167,
      "Ġleuk": 4168,
      "Ġchain": 4169,
      "inity": 4170,
      "ĠUK": 4171,
      "exp": 4172,
      "roid": 4173,
      "amb": 4174,
      "Ġnodes": 4175,
      "Ġaccept": 4176,
      "Ġ1999": 4177,
      "Ġseem": 4178,
      "aey": 4179,
      "Ġexercise": 4180,
      "Ġphot": 4181,
      "//": 4182,
      "Ġagents": 4183,
      "Ġdatasets": 4184,
      "Ġled": 4185,
      "ula": 4186,
      "Ġconsent": 4187,
      "oxid": 4188,
      "binding": 4189,
      "ĠUS": 4190,
      "Ġarg": 4191,
      "entific": 4192,
      "Ġcompletely": 4193,
      "control": 4194,
      "ĠReg": 4195,
      "otal": 4196,
      "icle": 4197,
      "Ġchromosomes": 4198,
      "Ġlipid": 4199,
      "ĠTrans": 4200,
      "tices": 4201,
      "Ġnational": 4202,
      "Ġparticles": 4203,
      "ĠCons": 4204,
      "rin": 4205,
      "Ġminor": 4206,
      "aeG": 4207,
      "Ġcorrespond": 4208,
      "fl": 4209,
      "version": 4210,
      "Ġunit": 4211,
      "ML": 4212,
      "Ġmodified": 4213,
      ")-": 4214,
      "Ġcodon": 4215,
      "neum": 4216,
      "Ġhybridization": 4217,
      "IR": 4218,
      "aK": 4219,
      "ested": 4220,
      "Ġannotation": 4221,
      "lab": 4222,
      "ĠOR": 4223,
      "SE": 4224,
      "Ġleg": 4225,
      "daW": 4226,
      "Ġupper": 4227,
      "Ġdiversity": 4228,
      "Ġheterogene": 4229,
      "ĠFrom": 4230,
      "://": 4231,
      "ĠAnother": 4232,
      "Ġprincip": 4233,
      "Ġdiff": 4234,
      "Ġcolle": 4235,
      "Ġnurs": 4236,
      "Ġelim": 4237,
      "Ġdraf": 4238,
      "BC": 4239,
      "Ġidentity": 4240,
      "ÎºB": 4241,
      "Ġtransfected": 4242,
      "Ġlearning": 4243,
      "LAST": 4244,
      "42": 4245,
      "Ġstem": 4246,
      "Ġdistingu": 4247,
      "osome": 4248,
      "Ġthought": 4249,
      "ĠSecond": 4250,
      "Ġfav": 4251,
      "Ġcorrec": 4252,
      "Ġclosely": 4253,
      "Ġaccom": 4254,
      "Ġerrors": 4255,
      "Ġrelation": 4256,
      "ttp": 4257,
      "rh": 4258,
      "aaale": 4259,
      "Ġdeletion": 4260,
      "HS": 4261,
      "infected": 4262,
      "Ġrandomly": 4263,
      "Ġmental": 4264,
      "Ġproj": 4265,
      "ĠGermany": 4266,
      "Ġclon": 4267,
      "Ġtrig": 4268,
      "Ġcompleted": 4269,
      "Ġexplained": 4270,
      "Ġpredom": 4271,
      "Ġrefer": 4272,
      "Ġviruses": 4273,
      "ĠInternet": 4274,
      "bW": 4275,
      "pha": 4276,
      "Ġmitochondrial": 4277,
      "ĠPP": 4278,
      "Ġra": 4279,
      "Ġfibrob": 4280,
      "Ġbelong": 4281,
      "31": 4282,
      "Ġsubstantial": 4283,
      "uction": 4284,
      "Ġfollows": 4285,
      "Ġcogn": 4286,
      "Ġpositi": 4287,
      "Ġmoderate": 4288,
      "MR": 4289,
      "oster": 4290,
      "ĠDe": 4291,
      "Ġancest": 4292,
      "tag": 4293,
      "Ġmanner": 4294,
      "Ġinstit": 4295,
      "onomic": 4296,
      "Ġrout": 4297,
      "ophila": 4298,
      "ternal": 4299,
      "ĠTB": 4300,
      "Ġtempor": 4301,
      "Ġcal": 4302,
      "Ġsubset": 4303,
      "OC": 4304,
      "ars": 4305,
      "rosis": 4306,
      "overed": 4307,
      "lim": 4308,
      "erve": 4309,
      "Ġhousehold": 4310,
      "ĠCells": 4311,
      "Ġoccup": 4312,
      "Ġperipheral": 4313,
      "Ġequi": 4314,
      "Ġfall": 4315,
      "ĠCF": 4316,
      "Ġstaff": 4317,
      "Ġoral": 4318,
      "Ġprevention": 4319,
      "asp": 4320,
      "rium": 4321,
      "Ġmaking": 4322,
      "Ġster": 4323,
      "Ġtax": 4324,
      "Ġmixed": 4325,
      "Ġinfer": 4326,
      "Ġmaternal": 4327,
      "CP": 4328,
      "ukary": 4329,
      "Ġcy": 4330,
      "Ġcomposition": 4331,
      "osa": 4332,
      "osomal": 4333,
      "Ġissue": 4334,
      "HO": 4335,
      "Ġdelivery": 4336,
      "Ġcandidate": 4337,
      "ĠPl": 4338,
      "izations": 4339,
      "Ġefficiency": 4340,
      "Ġfragments": 4341,
      "HA": 4342,
      "ĠResults": 4343,
      "ĠBased": 4344,
      "Ġpurified": 4345,
      "Ġmacrophages": 4346,
      "ĠWestern": 4347,
      "Ġexons": 4348,
      "position": 4349,
      "ectors": 4350,
      "Ġrepeat": 4351,
      "Ġworking": 4352,
      "Ġsubstrate": 4353,
      "Ġalways": 4354,
      "Ġmillion": 4355,
      "Ġrobust": 4356,
      "stim": 4357,
      "Ġappeared": 4358,
      "Ġdraw": 4359,
      "Ġbasic": 4360,
      "Ġpseud": 4361,
      "ott": 4362,
      "Ġdeclare": 4363,
      "Ġcategory": 4364,
      "Ġblue": 4365,
      "Ġ72": 4366,
      "ĠMA": 4367,
      "estinal": 4368,
      "tile": 4369,
      "Ġcytokines": 4370,
      "Ġtherapeutic": 4371,
      "Ġspe": 4372,
      "ĠSpec": 4373,
      "Ġemployed": 4374,
      "Ġtext": 4375,
      "ĠTF": 4376,
      "Ġaspects": 4377,
      "Ġgreen": 4378,
      "tious": 4379,
      "Ġconsumption": 4380,
      "Ġgive": 4381,
      "Ġwhite": 4382,
      "rm": 4383,
      "02": 4384,
      "associated": 4385,
      "Ġdeviation": 4386,
      "Ġexpress": 4387,
      "Ġsurgical": 4388,
      "Ġconver": 4389,
      "radi": 4390,
      "Ġcomputer": 4391,
      "gene": 4392,
      "IL": 4393,
      "Ġmanufacture": 4394,
      "Ġwall": 4395,
      "Ġchoice": 4396,
      "Ġproviding": 4397,
      "ĠGP": 4398,
      "free": 4399,
      "Ġsatis": 4400,
      "utive": 4401,
      "ID": 4402,
      "ields": 4403,
      "olec": 4404,
      "Ġacet": 4405,
      "Ġbenefit": 4406,
      "Ġintake": 4407,
      "Ġincubation": 4408,
      "Ġethn": 4409,
      "Ġsteps": 4410,
      "Ġnode": 4411,
      "Ġmaintained": 4412,
      "hydro": 4413,
      "Ġdespite": 4414,
      "ĠSimilarly": 4415,
      "Â®": 4416,
      "Ġcarry": 4417,
      "Ġphysiological": 4418,
      "take": 4419,
      "Ġonce": 4420,
      "ultaneous": 4421,
      "ners": 4422,
      "Ġpredictions": 4423,
      "Ġdistributed": 4424,
      "Ġjoint": 4425,
      "ads": 4426,
      "Ġminimum": 4427,
      "ĠIgG": 4428,
      "Ġfigure": 4429,
      "Ġseverity": 4430,
      "Ġcycles": 4431,
      "lated": 4432,
      "going": 4433,
      "aditional": 4434,
      "nat": 4435,
      "Ġgenotypes": 4436,
      "Ġfish": 4437,
      "Ġarch": 4438,
      "98": 4439,
      "Ġecon": 4440,
      "ĠOr": 4441,
      "ĠIndeed": 4442,
      "ĠAD": 4443,
      "Ġsummar": 4444,
      "ĠSer": 4445,
      "ifug": 4446,
      "Ġoutput": 4447,
      "Ġmissing": 4448,
      "Ġqual": 4449,
      "Ġsom": 4450,
      "Ġmis": 4451,
      "aid": 4452,
      "Ġmil": 4453,
      "ĠAg": 4454,
      "Ġtrend": 4455,
      "ĠMMP": 4456,
      "EGF": 4457,
      "Ġexisting": 4458,
      "Ġrol": 4459,
      "Ġspread": 4460,
      "ĠMic": 4461,
      "Ġgrown": 4462,
      "oded": 4463,
      "Ġcardiovascular": 4464,
      "Ġamounts": 4465,
      "LP": 4466,
      "certain": 4467,
      "Ġrecombinant": 4468,
      "ĠSup": 4469,
      "Ġdistributions": 4470,
      "IS": 4471,
      "Ġsearc": 4472,
      "Ġgovern": 4473,
      "Ġsperm": 4474,
      "Ġtoo": 4475,
      "ĠSm": 4476,
      "anes": 4477,
      "ĠâĪ": 4478,
      "Ġcoup": 4479,
      "Ġimm": 4480,
      "Ġfluid": 4481,
      "gative": 4482,
      "Ġkb": 4483,
      "ozygous": 4484,
      "ret": 4485,
      "ococc": 4486,
      "Ġexcess": 4487,
      "CF": 4488,
      "cers": 4489,
      "mittee": 4490,
      "rog": 4491,
      "xi": 4492,
      "nt": 4493,
      "ĠSystem": 4494,
      "Ġhighl": 4495,
      "Ġglut": 4496,
      "Ġinhibitors": 4497,
      "Ġinvestigation": 4498,
      "Ġdisplayed": 4499,
      "Ġeukary": 4500,
      "Ġgenotyp": 4501,
      "Ġ36": 4502,
      "Ġdivided": 4503,
      "Ġrequ": 4504,
      "Ġconservation": 4505,
      "Ġfast": 4506,
      "Ġcoefficient": 4507,
      "ee": 4508,
      "ogram": 4509,
      "Ġ75": 4510,
      "usions": 4511,
      "GT": 4512,
      "Ġentr": 4513,
      "Ġadvantage": 4514,
      "Ġreach": 4515,
      "Ġvascular": 4516,
      "dle": 4517,
      "Ġconcern": 4518,
      "Ġmammalian": 4519,
      "atistic": 4520,
      "Ġcorrelations": 4521,
      "fered": 4522,
      "Ġpersonal": 4523,
      "Ġtoxic": 4524,
      "Ġpneum": 4525,
      "ĠATP": 4526,
      "Ġann": 4527,
      "avage": 4528,
      "Ġfin": 4529,
      "mark": 4530,
      "care": 4531,
      "Ġamplified": 4532,
      "Ġdiscussed": 4533,
      "Ġlocalization": 4534,
      "inking": 4535,
      "Ġintroduced": 4536,
      "Ġadequ": 4537,
      "portun": 4538,
      "Ġaccumulation": 4539,
      "Ġcholesterol": 4540,
      "ĠAmerican": 4541,
      "Ġupstream": 4542,
      "oli": 4543,
      "ĠCS": 4544,
      "Ġdevelopmental": 4545,
      "ĠPo": 4546,
      "Ġsystematic": 4547,
      "Ġaggreg": 4548,
      "Ġassumed": 4549,
      "OL": 4550,
      "Ġintermedi": 4551,
      "phosph": 4552,
      "ĠAT": 4553,
      ".)": 4554,
      "Ġaltered": 4555,
      "Ġmediated": 4556,
      "Ġcopy": 4557,
      "ronch": 4558,
      "Ġsusceptibility": 4559,
      "ifications": 4560,
      "rine": 4561,
      "uments": 4562,
      "ella": 4563,
      "ivers": 4564,
      "Ġbasal": 4565,
      "Ġconstructed": 4566,
      "Ġ~": 4567,
      "Ġvaccine": 4568,
      "Ġsimultaneous": 4569,
      "ĠTGF": 4570,
      "Ġrepair": 4571,
      "Ġinvolving": 4572,
      "Ġcounter": 4573,
      "Ġstri": 4574,
      "Ġcoverage": 4575,
      "Ġexposures": 4576,
      "Ġcry": 4577,
      "abb": 4578,
      "Ġphenotypes": 4579,
      "Ġansw": 4580,
      "Ġlimitations": 4581,
      "66": 4582,
      "ta": 4583,
      "Ġantibiotic": 4584,
      "ĠInter": 4585,
      "Ġmethylation": 4586,
      "Ġfocused": 4587,
      "Ġimplementation": 4588,
      "rosophila": 4589,
      "Ġfusion": 4590,
      "Ġwindow": 4591,
      "Ġopportun": 4592,
      "Ġprostate": 4593,
      "Ġaged": 4594,
      "Ġchallenge": 4595,
      "Ġtoxicity": 4596,
      "ĠAnalysis": 4597,
      "ĠAR": 4598,
      "ĠSh": 4599,
      "Ġbal": 4600,
      "Ġparents": 4601,
      "Ġ32": 4602,
      "Ġgain": 4603,
      "Ġslow": 4604,
      "qaaiabd": 4605,
      "ĠMany": 4606,
      "Ġdisrup": 4607,
      "Ġconstruct": 4608,
      "ban": 4609,
      "iform": 4610,
      "immun": 4611,
      "Ġimaging": 4612,
      "ĠAccording": 4613,
      "ĠAlso": 4614,
      "Ġstrength": 4615,
      "illed": 4616,
      "level": 4617,
      "Ġphysician": 4618,
      "Ġseparated": 4619,
      "Ġplus": 4620,
      "Ġspecimens": 4621,
      "ytes": 4622,
      "Ġdetails": 4623,
      "Ġcolleag": 4624,
      "Ġitself": 4625,
      "Ġtele": 4626,
      "tionally": 4627,
      "Ġinteresting": 4628,
      "Ġdiagnosed": 4629,
      "rehen": 4630,
      "Ġmonitoring": 4631,
      "Ġprimarily": 4632,
      "Ġsplicing": 4633,
      "Ġorganization": 4634,
      "rie": 4635,
      "Ġproxim": 4636,
      "Ġbars": 4637,
      "emb": 4638,
      "Ġservice": 4639,
      "Ġensure": 4640,
      "ports": 4641,
      "Ġneural": 4642,
      "43": 4643,
      "Ġgran": 4644,
      "aqu": 4645,
      "lel": 4646,
      "Ġaccurate": 4647,
      "inter": 4648,
      "uited": 4649,
      "Ġdegradation": 4650,
      "Ġdisorder": 4651,
      "Ġdefinition": 4652,
      "Ġoverex": 4653,
      "ĠCompar": 4654,
      "ks": 4655,
      "ectious": 4656,
      "Ġinclusion": 4657,
      "Ġmedicine": 4658,
      "Ġelectro": 4659,
      "ĠDespite": 4660,
      "Ġsequenced": 4661,
      "aee": 4662,
      "Ġradiation": 4663,
      "Î¼": 4664,
      "Ġbreak": 4665,
      "Ġinvolvement": 4666,
      "Ġschem": 4667,
      "Ġadjust": 4668,
      "Ġmuc": 4669,
      "Ġefficient": 4670,
      "ils": 4671,
      "Ġmapping": 4672,
      "Ġdifferentially": 4673,
      "Ġtypical": 4674,
      "Ġhar": 4675,
      "ito": 4676,
      "ĠBe": 4677,
      "ĠGroup": 4678,
      "Ġendogenous": 4679,
      "Ġamb": 4680,
      "Ġexternal": 4681,
      "Ġpurpose": 4682,
      "Ġselective": 4683,
      "Ġfrequent": 4684,
      "ĠHA": 4685,
      "Ġcomprehen": 4686,
      "Ġenhance": 4687,
      "Ġspon": 4688,
      "Ġindependently": 4689,
      "Ġlook": 4690,
      "ert": 4691,
      "Ġrenal": 4692,
      "ED": 4693,
      "onym": 4694,
      "Ġste": 4695,
      "EN": 4696,
      "Ġcolleagues": 4697,
      "ials": 4698,
      "ĠDrosophila": 4699,
      "Ġintron": 4700,
      "Ġhaplotype": 4701,
      "Ġalgorithms": 4702,
      "published": 4703,
      "ĠCR": 4704,
      "Ġlabeled": 4705,
      "Ġstability": 4706,
      "Ġfilter": 4707,
      "ceed": 4708,
      "jug": 4709,
      "ict": 4710,
      "Ġec": 4711,
      "ĠGiven": 4712,
      "dim": 4713,
      "Ġmes": 4714,
      "Ġimplemented": 4715,
      "cqGG": 4716,
      "Ġcountry": 4717,
      "HP": 4718,
      "Ġcancers": 4719,
      "went": 4720,
      "Ġultr": 4721,
      "Ġextracellular": 4722,
      "oids": 4723,
      "acted": 4724,
      "Ġ500": 4725,
      "Ġâī¤": 4726,
      "no": 4727,
      "Ġepis": 4728,
      "Ġvertebr": 4729,
      "ĠWeb": 4730,
      "Ġsecretion": 4731,
      "sec": 4732,
      "Ġtypically": 4733,
      "Ġcommunication": 4734,
      "Ġtraditional": 4735,
      "Ġhospitals": 4736,
      "Ġvariations": 4737,
      "Ġrestricted": 4738,
      "Ġstored": 4739,
      "ometry": 4740,
      "Bs": 4741,
      "ework": 4742,
      "Ġ&": 4743,
      "Ġintern": 4744,
      "Ġplates": 4745,
      "Ġextensive": 4746,
      "Ġimpair": 4747,
      "ergic": 4748,
      "baaS": 4749,
      "Ġjour": 4750,
      "ĠAfrican": 4751,
      "Ġregular": 4752,
      "Ġcolumn": 4753,
      "Ġretro": 4754,
      "Ġnucleus": 4755,
      "Ġsizes": 4756,
      "apped": 4757,
      "ĠIs": 4758,
      "HR": 4759,
      "Ġisoform": 4760,
      "Ġbegin": 4761,
      "Ġligand": 4762,
      "Ġendothelial": 4763,
      "Ġtrees": 4764,
      "Ġattention": 4765,
      "Ġformed": 4766,
      "Da": 4767,
      "Ġsocio": 4768,
      "Ġcytokine": 4769,
      "Ġmixture": 4770,
      "MM": 4771,
      "iology": 4772,
      "Ġstimuli": 4773,
      "Ġinformed": 4774,
      "Ġlargely": 4775,
      "ĠCal": 4776,
      "Ġpartial": 4777,
      "Ġbenefits": 4778,
      "Ġobjective": 4779,
      "Ġemph": 4780,
      "Ġposterior": 4781,
      "Ġdownstream": 4782,
      "protein": 4783,
      "Ġtet": 4784,
      "ĠHLA": 4785,
      "Ġori": 4786,
      "itor": 4787,
      "activation": 4788,
      "Ġuses": 4789,
      "ĠMD": 4790,
      "Ġpractices": 4791,
      "ĠBios": 4792,
      "41": 4793,
      "ĠMe": 4794,
      "EL": 4795,
      "Ġpanc": 4796,
      "Ġsubgroup": 4797,
      "Ġkid": 4798,
      "ire": 4799,
      "Ġdeaths": 4800,
      "Ġbio": 4801,
      "Ġbuil": 4802,
      "load": 4803,
      "Ġbox": 4804,
      "55": 4805,
      "pected": 4806,
      "ĠThree": 4807,
      "Ġangi": 4808,
      "Ġrepresenting": 4809,
      "Ġpreparation": 4810,
      "Ġchemotherapy": 4811,
      "Ġprop": 4812,
      "Ġinstance": 4813,
      "Ġrecognition": 4814,
      "Ġalignments": 4815,
      "Ġmemory": 4816,
      "ĠIV": 4817,
      "Ġpredominant": 4818,
      "theless": 4819,
      "Ġrecords": 4820,
      "ĠSch": 4821,
      "Ġparticipate": 4822,
      "Ġdirection": 4823,
      "Ġadministered": 4824,
      "Ġpossibly": 4825,
      "Ġpolymorphisms": 4826,
      "Ġreturn": 4827,
      "aken": 4828,
      "ospital": 4829,
      "Ġgrad": 4830,
      "ĠMod": 4831,
      "Ġmotor": 4832,
      "helium": 4833,
      "Ġrapidly": 4834,
      "ĠNC": 4835,
      "ams": 4836,
      "umin": 4837,
      "Ġglyc": 4838,
      "ifest": 4839,
      "Ġcortex": 4840,
      "46": 4841,
      "Ġpig": 4842,
      "Ġdefine": 4843,
      "ĠmiRNA": 4844,
      "Ġuptake": 4845,
      "ignific": 4846,
      "ylated": 4847,
      "Ġmigration": 4848,
      "Ġkit": 4849,
      "Ġresistant": 4850,
      "ĠSF": 4851,
      "Ġidentifying": 4852,
      "Ġsettings": 4853,
      "Ġconsult": 4854,
      "Ġactual": 4855,
      "ah": 4856,
      "ĠES": 4857,
      "ĠID": 4858,
      "Ġnever": 4859,
      "Ġcreated": 4860,
      "Ġsem": 4861,
      "Ġarrays": 4862,
      "Ġobesity": 4863,
      "Ġcytos": 4864,
      "Ġcovari": 4865,
      "Ġbarri": 4866,
      "Ġsubsequently": 4867,
      "ferences": 4868,
      "Ġcentrifug": 4869,
      "function": 4870,
      "Ġshared": 4871,
      "ameter": 4872,
      "bal": 4873,
      "Ġentry": 4874,
      "qaaiab": 4875,
      "Ġnormalized": 4876,
      "Ġcalcium": 4877,
      "Ġ1998": 4878,
      "pers": 4879,
      "Ġfer": 4880,
      "ocation": 4881,
      "Ġscientific": 4882,
      "Ġbronch": 4883,
      "Ġwa": 4884,
      "ontal": 4885,
      "Ġoutside": 4886,
      "Ġperiods": 4887,
      "Ġimmediately": 4888,
      "Ġpolymorphism": 4889,
      "ebr": 4890,
      "Ġvariant": 4891,
      "Ġpharmac": 4892,
      "rot": 4893,
      "Ġlocations": 4894,
      "ĠCP": 4895,
      "85": 4896,
      "ĠED": 4897,
      "elled": 4898,
      "aptic": 4899,
      "ĠNO": 4900,
      "Ġlibrary": 4901,
      "AM": 4902,
      "ĠProtein": 4903,
      "romb": 4904,
      "aints": 4905,
      "Ġconventional": 4906,
      "Ġrecruitment": 4907,
      "Ġextrem": 4908,
      "enari": 4909,
      "Ġextract": 4910,
      "values": 4911,
      "viral": 4912,
      "Ġresidue": 4913,
      "Ġeffectiveness": 4914,
      "ued": 4915,
      "ĠORF": 4916,
      "Ġtechnology": 4917,
      "angu": 4918,
      "\",": 4919,
      "Ġminimal": 4920,
      "Ġmagnitude": 4921,
      "Ġ65": 4922,
      "Ġextended": 4923,
      "Ġhyd": 4924,
      "aking": 4925,
      "IDS": 4926,
      "Ġspl": 4927,
      "Ġ2006": 4928,
      "Ġtract": 4929,
      "yroid": 4930,
      "Ġtwice": 4931,
      "Ġtransition": 4932,
      "Ġpartners": 4933,
      "itiz": 4934,
      "Bank": 4935,
      "Ġped": 4936,
      "Ġarrow": 4937,
      "Ġinitiation": 4938,
      "Ġtail": 4939,
      "Ġcontribution": 4940,
      "well": 4941,
      "Ġroles": 4942,
      "NT": 4943,
      "Ġasym": 4944,
      "inical": 4945,
      "Ġcapture": 4946,
      "kele": 4947,
      "ĠInstitute": 4948,
      "Ġaver": 4949,
      "yle": 4950,
      "ensities": 4951,
      "ĠLPS": 4952,
      "where": 4953,
      "ĠDep": 4954,
      "Ġrecommended": 4955,
      "LC": 4956,
      "Ġsexual": 4957,
      "tition": 4958,
      "Ġstop": 4959,
      "osqu": 4960,
      "Ġcomputed": 4961,
      "lammatory": 4962,
      "Ġacqui": 4963,
      "77": 4964,
      "prising": 4965,
      "www": 4966,
      "ohist": 4967,
      "Ġrisks": 4968,
      "Ġoccurrence": 4969,
      "Ġion": 4970,
      "Ġneuronal": 4971,
      "GC": 4972,
      "Ġcurves": 4973,
      "LR": 4974,
      "Ġheat": 4975,
      "get": 4976,
      "Ġeasily": 4977,
      "Ġsummary": 4978,
      "Ġreferred": 4979,
      "Ġcounts": 4980,
      "ensional": 4981,
      "Ġadhes": 4982,
      "Ġadjacent": 4983,
      "ĠSequ": 4984,
      "Ġvalidity": 4985,
      "Ġflex": 4986,
      "Ġrandomized": 4987,
      "oprotein": 4988,
      "Ġenrol": 4989,
      "abilities": 4990,
      "ĠNot": 4991,
      "Ġorient": 4992,
      "Ġnoise": 4993,
      "Ġabsol": 4994,
      "ience": 4995,
      "ply": 4996,
      "Ġtaking": 4997,
      "Ġreporting": 4998,
      "Ġframework": 4999,
      "ĠPPAR": 5000,
      "Ġlar": 5001,
      "Ġperf": 5002,
      "ĠPT": 5003,
      "Ġshor": 5004,
      "Ġurban": 5005,
      "uous": 5006,
      "Ġnote": 5007,
      "ĠHuman": 5008,
      "atform": 5009,
      "ĠPrevious": 5010,
      "Ġsatisf": 5011,
      "PC": 5012,
      "ercul": 5013,
      "Ġrepeats": 5014,
      "Ġstimulus": 5015,
      "Ġmob": 5016,
      "Ġinstead": 5017,
      "ĠNote": 5018,
      "aemy": 5019,
      "ĠMO": 5020,
      "ordance": 5021,
      "ifying": 5022,
      "Ġelectroph": 5023,
      "NOVA": 5024,
      "Ġreducing": 5025,
      "BA": 5026,
      "aaB": 5027,
      "Ġpersons": 5028,
      "used": 5029,
      "LS": 5030,
      "ĠMedical": 5031,
      "Ġgrade": 5032,
      "Ġequivalent": 5033,
      "ĠBMI": 5034,
      "Ġnone": 5035,
      "Ġrad": 5036,
      "Ġzero": 5037,
      "Ġrural": 5038,
      "plate": 5039,
      "ĠELI": 5040,
      "hing": 5041,
      "bi": 5042,
      "03": 5043,
      "Ġvectors": 5044,
      "osquito": 5045,
      "ĠMR": 5046,
      "ĠAustr": 5047,
      "ember": 5048,
      "Ġresolution": 5049,
      "Ġarticle": 5050,
      "Ġvit": 5051,
      "Ġvess": 5052,
      "rolog": 5053,
      "Ġhour": 5054,
      "Ġregim": 5055,
      "Ġtranslation": 5056,
      "ĠÂµ": 5057,
      "olecular": 5058,
      "ĠAfrica": 5059,
      "Ġcognitive": 5060,
      "axis": 5061,
      "NC": 5062,
      "Ġnine": 5063,
      "Ġcircum": 5064,
      "Ġdivergence": 5065,
      "Ġsituation": 5066,
      "Ġca": 5067,
      "Ġexperienced": 5068,
      "odium": 5069,
      "icians": 5070,
      "Ġinfants": 5071,
      "acing": 5072,
      "iring": 5073,
      "Ġvaried": 5074,
      "Ġtargeted": 5075,
      "Ġnull": 5076,
      "igen": 5077,
      "ĠCor": 5078,
      "acco": 5079,
      "Ġplacebo": 5080,
      "Ġreceiving": 5081,
      "Ġexamples": 5082,
      "Ġfetal": 5083,
      "Ġstatistics": 5084,
      "Ġretrie": 5085,
      "Ġexhibited": 5086,
      "Ġdiverse": 5087,
      "Ġneutral": 5088,
      "Ġphenomen": 5089,
      "Ġreliable": 5090,
      "ili": 5091,
      "Ġassembly": 5092,
      "Ġadoles": 5093,
      "mL": 5094,
      "Ġgave": 5095,
      "hetic": 5096,
      "osin": 5097,
      "Ġtumours": 5098,
      "hal": 5099,
      "amic": 5100,
      "with": 5101,
      "osomes": 5102,
      "ips": 5103,
      "Ġ38": 5104,
      "Ġcommunities": 5105,
      "lear": 5106,
      "ĠQu": 5107,
      "ister": 5108,
      "Ġparasite": 5109,
      "igible": 5110,
      "63": 5111,
      "Ġparallel": 5112,
      "97": 5113,
      "Ġsplice": 5114,
      "Ġlisted": 5115,
      "ficial": 5116,
      "Ġsuit": 5117,
      "iciently": 5118,
      "Ġefforts": 5119,
      "oxin": 5120,
      "ytic": 5121,
      "lands": 5122,
      "Ġcoron": 5123,
      "Ġdetectable": 5124,
      "Ġconfound": 5125,
      "Ġcopies": 5126,
      "Ġtherm": 5127,
      "ĠSDS": 5128,
      "ĠAdditionally": 5129,
      "Ġmanufacturer": 5130,
      "Ġrespective": 5131,
      "ĠÎ³": 5132,
      "roke": 5133,
      "Ġinfectious": 5134,
      "ĠSV": 5135,
      "Ġcomplications": 5136,
      "âĦ": 5137,
      "Ġarthritis": 5138,
      "Ġreviewed": 5139,
      "ervical": 5140,
      "ĠImmun": 5141,
      "icients": 5142,
      "inflammatory": 5143,
      "weight": 5144,
      "ĠsiRNA": 5145,
      "Ġapplications": 5146,
      "Ġblack": 5147,
      "ĠPB": 5148,
      "Ġcollagen": 5149,
      "ogens": 5150,
      "keletal": 5151,
      "ostic": 5152,
      "Ġreliability": 5153,
      "Ġseed": 5154,
      "negative": 5155,
      "Ġmaintain": 5156,
      "Ġmicroscopy": 5157,
      "Ġknock": 5158,
      "Ġ55": 5159,
      "Ġ31": 5160,
      "tility": 5161,
      "Ġrecognized": 5162,
      "Ġlogistic": 5163,
      "Ġpes": 5164,
      "Ġinitially": 5165,
      "Ġreconstr": 5166,
      "Ġmolecule": 5167,
      "can": 5168,
      "Ġmedication": 5169,
      "kin": 5170,
      "Ġscenari": 5171,
      "Ġincome": 5172,
      "Ġpolymerase": 5173,
      "itten": 5174,
      "Ġseas": 5175,
      "Ġcombinations": 5176,
      "Ġhab": 5177,
      "Ġnearly": 5178,
      "Ġmultiv": 5179,
      "ĠJap": 5180,
      "ided": 5181,
      "Ġacqu": 5182,
      "Ġexhibit": 5183,
      "ĠPI": 5184,
      "ĠMedic": 5185,
      "ĠMul": 5186,
      "Ġinstruc": 5187,
      "vitrogen": 5188,
      "OH": 5189,
      "derived": 5190,
      "Ġsystemic": 5191,
      "ped": 5192,
      "mean": 5193,
      "Ġcompart": 5194,
      "uz": 5195,
      "pass": 5196,
      "Ġachieve": 5197,
      "Ġexplanation": 5198,
      "EA": 5199,
      "ham": 5200,
      "lytic": 5201,
      "Ġavailability": 5202,
      "Ġcarbon": 5203,
      "III": 5204,
      "jabb": 5205,
      "acement": 5206,
      "64": 5207,
      "Ġsupernat": 5208,
      "Ġlargest": 5209,
      "gaaWcbaG": 5210,
      "Ġdocumented": 5211,
      "Ġpredictive": 5212,
      "Ġauto": 5213,
      "Ġtemporal": 5214,
      "Ġfailed": 5215,
      "Ġweb": 5216,
      "Ġannotated": 5217,
      "Ġquite": 5218,
      "Ġlowest": 5219,
      "Ġsusp": 5220,
      "ĠDifferen": 5221,
      "otypic": 5222,
      "patient": 5223,
      "anding": 5224,
      "Ġconsists": 5225,
      "Ġmothers": 5226,
      "hyth": 5227,
      "Ġmosquito": 5228,
      "Ġsurround": 5229,
      "Ġonto": 5230,
      "Ġformal": 5231,
      "ocl": 5232,
      "Ġvisits": 5233,
      "ignificant": 5234,
      "Ġprospec": 5235,
      "Es": 5236,
      "Ġdrop": 5237,
      "erculosis": 5238,
      "Ġoverlap": 5239,
      "Ġcode": 5240,
      "Ġfung": 5241,
      "likely": 5242,
      "Ġov": 5243,
      "Ġorganism": 5244,
      "ills": 5245,
      "ĠDr": 5246,
      "Ġhaem": 5247,
      "Ġpel": 5248,
      "',": 5249,
      "ĠCr": 5250,
      "ĠBLAST": 5251,
      "Ġintermediate": 5252,
      "Ġconclusion": 5253,
      "Ġmatched": 5254,
      "Ġthick": 5255,
      "ĠRP": 5256,
      "Ġlost": 5257,
      "haps": 5258,
      "Ġenough": 5259,
      "titud": 5260,
      "Ġvisit": 5261,
      "Ġparts": 5262,
      "sm": 5263,
      "erated": 5264,
      "vate": 5265,
      "ĠSS": 5266,
      "ying": 5267,
      "Ġmentioned": 5268,
      "ĠPF": 5269,
      "Ġprogress": 5270,
      "Ġinn": 5271,
      "ĠStr": 5272,
      "Ġactin": 5273,
      "Ġspect": 5274,
      "Ġinterface": 5275,
      "96": 5276,
      "Ġsegments": 5277,
      "Ġmakes": 5278,
      "Ġshare": 5279,
      "ĠMT": 5280,
      "Ġsaline": 5281,
      "Ġshape": 5282,
      "Ġlum": 5283,
      "Ġpromoters": 5284,
      "Ġdistinguish": 5285,
      "Ġcoefficients": 5286,
      "Ġ33": 5287,
      "Ġmarg": 5288,
      "leep": 5289,
      "Ġoligonucle": 5290,
      "Ġabsolute": 5291,
      "Ġextracts": 5292,
      "Ġanterior": 5293,
      "obic": 5294,
      "Ġrev": 5295,
      "BV": 5296,
      "tors": 5297,
      "0001": 5298,
      "amide": 5299,
      "Ġscan": 5300,
      "Ġairway": 5301,
      "Ġtransferred": 5302,
      "sequently": 5303,
      "Ġsubunit": 5304,
      "Ġnerve": 5305,
      "Ġextension": 5306,
      "Ġplatform": 5307,
      "Ġ:": 5308,
      "ĠMin": 5309,
      "ĠDR": 5310,
      "ulatory": 5311,
      "ĠGC": 5312,
      "Ġstimulated": 5313,
      "Ġsulf": 5314,
      "Ġhr": 5315,
      "ĠBR": 5316,
      "73": 5317,
      "Ġkidney": 5318,
      "Ġgrowing": 5319,
      "Ġcomprehensive": 5320,
      "Ġoxidative": 5321,
      "rest": 5322,
      "Ġtraits": 5323,
      "Ġodds": 5324,
      "Ġmember": 5325,
      "ilib": 5326,
      "ubiqu": 5327,
      "Ġregist": 5328,
      "Ġgoal": 5329,
      "Ġalpha": 5330,
      "oglob": 5331,
      "Ġsense": 5332,
      "Ġhelped": 5333,
      "thal": 5334,
      "ĠArab": 5335,
      "ĠControl": 5336,
      "Ġbov": 5337,
      "Ġdepends": 5338,
      "ĠNever": 5339,
      "Ġeconomic": 5340,
      "Ġunlikely": 5341,
      "ada": 5342,
      "Ġranging": 5343,
      "Ġrepresentation": 5344,
      "aemia": 5345,
      "oot": 5346,
      "Ġconsisted": 5347,
      "Ġovari": 5348,
      "Ġcenter": 5349,
      "iltr": 5350,
      "Ġclinic": 5351,
      "Ġintegrated": 5352,
      "organ": 5353,
      "Ġtransgenic": 5354,
      "Ġcover": 5355,
      "Ġfibroblasts": 5356,
      "Ġreporter": 5357,
      "Ġmorb": 5358,
      "Ġstarting": 5359,
      "ĠFollow": 5360,
      "ĠAC": 5361,
      "Ġwal": 5362,
      "Ġkind": 5363,
      "Ġallowing": 5364,
      "Ġ96": 5365,
      "ĠStatistic": 5366,
      "Ġoccurring": 5367,
      "economic": 5368,
      "abbit": 5369,
      "Ġshift": 5370,
      "Ġband": 5371,
      "Ġchanged": 5372,
      "ĠMP": 5373,
      "Ġneutroph": 5374,
      "Ġdynamics": 5375,
      "Ġgradi": 5376,
      "Ġrecruited": 5377,
      "Ġpresentation": 5378,
      "Ġreached": 5379,
      "Ġchannel": 5380,
      "Ġchromatin": 5381,
      "ĠPK": 5382,
      "ĠVal": 5383,
      "UC": 5384,
      "Ġdepending": 5385,
      "Ġaware": 5386,
      "ĠAff": 5387,
      "Ġpromote": 5388,
      "Ġget": 5389,
      "ranes": 5390,
      "oral": 5391,
      "Ġlateral": 5392,
      "Ġchim": 5393,
      "ĠDM": 5394,
      "Ġcolor": 5395,
      "Ġextraction": 5396,
      "Ġseparately": 5397,
      "ĠMI": 5398,
      "ble": 5399,
      "Ġcervical": 5400,
      "opsis": 5401,
      "Ġhypertension": 5402,
      "Ġintegration": 5403,
      "ĠNevertheless": 5404,
      "78": 5405,
      "eter": 5406,
      "62": 5407,
      "Ġrecovery": 5408,
      "Ġnumerous": 5409,
      "Ġindirect": 5410,
      "Ġhaplotypes": 5411,
      "Ġcis": 5412,
      "Ġtrigg": 5413,
      "ards": 5414,
      "Ġwords": 5415,
      "Ġsigns": 5416,
      "Ġarticles": 5417,
      "scale": 5418,
      "change": 5419,
      "Ġclinically": 5420,
      "Ġmalignant": 5421,
      "âĦ¢": 5422,
      "Ġfacilitate": 5423,
      "Ġdefects": 5424,
      "ĠExpression": 5425,
      "Ġcommerc": 5426,
      "elves": 5427,
      "tilage": 5428,
      "na": 5429,
      "plas": 5430,
      "jabd": 5431,
      "TS": 5432,
      "nels": 5433,
      "Ġ1997": 5434,
      "Ġabsent": 5435,
      "rocytes": 5436,
      "xiety": 5437,
      "aaBaaale": 5438,
      "illance": 5439,
      "ierarch": 5440,
      "Ġtoler": 5441,
      "Ġwhy": 5442,
      "night": 5443,
      "ĠBut": 5444,
      "Ġ$": 5445,
      "Ġsimulated": 5446,
      "\".": 5447,
      "Ġsimulation": 5448,
      "family": 5449,
      "Ġsafety": 5450,
      "Ġparticipation": 5451,
      "Ġinsertion": 5452,
      "ĠOverall": 5453,
      "fort": 5454,
      "Ġlineage": 5455,
      "aft": 5456,
      "ĠIR": 5457,
      "Ġobvious": 5458,
      "riched": 5459,
      "Ġaer": 5460,
      "luores": 5461,
      "Ġhomologous": 5462,
      "uting": 5463,
      "Ġcompe": 5464,
      "Ġexclus": 5465,
      "Ġventi": 5466,
      "):": 5467,
      "Ġprotection": 5468,
      "The": 5469,
      "actin": 5470,
      "Ġnuclei": 5471,
      "Ġcoronary": 5472,
      "Ġconsiderable": 5473,
      "reed": 5474,
      "class": 5475,
      "Ġlayer": 5476,
      "link": 5477,
      "Ġfewer": 5478,
      "atch": 5479,
      "Ġlet": 5480,
      "Ġvalidation": 5481,
      "char": 5482,
      "ĠAS": 5483,
      "onymous": 5484,
      "ĠGPs": 5485,
      "Ġthereby": 5486,
      "Ġblocks": 5487,
      "licit": 5488,
      "Ġassumption": 5489,
      "Ġclone": 5490,
      "Ġdynamic": 5491,
      "Ġuncertain": 5492,
      "Ġperceived": 5493,
      "Ġinhibited": 5494,
      "idine": 5495,
      "Ġaffinity": 5496,
      "amination": 5497,
      "chem": 5498,
      "ĠML": 5499,
      "ĠDet": 5500,
      "ĠELISA": 5501,
      "Ġgra": 5502,
      "ĠMater": 5503,
      "Ġdiameter": 5504,
      "Ġalterations": 5505,
      "83": 5506,
      "YP": 5507,
      "Ġ42": 5508,
      "ĠÂ°": 5509,
      "Ġchromosomal": 5510,
      "ovi": 5511,
      "Ġmild": 5512,
      "luding": 5513,
      "ĠCenter": 5514,
      "ĠFour": 5515,
      "illary": 5516,
      "yond": 5517,
      "Ġsodium": 5518,
      "Ġreceive": 5519,
      "osp": 5520,
      "Ġranged": 5521,
      "OP": 5522,
      "otin": 5523,
      "ĠEuropean": 5524,
      "Ġattemp": 5525,
      "69": 5526,
      "Ġforward": 5527,
      "resh": 5528,
      "dis": 5529,
      "ĠEGF": 5530,
      "riefly": 5531,
      "bp": 5532,
      "Ġartery": 5533,
      "Ġparent": 5534,
      "adian": 5535,
      "54": 5536,
      "ensions": 5537,
      "Ġfeedback": 5538,
      "Ġcomparative": 5539,
      "herent": 5540,
      "ĠCV": 5541,
      "omer": 5542,
      "Ġinjected": 5543,
      "Ġsubjected": 5544,
      "taneous": 5545,
      "Ġadop": 5546,
      "ĠVEGF": 5547,
      "79": 5548,
      "Ġadi": 5549,
      "Ġstroke": 5550,
      "Ġrise": 5551,
      "ecutive": 5552,
      "Ġassist": 5553,
      "ĠHPV": 5554,
      "cqGH": 5555,
      "Ġgerm": 5556,
      "ĠBio": 5557,
      "era": 5558,
      "Ġqualit": 5559,
      "AF": 5560,
      "ĠRep": 5561,
      "oor": 5562,
      "Gen": 5563,
      "Ġones": 5564,
      "Ġdram": 5565,
      "ĠPr": 5566,
      "Ġlesion": 5567,
      "Ġprecurs": 5568,
      "Ġventricular": 5569,
      "Ġarm": 5570,
      "mia": 5571,
      "Ġstrand": 5572,
      "Ġmiddle": 5573,
      "Ġmorbidity": 5574,
      "Ġfiles": 5575,
      "atics": 5576,
      "Ġcomputational": 5577,
      "Ġbiochemical": 5578,
      "ĠHospital": 5579,
      "Ġinvasive": 5580,
      "ymet": 5581,
      "Ġtheore": 5582,
      "Ġabundance": 5583,
      "Ġms": 5584,
      "Ġhor": 5585,
      "ĠSouth": 5586,
      "ĠPub": 5587,
      "ĠPrim": 5588,
      "break": 5589,
      "Ġkine": 5590,
      "Ġfitness": 5591,
      "Ġlymphocytes": 5592,
      "Ġloop": 5593,
      "Ġinhibitory": 5594,
      "Ġhormone": 5595,
      "poses": 5596,
      "Ġreproductive": 5597,
      "Ġalb": 5598,
      "Ġmove": 5599,
      "containing": 5600,
      "Ġnucleotides": 5601,
      "represent": 5602,
      "Ġtob": 5603,
      "stances": 5604,
      "Ġfluorescent": 5605,
      "ĠStudy": 5606,
      "Ġmeasuring": 5607,
      "Ġmach": 5608,
      "FA": 5609,
      "Ġtobacco": 5610,
      "down": 5611,
      "Ġcartilage": 5612,
      "Ġvolun": 5613,
      "ĠCX": 5614,
      "Ġvalidated": 5615,
      "opsy": 5616,
      "Ġbiology": 5617,
      "Ġrestriction": 5618,
      "Ġuter": 5619,
      "Ġonline": 5620,
      "oxide": 5621,
      "ĠLabor": 5622,
      "ĠHCV": 5623,
      "urg": 5624,
      "osyn": 5625,
      "ĠNon": 5626,
      "plies": 5627,
      "Ġartif": 5628,
      "Ġcord": 5629,
      "urine": 5630,
      "Ġprem": 5631,
      "atories": 5632,
      "Ġinfluenced": 5633,
      "Ġord": 5634,
      "Ġmovement": 5635,
      "tenance": 5636,
      "ĠICU": 5637,
      "EG": 5638,
      "Ġsubstitution": 5639,
      "ĠDec": 5640,
      "Ġregional": 5641,
      "ellow": 5642,
      "aaa": 5643,
      "Ġconsequence": 5644,
      "ilibrium": 5645,
      "04": 5646,
      "plantation": 5647,
      "Ġevident": 5648,
      "dimensional": 5649,
      "WF": 5650,
      "ho": 5651,
      "ymetrix": 5652,
      "Ġsleep": 5653,
      "Ġplays": 5654,
      "Ġways": 5655,
      "ĠSam": 5656,
      "ĠSo": 5657,
      "Ġthems": 5658,
      "Ġiron": 5659,
      "isition": 5660,
      "Ġmar": 5661,
      "Ġpartially": 5662,
      "anned": 5663,
      "Ġintrons": 5664,
      "Ġpneumon": 5665,
      "ria": 5666,
      "Ġresidual": 5667,
      "Ġbovine": 5668,
      "Ġinterviews": 5669,
      "Ġthemselves": 5670,
      "ĠEM": 5671,
      "Ġmatch": 5672,
      "Ġburden": 5673,
      "icles": 5674,
      "Ġinfluenz": 5675,
      "Ġpractition": 5676,
      "ĠIP": 5677,
      "aemO": 5678,
      "Ġmorphology": 5679,
      "arum": 5680,
      "jabc": 5681,
      "Ġdors": 5682,
      "copy": 5683,
      "SM": 5684,
      "Ġcaps": 5685,
      "Ġprogen": 5686,
      "Ġspinal": 5687,
      "Ġ1996": 5688,
      "nee": 5689,
      "Ġ34": 5690,
      "Ġtargeting": 5691,
      "Ġparental": 5692,
      "ike": 5693,
      "Ġaxis": 5694,
      "ĠMAP": 5695,
      "Ġadvanced": 5696,
      "Ġfore": 5697,
      "iences": 5698,
      "Ġpen": 5699,
      "Ġcleavage": 5700,
      "ĠCM": 5701,
      "ĠAL": 5702,
      "oper": 5703,
      "Ġlangu": 5704,
      "Ġforce": 5705,
      "Ġdrafted": 5706,
      "Ġdominant": 5707,
      "Ġroutine": 5708,
      "Ġregulate": 5709,
      "Ġsurveys": 5710,
      "Ġcytoplasmic": 5711,
      "Ġadmission": 5712,
      "Ġresource": 5713,
      "Ġdescription": 5714,
      "Ġresidents": 5715,
      "Ġactually": 5716,
      "times": 5717,
      "Ġestimation": 5718,
      "Ġmembranes": 5719,
      "Ġven": 5720,
      "Ġcollabor": 5721,
      "Ġeye": 5722,
      "58": 5723,
      "Ġwritten": 5724,
      "Ġaud": 5725,
      "OM": 5726,
      "ectively": 5727,
      "Ġegg": 5728,
      "Ġcortical": 5729,
      "Ġtel": 5730,
      "Ġnan": 5731,
      "Ġide": 5732,
      "Ġpestic": 5733,
      "Ġaccessed": 5734,
      "Ġconsequences": 5735,
      "la": 5736,
      "ottom": 5737,
      "ĠWT": 5738,
      "Ġquery": 5739,
      "Ġsuitable": 5740,
      "lets": 5741,
      "Ġdecline": 5742,
      "ubiquit": 5743,
      "Ġfed": 5744,
      "Ġmostly": 5745,
      "Ġparasites": 5746,
      "ĠDC": 5747,
      "Ġinvolves": 5748,
      "Ġtheory": 5749,
      "Ġmyocardi": 5750,
      "ooth": 5751,
      "Ġprev": 5752,
      "ĠEven": 5753,
      "ĠBay": 5754,
      "Ġsubc": 5755,
      "Ġheight": 5756,
      "Ġtryp": 5757,
      "ulative": 5758,
      "PR": 5759,
      "Ġhen": 5760,
      "Ġexpans": 5761,
      "Ġcorresponds": 5762,
      "Xaq": 5763,
      "Ġcruc": 5764,
      "Ġgovernment": 5765,
      "Ġacquired": 5766,
      "Ġovernight": 5767,
      "Ġbeta": 5768,
      "Ġunclear": 5769,
      "Ġscoring": 5770,
      "Ġ300": 5771,
      "Ġexplore": 5772,
      "Ġnurses": 5773,
      "Ġpresum": 5774,
      "Ġcasp": 5775,
      "Ġanalog": 5776,
      "tivity": 5777,
      "Ġdisch": 5778,
      "Ġsubt": 5779,
      "Ġspontaneous": 5780,
      "Ġsent": 5781,
      "adder": 5782,
      "ccq": 5783,
      "tub": 5784,
      "Ġstrat": 5785,
      "Ġcheck": 5786,
      "Ġdiscovery": 5787,
      "Ġsimply": 5788,
      "Ġpert": 5789,
      "ĠnM": 5790,
      "Ġhomology": 5791,
      "Ġincom": 5792,
      "Ġencoded": 5793,
      "Ġbeyond": 5794,
      "ĠkDa": 5795,
      "74": 5796,
      "Ġadhesion": 5797,
      "Ġsu": 5798,
      "Ġovarian": 5799,
      "ĠFollowing": 5800,
      "length": 5801,
      "ĠHD": 5802,
      "Ġencour": 5803,
      "Ġcreate": 5804,
      "acet": 5805,
      "Ġexception": 5806,
      "Ġchannels": 5807,
      "Ġepithelium": 5808,
      "inus": 5809,
      "Ġteam": 5810,
      "expression": 5811,
      "Ġphosphate": 5812,
      "oclonal": 5813,
      "des": 5814,
      "ĠHence": 5815,
      "opo": 5816,
      "Ġuntreated": 5817,
      "Ġembryonic": 5818,
      "ecting": 5819,
      "Ġsolid": 5820,
      "Ġadequate": 5821,
      "Ġacquisition": 5822,
      "Ġcreat": 5823,
      "urally": 5824,
      "ĠAF": 5825,
      "plete": 5826,
      "Ġrecommendations": 5827,
      "Ġoutbreak": 5828,
      "Ġagent": 5829,
      "Ġtuberculosis": 5830,
      "Ġserve": 5831,
      "Ġnormally": 5832,
      "iabg": 5833,
      "Ġmaps": 5834,
      "unctional": 5835,
      "Ġves": 5836,
      "versely": 5837,
      "gens": 5838,
      "Ġimmunohist": 5839,
      "Ġbehavioral": 5840,
      "94": 5841,
      "ologists": 5842,
      "Ġthromb": 5843,
      "arr": 5844,
      "Ġsuperv": 5845,
      "Ġpossess": 5846,
      "Ġrule": 5847,
      "Ġtit": 5848,
      "Ġprotocols": 5849,
      "Ġheterogeneity": 5850,
      "Â±": 5851,
      "Ġfields": 5852,
      "Ġroot": 5853,
      "treatment": 5854,
      "idopsis": 5855,
      "ĠNS": 5856,
      "aving": 5857,
      "herence": 5858,
      "Ġmode": 5859,
      "CH": 5860,
      "Ġsynthes": 5861,
      "76": 5862,
      "phal": 5863,
      "Ġmicrob": 5864,
      "Ġelse": 5865,
      "ĠTotal": 5866,
      "Ġstre": 5867,
      "adj": 5868,
      "Ġisolation": 5869,
      "Ġhierarch": 5870,
      "Ġempir": 5871,
      "Ġurine": 5872,
      "Ġsimulations": 5873,
      "Ġlive": 5874,
      "ancies": 5875,
      "dominal": 5876,
      "Ġsn": 5877,
      "72": 5878,
      "pG": 5879,
      "Ġbelieve": 5880,
      "Ġserious": 5881,
      "Ġsuccessfully": 5882,
      "iabc": 5883,
      "Ġdietary": 5884,
      "ico": 5885,
      "ĠDise": 5886,
      "Ġtransformation": 5887,
      "Ġmaintenance": 5888,
      "eryth": 5889,
      "Ġcapable": 5890,
      "Ġdistances": 5891,
      "Ġanxiety": 5892,
      "Ġrecording": 5893,
      "mat": 5894,
      "Ġcomplexity": 5895,
      "Ġaligned": 5896,
      "Ġmoder": 5897,
      "Ġmodification": 5898,
      "inger": 5899,
      "ĠMet": 5900,
      "Ġdonor": 5901,
      "Ġdetermining": 5902,
      "Ġimplicated": 5903,
      "daWgaaWcbaG": 5904,
      "uary": 5905,
      "Ġtrained": 5906,
      "ench": 5907,
      "Ġq": 5908,
      "ident": 5909,
      "activated": 5910,
      "Ġconform": 5911,
      "Ġinfiltr": 5912,
      "Ġreading": 5913,
      "Ġmeet": 5914,
      "ĠESTs": 5915,
      "ĠLD": 5916,
      "Ġsimultaneously": 5917,
      "lysis": 5918,
      "Ġspot": 5919,
      "Ġdraft": 5920,
      "Ġrank": 5921,
      "Ġars": 5922,
      "ening": 5923,
      "Ġmature": 5924,
      "Ġinstrument": 5925,
      "Am": 5926,
      "Ġestrogen": 5927,
      "aaSbaaS": 5928,
      "orld": 5929,
      "ĠANOVA": 5930,
      "Ġanalyze": 5931,
      "Ġplanning": 5932,
      "Ġdemographic": 5933,
      "/âĪĴ": 5934,
      "Ġround": 5935,
      "Ġdiscussion": 5936,
      "Ġbranch": 5937,
      "Ġhence": 5938,
      "gal": 5939,
      "coding": 5940,
      "Ġsubstantially": 5941,
      "tes": 5942,
      "ees": 5943,
      "Ġlists": 5944,
      "Ġanaly": 5945,
      "Ġlineages": 5946,
      "Ġspectrum": 5947,
      "Ġcryst": 5948,
      "ĠNI": 5949,
      "RS": 5950,
      "ĠHis": 5951,
      ".\"": 5952,
      "88": 5953,
      "antly": 5954,
      "ĠArabidopsis": 5955,
      "qG": 5956,
      "utional": 5957,
      "anted": 5958,
      "atus": 5959,
      "Ġinoc": 5960,
      "Ġbeginning": 5961,
      "Ġfresh": 5962,
      "Ġconcl": 5963,
      "Ġmeaning": 5964,
      "EV": 5965,
      "Ġflank": 5966,
      "ĠGA": 5967,
      "Ġimpaired": 5968,
      "Ġotherwise": 5969,
      "Ġformat": 5970,
      "Ġdest": 5971,
      "Ġcontig": 5972,
      "Ġduplication": 5973,
      "Ġsupplemented": 5974,
      "Ġconsistently": 5975,
      "Ġsmokers": 5976,
      "Ġtook": 5977,
      "ociation": 5978,
      "Sigma": 5979,
      "Ġremoval": 5980,
      "Ġenriched": 5981,
      "Ġmilk": 5982,
      "tagon": 5983,
      "Ġpathogen": 5984,
      "aacqaI": 5985,
      "ocial": 5986,
      "Ġsuppress": 5987,
      "ache": 5988,
      "Ġconsisting": 5989,
      ",âĢĿ": 5990,
      "arcin": 5991,
      "Ġtechnical": 5992,
      "Ġseek": 5993,
      "Ġmicroarrays": 5994,
      "Ġspeed": 5995,
      "Ġelegans": 5996,
      "ĠIS": 5997,
      "ebraf": 5998,
      "Ġvarying": 5999,
      "Ġtransfection": 6000,
      "Ġemb": 6001,
      "Ġindicators": 6002,
      "natal": 6003,
      "ebrafish": 6004,
      "Ġcyclin": 6005,
      "squ": 6006,
      "Ġknee": 6007,
      "ĠMean": 6008,
      "ĠEff": 6009,
      "Ġprocessed": 6010,
      "Ġbehaviors": 6011,
      "Ġpositively": 6012,
      "Ġbecomes": 6013,
      "Ġaddressed": 6014,
      "alling": 6015,
      "Ġequation": 6016,
      "Ġcum": 6017,
      "thern": 6018,
      "Ġattempt": 6019,
      "Ġhttp": 6020,
      "Ġhemat": 6021,
      "Ġoffer": 6022,
      "Ġnative": 6023,
      "Ġexpand": 6024,
      "Ġinvestigators": 6025,
      "ĠAB": 6026,
      "Ġbalance": 6027,
      "Ġconceived": 6028,
      "Ġantagon": 6029,
      "Ġscales": 6030,
      "52": 6031,
      "Ġ150": 6032,
      "Ġmorphological": 6033,
      "ĠParticip": 6034,
      "St": 6035,
      "Ġtemplate": 6036,
      "Ġextremely": 6037,
      "Ġstabil": 6038,
      "ĠPlas": 6039,
      "agne": 6040,
      "aed": 6041,
      "Ġrevers": 6042,
      "Ġstandards": 6043,
      "Ġpathogenesis": 6044,
      "Ġlacking": 6045,
      "Ġbud": 6046,
      "Ġnormalization": 6047,
      "Ġindeed": 6048,
      "orption": 6049,
      "Ġitem": 6050,
      "Ġsurprising": 6051,
      "Ġdilution": 6052,
      "dehy": 6053,
      "Ba": 6054,
      "Invitrogen": 6055,
      "Ġabnormalities": 6056,
      "Ġname": 6057,
      "Ġmultivariate": 6058,
      "Ġoppos": 6059,
      "Ġface": 6060,
      "ĠEth": 6061,
      "Ġfeas": 6062,
      "Ġhistological": 6063,
      "Ġquestionnaires": 6064,
      "Ġmonoclonal": 6065,
      "Ġtrait": 6066,
      "iveness": 6067,
      "Ġthor": 6068,
      "Ġchi": 6069,
      "lication": 6070,
      "sub": 6071,
      "ana": 6072,
      "Ġsearches": 6073,
      "Ġchick": 6074,
      "atell": 6075,
      "Ġantigens": 6076,
      "Ġinvasion": 6077,
      "zen": 6078,
      "ĠRecently": 6079,
      "Ġsurveillance": 6080,
      "Ġdysfunction": 6081,
      "56": 6082,
      "iologic": 6083,
      "Ġfract": 6084,
      "NK": 6085,
      "Ġmodeling": 6086,
      "ectivity": 6087,
      "oe": 6088,
      "ystems": 6089,
      "Ġportion": 6090,
      "Ġthyroid": 6091,
      "Ġneither": 6092,
      "Ġextra": 6093,
      "Ġlocalized": 6094,
      "Ġdiluted": 6095,
      "rote": 6096,
      "enop": 6097,
      "Ġnons": 6098,
      "Ġmethodology": 6099,
      "Ġprolong": 6100,
      "-/-": 6101,
      "Ġuniform": 6102,
      "isions": 6103,
      "Ġpy": 6104,
      "Ġcrucial": 6105,
      "ĠStudies": 6106,
      "Ġfoll": 6107,
      "Ġaccoun": 6108,
      "Ġcomposed": 6109,
      "DE": 6110,
      "yes": 6111,
      "Ġdecreases": 6112,
      "pring": 6113,
      "Ġvaccination": 6114,
      "Ġshorter": 6115,
      "Ġdetermination": 6116,
      "DP": 6117,
      "Ġconcerns": 6118,
      "Ġidea": 6119,
      "Ġprofessional": 6120,
      "Ġattributed": 6121,
      "Ġimpairment": 6122,
      "Ġfacilities": 6123,
      "Ġreplicates": 6124,
      "Ġinstructions": 6125,
      "Ġhepat": 6126,
      "Ġdrinking": 6127,
      "Ġslides": 6128,
      "Ġdepart": 6129,
      "Ġselect": 6130,
      "Ġeducational": 6131,
      "Ġcloned": 6132,
      "Ġcham": 6133,
      "illin": 6134,
      "Ġyounger": 6135,
      "'t": 6136,
      "Ġcalculate": 6137,
      "ĠAffymetrix": 6138,
      "ady": 6139,
      "ission": 6140,
      "Ġimplications": 6141,
      "ilateral": 6142,
      "Ġsynovi": 6143,
      "urance": 6144,
      "Ġswit": 6145,
      "sense": 6146,
      "71": 6147,
      "Ġrecip": 6148,
      "Ġcerevis": 6149,
      "âĢ²-": 6150,
      "Ġprofessionals": 6151,
      "Ġannual": 6152,
      "Ġparticipant": 6153,
      "Ġconsidering": 6154,
      "ĠNorth": 6155,
      "Ġframe": 6156,
      "Ġmaximal": 6157,
      "Is": 6158,
      "ochemistry": 6159,
      "veolar": 6160,
      "ĠInf": 6161,
      "Ġunable": 6162,
      "apse": 6163,
      "Ġvul": 6164,
      "ded": 6165,
      "ĠMicro": 6166,
      "Ġgap": 6167,
      "Ġneon": 6168,
      "Ġreviews": 6169,
      "perim": 6170,
      "Ġdend": 6171,
      "Ġassume": 6172,
      "rose": 6173,
      "opic": 6174,
      "Ġsupports": 6175,
      "ĠInformation": 6176,
      "Ġintact": 6177,
      "adily": 6178,
      "ime": 6179,
      "Ġdoctors": 6180,
      "Ġlibraries": 6181,
      "iforn": 6182,
      "Ġbecame": 6183,
      "Ġconclude": 6184,
      "Ġattitud": 6185,
      "Ġmeta": 6186,
      "Ġassessing": 6187,
      "Ġcytot": 6188,
      "BR": 6189,
      "Ġinfluenza": 6190,
      "xy": 6191,
      "Ġtube": 6192,
      "ories": 6193,
      "Ġmetastatic": 6194,
      "ĠHigh": 6195,
      "tice": 6196,
      "cepted": 6197,
      "Ns": 6198,
      "pm": 6199,
      "Ġtrack": 6200,
      "hern": 6201,
      "Ġreflects": 6202,
      "Ad": 6203,
      "lig": 6204,
      "ucif": 6205,
      "ĠNP": 6206,
      "Ġcerevisiae": 6207,
      "Ġperhaps": 6208,
      "Ġuns": 6209,
      "Ġintestinal": 6210,
      "Ġannotations": 6211,
      "Ġubiquit": 6212,
      "Ġ1000": 6213,
      "recip": 6214,
      "acer": 6215,
      "ermal": 6216,
      "Ġelectron": 6217,
      "Ġconnected": 6218,
      "500": 6219,
      "OX": 6220,
      "aam": 6221,
      "Ġgives": 6222,
      "Ġgradient": 6223,
      "ĠBAL": 6224,
      "Ġmurine": 6225,
      "61": 6226,
      "itory": 6227,
      "ĠMg": 6228,
      "ĠFI": 6229,
      "Ġexpansion": 6230,
      "Ġconstructs": 6231,
      "Ġexistence": 6232,
      "ĠCC": 6233,
      "Ġquantified": 6234,
      "93": 6235,
      "low": 6236,
      "Ġdeple": 6237,
      "Ġsmooth": 6238,
      "Ġfeeding": 6239,
      "Ġreleased": 6240,
      "Ġinternational": 6241,
      "Ġphenotypic": 6242,
      "Ġprognostic": 6243,
      "Ġtraff": 6244,
      "ĠNK": 6245,
      "Ġmigr": 6246,
      "Nase": 6247,
      "titive": 6248,
      "ĠCommittee": 6249,
      "Ġwebs": 6250,
      "ĠCy": 6251,
      "Ġurinary": 6252,
      "Ġstarted": 6253,
      "Ġtransformed": 6254,
      "Ġpooled": 6255,
      "vance": 6256,
      "Ġsurrounding": 6257,
      "Ġplan": 6258,
      "ĠSL": 6259,
      "Ġpoorly": 6260,
      "Ġrod": 6261,
      "ĠRecent": 6262,
      "ĠUnder": 6263,
      "ĠCL": 6264,
      "Ġsusceptible": 6265,
      "Ġqualitative": 6266,
      "Ġbands": 6267,
      "ipl": 6268,
      "Ġhair": 6269,
      "Ġpredominantly": 6270,
      "Ġgeographic": 6271,
      "Ġ1995": 6272,
      "appro": 6273,
      "BM": 6274,
      "Ġnewly": 6275,
      "abetic": 6276,
      "Ġprospective": 6277,
      "inent": 6278,
      "Ġlanguage": 6279,
      "Ġfatty": 6280,
      "hydr": 6281,
      "Ġcontinued": 6282,
      "aemi": 6283,
      "Ġprotective": 6284,
      "ired": 6285,
      "Ġphenomenon": 6286,
      "ortic": 6287,
      "Ġjud": 6288,
      "Ġprincipal": 6289,
      "ather": 6290,
      "embrane": 6291,
      "Ġcompens": 6292,
      "Ġchance": 6293,
      "Ġethanol": 6294,
      "Ġmonitored": 6295,
      "vation": 6296,
      "Ġoverexpression": 6297,
      "Ġpal": 6298,
      "Ġsymb": 6299,
      "okine": 6300,
      "Ġren": 6301,
      "Ġble": 6302,
      "what": 6303,
      "ifornia": 6304,
      "Ġ#": 6305,
      "Ġexists": 6306,
      "Ġfalc": 6307,
      "Ġorgans": 6308,
      "Ġdeep": 6309,
      "Ġfractions": 6310,
      "Ġwave": 6311,
      "oxia": 6312,
      "Ġzebrafish": 6313,
      "Ġtraum": 6314,
      "atase": 6315,
      "ĠEP": 6316,
      "Ġdirected": 6317,
      "dehyde": 6318,
      "derly": 6319,
      "Ġshock": 6320,
      "abeaak": 6321,
      "iparum": 6322,
      "ailed": 6323,
      "cents": 6324,
      "jugated": 6325,
      "ends": 6326,
      "Ġ39": 6327,
      "berg": 6328,
      "ij": 6329,
      "reported": 6330,
      "Ġenter": 6331,
      "Ġcytoplasm": 6332,
      "mer": 6333,
      "Ġtasks": 6334,
      "strand": 6335,
      "Ġfever": 6336,
      "ensitive": 6337,
      "Ġamplitude": 6338,
      "ĠNum": 6339,
      "Ġpathogens": 6340,
      "Ġsubunits": 6341,
      "Rs": 6342,
      "Ġultras": 6343,
      "Ġkeep": 6344,
      "itone": 6345,
      "Ġproviders": 6346,
      "ĠRel": 6347,
      "ilities": 6348,
      "ĠCancer": 6349,
      "Ġgon": 6350,
      "Ġ1990": 6351,
      "itudinal": 6352,
      "Ġaffects": 6353,
      "Ġdemonstrates": 6354,
      "Ġcarrying": 6355,
      "Ġeffort": 6356,
      "ss": 6357,
      "Ġpil": 6358,
      "Ġlas": 6359,
      "ĠBriefly": 6360,
      "Ġpurch": 6361,
      "Ġdistric": 6362,
      "ament": 6363,
      "ĠPS": 6364,
      "51": 6365,
      "ART": 6366,
      "chron": 6367,
      "Ġderiv": 6368,
      "Ġattenu": 6369,
      "eptide": 6370,
      "ucid": 6371,
      "mental": 6372,
      "labeled": 6373,
      "Ġmetabolites": 6374,
      "IA": 6375,
      "59": 6376,
      "Ġlimitation": 6377,
      "ĠSwed": 6378,
      "Ġfalciparum": 6379,
      "resist": 6380,
      "bor": 6381,
      "otion": 6382,
      "Ġmapped": 6383,
      "arose": 6384,
      "agnetic": 6385,
      "Ch": 6386,
      "olding": 6387,
      "Ġinduces": 6388,
      "Ġetc": 6389,
      "Ġhard": 6390,
      "Ġapoptotic": 6391,
      "ĠCalifornia": 6392,
      "08": 6393,
      "Ġethnic": 6394,
      "Ġattr": 6395,
      "Ġadjustment": 6396,
      "ĠCYP": 6397,
      "Pbq": 6398,
      "Ġrh": 6399,
      "Ġstay": 6400,
      "ocamp": 6401,
      "gi": 6402,
      "Ġmess": 6403,
      "Ġhaz": 6404,
      "Ġtrends": 6405,
      "mut": 6406,
      "ĠClinical": 6407,
      "ĠChild": 6408,
      "Ġveget": 6409,
      "ori": 6410,
      "Ġyielded": 6411,
      "uciferase": 6412,
      "Ġmechanical": 6413,
      "Ġpackage": 6414,
      "Ġbiopsy": 6415,
      "Ġdetermin": 6416,
      "Ġsensory": 6417,
      "Ġter": 6418,
      "ĠBo": 6419,
      "Ġcomplementary": 6420,
      ".âĢĿ": 6421,
      "Ġisoforms": 6422,
      "Ġconsecutive": 6423,
      "eg": 6424,
      "Ġaccepted": 6425,
      "Ġweights": 6426,
      "Ġker": 6427,
      "Ġgland": 6428,
      "usp": 6429,
      "opes": 6430,
      "Ġstandardized": 6431,
      "Ġunderstood": 6432,
      "ley": 6433,
      "steine": 6434,
      "Ġsoluble": 6435,
      "US": 6436,
      "outhern": 6437,
      "Ġcontrolling": 6438,
      "risk": 6439,
      "ĠFran": 6440,
      "illing": 6441,
      "Ġindicator": 6442,
      "Ġelsewhere": 6443,
      "Ġschiz": 6444,
      "Ġcul": 6445,
      "Ġsimpl": 6446,
      "Ġfunding": 6447,
      "Ġmotion": 6448,
      "defined": 6449,
      "Ġunderwent": 6450,
      "Ġpsychological": 6451,
      "Ġconflic": 6452,
      "Ġdepic": 6453,
      "iquid": 6454,
      "Ġorientation": 6455,
      "Ġundergo": 6456,
      "Ġpredictor": 6457,
      "ĠWHO": 6458,
      "ĨĴ": 6459,
      "Ġterminal": 6460,
      "Ġtransient": 6461,
      "IT": 6462,
      "undred": 6463,
      "Ġ44": 6464,
      "Ġaccel": 6465,
      "teen": 6466,
      "Ġeffectively": 6467,
      "ĠScale": 6468,
      "Ġmetastasis": 6469,
      "Ġseparation": 6470,
      "ĠtRNA": 6471,
      "Ġscored": 6472,
      "Co": 6473,
      "Ġcathe": 6474,
      "ll": 6475,
      "inform": 6476,
      "Ġchildhood": 6477,
      "Ġaffecting": 6478,
      "Ġveh": 6479,
      "ĠBayes": 6480,
      "Ġdog": 6481,
      "Ġelectrophores": 6482,
      "rozen": 6483,
      "Ġ400": 6484,
      "ĠMon": 6485,
      "aay": 6486,
      "Ġprognosis": 6487,
      "Ġrelevance": 6488,
      "Ġpeaks": 6489,
      "ĠAA": 6490,
      "heum": 6491,
      "arged": 6492,
      "ĠTLR": 6493,
      "Ġplots": 6494,
      "Ġembryo": 6495,
      "Ġgest": 6496,
      "imer": 6497,
      "ippocamp": 6498,
      "Ġpurposes": 6499,
      "echnology": 6500,
      "gram": 6501,
      "Ġdeficiency": 6502,
      "ĠTris": 6503,
      "publication": 6504,
      "insic": 6505,
      "Ġphylogen": 6506,
      "ĠIGF": 6507,
      "Ġmotiv": 6508,
      "Ġcoordination": 6509,
      "Ġtransduction": 6510,
      "Ġelderly": 6511,
      "06": 6512,
      "Ġusage": 6513,
      "Ġunex": 6514,
      "reatic": 6515,
      "thesis": 6516,
      "Ġpublication": 6517,
      "Ġlact": 6518,
      "Ġemphas": 6519,
      "Ġpolar": 6520,
      "ĠSM": 6521,
      "%;": 6522,
      "Ġinvolve": 6523,
      "Ġdistal": 6524,
      "ened": 6525,
      "alia": 6526,
      "acting": 6527,
      "Ġreag": 6528,
      "Ġmatching": 6529,
      "SNP": 6530,
      "otrop": 6531,
      "Ġdegen": 6532,
      "Ġvalu": 6533,
      "lyc": 6534,
      "Ġmammals": 6535,
      "Ġprivate": 6536,
      "Ġsampled": 6537,
      "Ġvag": 6538,
      "ĠPG": 6539,
      "Ġ43": 6540,
      "Ġsupporting": 6541,
      "ĠFA": 6542,
      "Ġclim": 6543,
      "Ġcriterion": 6544,
      "Ġopportunity": 6545,
      "Ġhoriz": 6546,
      "Ġconsideration": 6547,
      "Ġgastro": 6548,
      "ĠThen": 6549,
      "spring": 6550,
      "chlor": 6551,
      "Ġclassif": 6552,
      "Ġhistone": 6553,
      "pread": 6554,
      "ocrine": 6555,
      "oxyl": 6556,
      "response": 6557,
      "Ġneighbor": 6558,
      "Ġinfant": 6559,
      "Ġprecision": 6560,
      "Ġnames": 6561,
      "asal": 6562,
      "Ġthym": 6563,
      "ĠRed": 6564,
      "Ġgenotyping": 6565,
      "eloc": 6566,
      "ema": 6567,
      "ĠDist": 6568,
      "Ġantim": 6569,
      "Ġvirul": 6570,
      "Ġhydroph": 6571,
      "GO": 6572,
      "ĠCanada": 6573,
      "Ġinitiated": 6574,
      "Ġeryth": 6575,
      "NE": 6576,
      "ools": 6577,
      "oxicity": 6578,
      "Ġer": 6579,
      "86": 6580,
      "Ġtelom": 6581,
      "Ġmyocardial": 6582,
      "ĠEp": 6583,
      "ĠOA": 6584,
      "Ġaccordance": 6585,
      "Ġconcerning": 6586,
      "inates": 6587,
      "Ġloading": 6588,
      "Ġtherapies": 6589,
      "Ġwound": 6590,
      "ĠÏĥ": 6591,
      "Ġaimed": 6592,
      "Ġclar": 6593,
      "anti": 6594,
      "Ġplastic": 6595,
      "Ġrequirements": 6596,
      "ift": 6597,
      "ĠMaterials": 6598,
      "Ġhydrogen": 6599,
      "entive": 6600,
      "Ġvirt": 6601,
      "umb": 6602,
      "linked": 6603,
      "Ġproximal": 6604,
      "ĠGl": 6605,
      "ĠTP": 6606,
      "PSS": 6607,
      "Ġcorrectly": 6608,
      "ĠBAC": 6609,
      "Ġpreced": 6610,
      "Ġwriting": 6611,
      "Ġdisability": 6612,
      "Ġmodifications": 6613,
      "Ġeligible": 6614,
      "vironments": 6615,
      "Ġdorsal": 6616,
      "lices": 6617,
      "Ġpapers": 6618,
      "Ġblind": 6619,
      "Ġhous": 6620,
      "Ġsed": 6621,
      "Ġplotted": 6622,
      "Ġanat": 6623,
      "Ġ94": 6624,
      "Ġreplacement": 6625,
      "ĠNaCl": 6626,
      "Ġprotease": 6627,
      "Ġmaterials": 6628,
      "ously": 6629,
      "Ġharves": 6630,
      "Ġabundant": 6631,
      "IM": 6632,
      "factory": 6633,
      "Ġhypothesized": 6634,
      "cor": 6635,
      "oted": 6636,
      "ozo": 6637,
      "aint": 6638,
      "Ġimmunity": 6639,
      "Ġvitamin": 6640,
      "Ġexceed": 6641,
      "ĠSyn": 6642,
      "aeqaa": 6643,
      "Ġequally": 6644,
      "Ġdied": 6645,
      "Ġarrest": 6646,
      "Ġlob": 6647,
      "Ġexplicit": 6648,
      "Ġinvestigations": 6649,
      "ĠInternational": 6650,
      "Ġdecisions": 6651,
      "ĠSal": 6652,
      "Ġinsuff": 6653,
      "aaw": 6654,
      "Ġce": 6655,
      "Ġhippocamp": 6656,
      "Ġspots": 6657,
      "Ġparticipating": 6658,
      "Ġsynaptic": 6659,
      "Ġtransform": 6660,
      "Ġappearance": 6661,
      "Ġwar": 6662,
      "Ġconcluded": 6663,
      "including": 6664,
      "Ġland": 6665,
      "ĠMal": 6666,
      "artment": 6667,
      "ATA": 6668,
      "MB": 6669,
      "phone": 6670,
      "ĠWorld": 6671,
      "Ġskills": 6672,
      "Ġconclusions": 6673,
      "Ab": 6674,
      "Ġdrawn": 6675,
      "Ġmethyl": 6676,
      "ĠPhys": 6677,
      "pen": 6678,
      "Ġpropose": 6679,
      "Ġischem": 6680,
      "ocarcin": 6681,
      "Ġmatter": 6682,
      "Ġanth": 6683,
      "Ġdifferentiated": 6684,
      "Ġdiges": 6685,
      "91": 6686,
      "ĠCB": 6687,
      "Ġneoplas": 6688,
      "Ġ41": 6689,
      "aim": 6690,
      "ĠEr": 6691,
      "Hg": 6692,
      "oxy": 6693,
      "Ġlinks": 6694,
      "Ġabdominal": 6695,
      "faces": 6696,
      "Ġhundred": 6697,
      "ceptions": 6698,
      "ĠmRNAs": 6699,
      "scill": 6700,
      "Ġbiosyn": 6701,
      "Ġbelieved": 6702,
      "Ġstated": 6703,
      "Ġobserve": 6704,
      "Ġkept": 6705,
      "Ġligands": 6706,
      "iers": 6707,
      "Ġrecurrence": 6708,
      "Ġeukaryotic": 6709,
      "Ġbed": 6710,
      "Ġlengths": 6711,
      "Ġsolutions": 6712,
      "ĠCOX": 6713,
      "Ġprecise": 6714,
      "inating": 6715,
      "cy": 6716,
      "orec": 6717,
      "caa": 6718,
      "ĠMan": 6719,
      "Ġchemicals": 6720,
      "Ġreadily": 6721,
      "Ġlarv": 6722,
      "ectomy": 6723,
      "Ġbeneficial": 6724,
      "ĠComparison": 6725,
      "Ġsignalling": 6726,
      "Ġsimilarly": 6727,
      "Ġgreatly": 6728,
      "HT": 6729,
      "iness": 6730,
      "Ġveloc": 6731,
      "82": 6732,
      "Ġwhom": 6733,
      "Ġharvested": 6734,
      "Ġcaspase": 6735,
      "Ġtheoretical": 6736,
      "ĠCd": 6737,
      "luorescence": 6738,
      "entral": 6739,
      "Ġlimits": 6740,
      "Ġprov": 6741,
      "Ġelucid": 6742,
      "Ġexperimentally": 6743,
      "aine": 6744,
      "Ġvill": 6745,
      "ophren": 6746,
      "Ġcorrection": 6747,
      "ĠGST": 6748,
      "Ġpredictors": 6749,
      "ĠLV": 6750,
      "Ġutilized": 6751,
      "Ġenrich": 6752,
      "ica": 6753,
      "HD": 6754,
      "ls": 6755,
      "Ġemergency": 6756,
      "Ġopposite": 6757,
      "Ġapply": 6758,
      "Ġsometimes": 6759,
      "Ġnitrogen": 6760,
      "isher": 6761,
      "Ġmicrosatell": 6762,
      "Ġplasmids": 6763,
      "Ġdiffered": 6764,
      "Ġmanual": 6765,
      "Ġneurolog": 6766,
      "ĠCG": 6767,
      "Ġdivision": 6768,
      "Ġdischarge": 6769,
      "Ġpresents": 6770,
      "La": 6771,
      "ducing": 6772,
      "Ġdiag": 6773,
      "Ġtakes": 6774,
      "Ġpractical": 6775,
      "Ġcommercial": 6776,
      "Ġsomewhat": 6777,
      "Ġfunctioning": 6778,
      "ĠBP": 6779,
      "87": 6780,
      "Ġliquid": 6781,
      "aching": 6782,
      "Ġneurop": 6783,
      "Ġmyc": 6784,
      "ione": 6785,
      "Ġtranspor": 6786,
      "Ġbinds": 6787,
      "Hi": 6788,
      "ĠMHC": 6789,
      "84": 6790,
      "ĠMulti": 6791,
      "AMP": 6792,
      "ĠCpG": 6793,
      "Ġkg": 6794,
      "essions": 6795,
      "ĠVP": 6796,
      "Ġmodules": 6797,
      "oked": 6798,
      "Ġadolescents": 6799,
      "Ġintroduction": 6800,
      "Ġparalog": 6801,
      "odyn": 6802,
      "igare": 6803,
      "Ġadaptation": 6804,
      "Ġvessels": 6805,
      "ĠGu": 6806,
      "uth": 6807,
      "Ġrabbit": 6808,
      "ĠVari": 6809,
      "Ġagon": 6810,
      "icin": 6811,
      "ĠMa": 6812,
      "AaK": 6813,
      "Ġexchange": 6814,
      "Ġblocked": 6815,
      "onin": 6816,
      "ĠSE": 6817,
      "aden": 6818,
      "Ġmammary": 6819,
      "Ġple": 6820,
      "acr": 6821,
      "Ġsubstitutions": 6822,
      "ND": 6823,
      "Ġcalculation": 6824,
      "Ġmatches": 6825,
      "ĠÃ": 6826,
      "naaBaaale": 6827,
      "ervous": 6828,
      "week": 6829,
      "Ca": 6830,
      "Ġstrom": 6831,
      "ĠAustralia": 6832,
      "/+": 6833,
      "angl": 6834,
      "Ġinterpreted": 6835,
      "feeding": 6836,
      "come": 6837,
      "Ġsole": 6838,
      "Ġoverlapping": 6839,
      "Ġdye": 6840,
      "ĠEqu": 6841,
      "ustry": 6842,
      "Ġspecified": 6843,
      "aque": 6844,
      "Ġmanip": 6845,
      "dra": 6846,
      "Ġcontinue": 6847,
      "Ġeasy": 6848,
      "Ġpollution": 6849,
      "ĠBRCA": 6850,
      "ritic": 6851,
      "Ġbiomark": 6852,
      "Ġengine": 6853,
      "Ġ106": 6854,
      "Ġcumulative": 6855,
      "ĠParticipants": 6856,
      "Ġtranscribed": 6857,
      "arth": 6858,
      "Ġnamely": 6859,
      "ulties": 6860,
      "AGE": 6861,
      "Ġillustrated": 6862,
      "ĠStatistical": 6863,
      "Ġongoing": 6864,
      "Ġdiscrep": 6865,
      "Ġhabit": 6866,
      "tology": 6867,
      "Ġreasonable": 6868,
      "Ġoscill": 6869,
      "ĠQTL": 6870,
      "ĠAnd": 6871,
      "Ġconduct": 6872,
      "Ġancestral": 6873,
      "Ap": 6874,
      "oglobin": 6875,
      "Ġsor": 6876,
      "81": 6877,
      "Ġpregnant": 6878,
      "elt": 6879,
      "Ġconstraints": 6880,
      "tin": 6881,
      "orectal": 6882,
      "Ġsummarized": 6883,
      "Ġpersistent": 6884,
      "Ġirradi": 6885,
      "ĠMedicine": 6886,
      "Ġ250": 6887,
      "oblast": 6888,
      "itect": 6889,
      "Ġchromat": 6890,
      "Ġ85": 6891,
      "Ġhepatic": 6892,
      "ensis": 6893,
      "Ġflies": 6894,
      "Ġprojects": 6895,
      "Ġsib": 6896,
      "Ġdark": 6897,
      "Ġraised": 6898,
      "Ġformer": 6899,
      "psis": 6900,
      "cal": 6901,
      "Ġech": 6902,
      "Ġepisodes": 6903,
      "Ġsen": 6904,
      "phase": 6905,
      "Ġpathological": 6906,
      "Ġflux": 6907,
      "ĠAltern": 6908,
      "Ġcareful": 6909,
      "Ġdemonstrating": 6910,
      "Ġ52": 6911,
      "ĠCare": 6912,
      "Ġenvironments": 6913,
      "Ġrecovered": 6914,
      "idespread": 6915,
      "Ġpancreatic": 6916,
      "ĠSR": 6917,
      "which": 6918,
      "lot": 6919,
      "Ġscheme": 6920,
      "89": 6921,
      "astic": 6922,
      "ĠOb": 6923,
      "Ġmicroscope": 6924,
      "Ġchond": 6925,
      "Ġcough": 6926,
      "Ġdeb": 6927,
      "CAM": 6928,
      "Ġpsychiatric": 6929,
      "immune": 6930,
      "Ġcounted": 6931,
      "Ġepidemic": 6932,
      "Ġarsenic": 6933,
      "Ġnervous": 6934,
      "Ġcorrelate": 6935,
      "linear": 6936,
      "atter": 6937,
      "ometer": 6938,
      "Ġpersist": 6939,
      "Ġvolunte": 6940,
      "ĠPE": 6941,
      "aaaaa": 6942,
      "Ġmodule": 6943,
      "Ġ46": 6944,
      "'.": 6945,
      "Ġparticle": 6946,
      "uly": 6947,
      "Ġfinanc": 6948,
      "ĠNA": 6949,
      "Ġcompl": 6950,
      "yros": 6951,
      "Ġmarrow": 6952,
      "ulture": 6953,
      "ĠEurope": 6954,
      "Ġpractitioners": 6955,
      "Ġprobabilities": 6956,
      "Ġonc": 6957,
      "ogaster": 6958,
      "Ġcompli": 6959,
      "Ġcov": 6960,
      "Ġnecessarily": 6961,
      "Ġsubstrates": 6962,
      "Ġmelanoma": 6963,
      "uries": 6964,
      "Ġsepsis": 6965,
      "Ġproducing": 6966,
      "Ġcatalytic": 6967,
      "ĠDepartment": 6968,
      "ka": 6969,
      "ĠBD": 6970,
      "Ġcandidates": 6971,
      "aves": 6972,
      "Ġhum": 6973,
      "asion": 6974,
      "nals": 6975,
      "Ġbladder": 6976,
      "ĠConsequently": 6977,
      "Ġreduces": 6978,
      "Ġelectrophoresis": 6979,
      "Ġrules": 6980,
      "entis": 6981,
      "Ġantisense": 6982,
      "Ġfix": 6983,
      "Ġkinases": 6984,
      "ĠHz": 6985,
      "Ġbarriers": 6986,
      "ĠOrgan": 6987,
      "analysis": 6988,
      "uls": 6989,
      "Ġgas": 6990,
      "ĠVir": 6991,
      "abs": 6992,
      "andem": 6993,
      "month": 6994,
      "cyc": 6995,
      "iable": 6996,
      "Ġnic": 6997,
      "Ġpotent": 6998,
      "Ġsuperior": 6999,
      "Ġtrunc": 7000,
      "Ġregardless": 7001,
      "Ġintensive": 7002,
      "Ġevol": 7003,
      "ĠJapan": 7004,
      "ĠEm": 7005,
      "Ġrecall": 7006,
      "ought": 7007,
      "Ġschizophren": 7008,
      "lycer": 7009,
      "ĠAnim": 7010,
      "Ġlaw": 7011,
      "ĠMy": 7012,
      "ĠDisease": 7013,
      "Ġnecrosis": 7014,
      "Ġchalleng": 7015,
      "Ġages": 7016,
      "07": 7017,
      "Ġextreme": 7018,
      "ococcus": 7019,
      "Ġadding": 7020,
      "ĠCOPD": 7021,
      "Ġutility": 7022,
      "Ġdelayed": 7023,
      "Ġadherence": 7024,
      "oprecip": 7025,
      "Ġprelim": 7026,
      "Ġmetastases": 7027,
      "aceu": 7028,
      "Ġhomozygous": 7029,
      "Ġcontamin": 7030,
      "Ġexplored": 7031,
      "aqaa": 7032,
      "ĠRNAi": 7033,
      "Ġdependence": 7034,
      "aad": 7035,
      "tention": 7036,
      "Ġwidespread": 7037,
      "Ġmelanogaster": 7038,
      "EK": 7039,
      "Ġlongitudinal": 7040,
      "viruses": 7041,
      "ette": 7042,
      "Ġimproving": 7043,
      "Ġempirical": 7044,
      "-,": 7045,
      "antit": 7046,
      "olip": 7047,
      "romet": 7048,
      "Ġchol": 7049,
      "Ġpreference": 7050,
      "opathy": 7051,
      "Ms": 7052,
      "dep": 7053,
      "Ġstronger": 7054,
      "membrane": 7055,
      "ĠSA": 7056,
      "Ġ99": 7057,
      "Ġcodons": 7058,
      "ditional": 7059,
      "adjusted": 7060,
      "Ġretained": 7061,
      "Ġsera": 7062,
      "Ġdefect": 7063,
      "Ġlungs": 7064,
      "ticular": 7065,
      "Ġexpon": 7066,
      "bral": 7067,
      "Ġevaluating": 7068,
      "sin": 7069,
      "Ġcompet": 7070,
      "Ġperforming": 7071,
      "Ġviability": 7072,
      "ĠCurrent": 7073,
      "Ġemo": 7074,
      "kal": 7075,
      "Ġprolonged": 7076,
      "Ġfores": 7077,
      "hemat": 7078,
      "Ġpathology": 7079,
      "Ġchallenges": 7080,
      "yst": 7081,
      "ĠDue": 7082,
      "Ġpaired": 7083,
      "ulates": 7084,
      "Ġperspective": 7085,
      "LO": 7086,
      "Ġtelephone": 7087,
      "amate": 7088,
      "ĠDA": 7089,
      "ulum": 7090,
      "inine": 7091,
      "Ġcigare": 7092,
      "ucleotide": 7093,
      "Ġarterial": 7094,
      "work": 7095,
      "Ġproportional": 7096,
      "Ġsecreted": 7097,
      "Ġwalking": 7098,
      "ĠSC": 7099,
      "Ġvaluable": 7100,
      "Ġspectra": 7101,
      "vey": 7102,
      "Ġpreliminary": 7103,
      "Ġepidemiological": 7104,
      "Ġtags": 7105,
      "Ġcoupled": 7106,
      "termin": 7107,
      "Ġfunctionally": 7108,
      "Ġmetal": 7109,
      "Ġupd": 7110,
      "ĠNH": 7111,
      "cqqG": 7112,
      "key": 7113,
      "Ġsteady": 7114,
      "Â·": 7115,
      "stance": 7116,
      "Ġrear": 7117,
      "aryn": 7118,
      "Ġfavor": 7119,
      "ptions": 7120,
      "Ġrich": 7121,
      "ĠWhere": 7122,
      "Ġcausing": 7123,
      "Ġextens": 7124,
      "ĠWnt": 7125,
      "Ġquick": 7126,
      "Ġindustry": 7127,
      "Ġoffspring": 7128,
      "Ġexclusively": 7129,
      "hr": 7130,
      "Ġactivate": 7131,
      "ĠEng": 7132,
      "Ġreplaced": 7133,
      "ĠChem": 7134,
      "Ġbond": 7135,
      "Ġhealthcare": 7136,
      "Ġrow": 7137,
      "ĠBiosystems": 7138,
      "bound": 7139,
      "Ġ**": 7140,
      "aten": 7141,
      "Ġcav": 7142,
      "Ġpreferred": 7143,
      "lam": 7144,
      "PAGE": 7145,
      "inator": 7146,
      "Ġmonocytes": 7147,
      "Ġintensities": 7148,
      "ĠClass": 7149,
      "omycin": 7150,
      "Ġclaim": 7151,
      "Ġoverweight": 7152,
      "otstr": 7153,
      "ĠExperim": 7154,
      "ocytosis": 7155,
      "ĠFe": 7156,
      "ologous": 7157,
      "Ġscreened": 7158,
      "GS": 7159,
      "Ġpg": 7160,
      "Ġdifficulties": 7161,
      "http": 7162,
      "lined": 7163,
      "ĠPH": 7164,
      "Ġdifficulty": 7165,
      "Ġspor": 7166,
      "Ġreflected": 7167,
      "mm": 7168,
      "ĠType": 7169,
      "Ġconsiderably": 7170,
      "ump": 7171,
      "idal": 7172,
      "Ġunivers": 7173,
      "Ġ47": 7174,
      "orth": 7175,
      "Ġsegreg": 7176,
      "Ġice": 7177,
      "Ġcovered": 7178,
      "Ġphases": 7179,
      "Ġrace": 7180,
      "ĠEC": 7181,
      "actor": 7182,
      "edded": 7183,
      "itrate": 7184,
      "dose": 7185,
      "Ã©": 7186,
      "ĠCCR": 7187,
      "Ġsynthetic": 7188,
      "Ġdescrip": 7189,
      "::": 7190,
      "rete": 7191,
      "Ġtiming": 7192,
      "utaneous": 7193,
      "ĠMRI": 7194,
      "Mga": 7195,
      "Ġ(>": 7196,
      "ĠDis": 7197,
      "Ġperme": 7198,
      "Ġundert": 7199,
      "Ds": 7200,
      "ĠrRNA": 7201,
      "tra": 7202,
      "Ġcold": 7203,
      "Ġsemi": 7204,
      "Ġoligonucleotide": 7205,
      "Ġmaturation": 7206,
      "Ġethical": 7207,
      "ĠUV": 7208,
      "uvant": 7209,
      "Ġrating": 7210,
      "Ġsession": 7211,
      "Ġcutoff": 7212,
      "Ġinhal": 7213,
      "Ġoccupational": 7214,
      "Med": 7215,
      "ustered": 7216,
      "Ġincreasingly": 7217,
      "entists": 7218,
      "Ġ64": 7219,
      "Ġdetecting": 7220,
      "Ġimmediate": 7221,
      "ĠGenes": 7222,
      "ounc": 7223,
      "ĠSEM": 7224,
      "Ġbases": 7225,
      "ivered": 7226,
      "avy": 7227,
      "Ġdispers": 7228,
      "))": 7229,
      "Ġautomated": 7230,
      "Ġenrolled": 7231,
      "human": 7232,
      "unpublished": 7233,
      "Ġdegrees": 7234,
      "Ġscenario": 7235,
      "Ġbuilding": 7236,
      "oman": 7237,
      "Ġquar": 7238,
      "rey": 7239,
      "Ġharb": 7240,
      "Ġreveals": 7241,
      "Ġcarcinomas": 7242,
      "Ġincorporated": 7243,
      "anta": 7244,
      "Ġphag": 7245,
      "Ġsatisfaction": 7246,
      "Ġmuscles": 7247,
      "Ġprogramme": 7248,
      "ectin": 7249,
      "meaabaqaciaacaGaaeqabaqabeGadaaakeaacqWG": 7250,
      "Ġjournals": 7251,
      "Ġverified": 7252,
      "Ġmyel": 7253,
      "Ġantibiotics": 7254,
      "Ġ56": 7255,
      "Ġneck": 7256,
      "Ġinfluences": 7257,
      "ĠGenBank": 7258,
      "Ġect": 7259,
      "Ġsched": 7260,
      "right": 7261,
      "Ġranges": 7262,
      "Ġwestern": 7263,
      "Ġchanging": 7264,
      "cr": 7265,
      "Ġinside": 7266,
      "sectional": 7267,
      "Ġfrozen": 7268,
      "Ġarchitect": 7269,
      "yte": 7270,
      "Ġhorizontal": 7271,
      "DHD": 7272,
      "obacteria": 7273,
      "Ġregulators": 7274,
      "Ġcritically": 7275,
      "LT": 7276,
      "Ġmt": 7277,
      "Ġactions": 7278,
      "Ġscience": 7279,
      "Ġbip": 7280,
      "Ġpotenti": 7281,
      "Ġfeel": 7282,
      "ulus": 7283,
      "resistant": 7284,
      "Ġmoun": 7285,
      "Se": 7286,
      "Ġground": 7287,
      "ĠEnvironment": 7288,
      "aeGym": 7289,
      "ĠBiot": 7290,
      "Ġends": 7291,
      "orage": 7292,
      "Ġschools": 7293,
      "GR": 7294,
      "head": 7295,
      "ients": 7296,
      "ĠmL": 7297,
      "Ġlabeling": 7298,
      "ximately": 7299,
      "Ġproportions": 7300,
      "Ġproduces": 7301,
      "Ġpilot": 7302,
      "heumat": 7303,
      "ounced": 7304,
      "Ġdecreasing": 7305,
      "Ġaway": 7306,
      "ontin": 7307,
      "Ġsubgroups": 7308,
      "Ġlarvae": 7309,
      "Ġtranspos": 7310,
      "Ġlearn": 7311,
      "Ġendomet": 7312,
      "ĠChrom": 7313,
      "Ġpairwise": 7314,
      "Ġchamber": 7315,
      "ĠTreatment": 7316,
      "Ġweighted": 7317,
      "Ġsays": 7318,
      "copic": 7319,
      "Ġsquare": 7320,
      "Ġvehicle": 7321,
      "Ġbodies": 7322,
      "Ġcharacterize": 7323,
      "Ġultim": 7324,
      "Ġenrichment": 7325,
      "after": 7326,
      "Ġgrouped": 7327,
      "olytic": 7328,
      "Ġbul": 7329,
      "Ġpron": 7330,
      "Ġluciferase": 7331,
      "Ġfibrosis": 7332,
      "GP": 7333,
      "Ġisolate": 7334,
      "ĠWithin": 7335,
      "Ġsplit": 7336,
      "ault": 7337,
      "ĠIN": 7338,
      "iled": 7339,
      "Ġcolorectal": 7340,
      "Ġvirulence": 7341,
      "Ġchose": 7342,
      "ĠIncre": 7343,
      "Ġreplicate": 7344,
      "Ġbootstr": 7345,
      "green": 7346,
      "ĠMCF": 7347,
      "Ġfibr": 7348,
      "Ġimprovements": 7349,
      "ĠNM": 7350,
      "Ġcenters": 7351,
      "CMV": 7352,
      "ias": 7353,
      "oney": 7354,
      "Ġalveolar": 7355,
      "Ġessentially": 7356,
      "Ġutilization": 7357,
      "Ġpurchased": 7358,
      "Ġstring": 7359,
      "Ġrelax": 7360,
      "Ġremove": 7361,
      "Ġ1994": 7362,
      "factor": 7363,
      "Gs": 7364,
      "Ġbranches": 7365,
      "ĠHist": 7366,
      "ĠTE": 7367,
      "ians": 7368,
      "Ġthink": 7369,
      "Ġinters": 7370,
      "Ġremark": 7371,
      "ophage": 7372,
      "Ġresemb": 7373,
      "Ġconstruction": 7374,
      "Ġevolved": 7375,
      "Ġcolonies": 7376,
      "transfer": 7377,
      "methyl": 7378,
      "ĠTat": 7379,
      "ĠThat": 7380,
      "Ġpositives": 7381,
      "Ġsmoke": 7382,
      "Ġbreat": 7383,
      "Ġsought": 7384,
      "amma": 7385,
      "cepts": 7386,
      "Ġaspir": 7387,
      "ĠEl": 7388,
      "independent": 7389,
      "Ġfigures": 7390,
      "Ġwrote": 7391,
      "Ġsituations": 7392,
      "Ġpay": 7393,
      "ĠAM": 7394,
      "ĠRespon": 7395,
      "Ġheterozygous": 7396,
      "Ġexamining": 7397,
      "Ġcentre": 7398,
      "Ġaccurately": 7399,
      "Ġanswer": 7400,
      "orrh": 7401,
      "ĠSix": 7402,
      "Ġfruit": 7403,
      "Ġmonitor": 7404,
      "Ġfarm": 7405,
      "Ġdelivered": 7406,
      "chang": 7407,
      "Ġjob": 7408,
      "Ġsupernatant": 7409,
      "Ġcome": 7410,
      "ucture": 7411,
      "Ġseconds": 7412,
      "Ġclinicians": 7413,
      "jection": 7414,
      "ĠBL": 7415,
      "ĠOut": 7416,
      "Ġhomogen": 7417,
      "Ġpollut": 7418,
      "Ġcodes": 7419,
      "Ġzone": 7420,
      "patitis": 7421,
      "Ġsubtypes": 7422,
      "sim": 7423,
      "oderm": 7424,
      "Ġdiabetic": 7425,
      "oxidase": 7426,
      "Ġsynthesized": 7427,
      "Ġviol": 7428,
      "NN": 7429,
      "igu": 7430,
      "ĠRF": 7431,
      "Ġdeterminants": 7432,
      "jects": 7433,
      "Ġsessions": 7434,
      "Ġgreatest": 7435,
      "Ġbrief": 7436,
      "OT": 7437,
      "Ġunrelated": 7438,
      "âī": 7439,
      "through": 7440,
      "Ġcontacts": 7441,
      "Ġoptions": 7442,
      "ni": 7443,
      "Ġconsistency": 7444,
      "Ġdeviations": 7445,
      "Ġperception": 7446,
      "ĠKit": 7447,
      "Ġinferred": 7448,
      "zyme": 7449,
      "Ġrecurrent": 7450,
      "Ġconversion": 7451,
      "ĠMark": 7452,
      "Ġencodes": 7453,
      "Ġdiscovered": 7454,
      "Ġagarose": 7455,
      "Ġsimilarities": 7456,
      "raz": 7457,
      "Ġgeograph": 7458,
      "...": 7459,
      "Ġtight": 7460,
      "Ġsaid": 7461,
      "Ġcharacterization": 7462,
      "ĠDD": 7463,
      "Ġsubsets": 7464,
      "alled": 7465,
      "Ġassessments": 7466,
      "rophic": 7467,
      "Ġdimin": 7468,
      "Ġunpublished": 7469,
      "Ġneutrophils": 7470,
      "Ġ54": 7471,
      "120": 7472,
      "Ġrandomised": 7473,
      "Ġskeletal": 7474,
      "Ġassumptions": 7475,
      "yk": 7476,
      "ĠTM": 7477,
      "ologist": 7478,
      "Ġrice": 7479,
      "Ġ53": 7480,
      "Ġsocioeconomic": 7481,
      "Ġmedications": 7482,
      "Ġupregulated": 7483,
      "lection": 7484,
      "ĠHRQ": 7485,
      "pH": 7486,
      "Ġinsight": 7487,
      "rophy": 7488,
      "Ġpowerful": 7489,
      "Ġrequirement": 7490,
      "Ġaveraged": 7491,
      "rants": 7492,
      "Ġseason": 7493,
      "Ġpreferen": 7494,
      "Ġaging": 7495,
      "Ġcompliance": 7496,
      "lected": 7497,
      "Ġadenocarcin": 7498,
      "ĠRNAs": 7499,
      "Ġprecip": 7500,
      "Ġaccompan": 7501,
      "Ġsomatic": 7502,
      "ancer": 7503,
      "ĠVi": 7504,
      "Ġbuild": 7505,
      "ĠPan": 7506,
      "emat": 7507,
      "intestinal": 7508,
      "Ġdoctor": 7509,
      "ĠMc": 7510,
      "Ġsignature": 7511,
      "Ġoperation": 7512,
      "Ġasymmet": 7513,
      "Ġbottom": 7514,
      "idation": 7515,
      "Ġprecursor": 7516,
      "ĠSH": 7517,
      "Ġ),": 7518,
      "ĠEPA": 7519,
      "Ġdoub": 7520,
      "Ġexclude": 7521,
      "Ġ120": 7522,
      "Ġclinics": 7523,
      "Ġexperiences": 7524,
      "vo": 7525,
      "Ġtyros": 7526,
      "square": 7527,
      "Wh": 7528,
      "ĠSU": 7529,
      "unately": 7530,
      "Ġelectronic": 7531,
      "review": 7532,
      "ĠMM": 7533,
      "ĠDS": 7534,
      "ĠSte": 7535,
      "Ġtravel": 7536,
      "kt": 7537,
      "ude": 7538,
      "omics": 7539,
      "Ġinjuries": 7540,
      "ARS": 7541,
      "expressed": 7542,
      "Ġdevice": 7543,
      "Ġatom": 7544,
      "Ġdonors": 7545,
      "Ġconstitu": 7546,
      "ĠHeLa": 7547,
      "Ġchest": 7548,
      "Ġgiving": 7549,
      "Ġuncertainty": 7550,
      "ACS": 7551,
      "Ġcirculating": 7552,
      "Ġinserted": 7553,
      "Ġsuppression": 7554,
      "Ġfluor": 7555,
      "Ġphosphorylated": 7556,
      "Ġadaptive": 7557,
      "ĠTR": 7558,
      "Ġvac": 7559,
      "ĠLT": 7560,
      "Ġdimensions": 7561,
      "ĠBayesian": 7562,
      "ogether": 7563,
      "Ġclustered": 7564,
      "Ġmanifest": 7565,
      "mouse": 7566,
      "Ġhold": 7567,
      "ĠTheir": 7568,
      "Ġretros": 7569,
      "points": 7570,
      "Ġcovariates": 7571,
      "Ġventilation": 7572,
      "Ġcamp": 7573,
      "Mca": 7574,
      "Ġdiscrimination": 7575,
      "Ġnursing": 7576,
      "ĠSan": 7577,
      "Ġhypotheses": 7578,
      "from": 7579,
      "syn": 7580,
      "ogenes": 7581,
      "cqaI": 7582,
      "Ġdiagnoses": 7583,
      "col": 7584,
      "Ġlamin": 7585,
      "Ġcontamination": 7586,
      "igm": 7587,
      "ĠAV": 7588,
      "ĠGr": 7589,
      "itoneal": 7590,
      "Ġobstr": 7591,
      "Ġindices": 7592,
      "Ġ105": 7593,
      "ĠGS": 7594,
      "Ġbuilt": 7595,
      "ĠTT": 7596,
      "igue": 7597,
      "Ġcontrac": 7598,
      "Ġinfusion": 7599,
      "Ġ51": 7600,
      "Ġdescribes": 7601,
      "Ġinhibits": 7602,
      "Aa": 7603,
      "Ġclade": 7604,
      "Ġdefic": 7605,
      "Ġsuic": 7606,
      "ĠIniti": 7607,
      "ensitivity": 7608,
      "Ġcycl": 7609,
      "Ġcultiv": 7610,
      "ĠPL": 7611,
      "Ġsynovial": 7612,
      "amental": 7613,
      "Ġflanking": 7614,
      "rown": 7615,
      "hab": 7616,
      ")/": 7617,
      "mp": 7618,
      "itated": 7619,
      "ĠAIDS": 7620,
      "inted": 7621,
      "Ġapplying": 7622,
      "ĠOnce": 7623,
      "ĠNR": 7624,
      "rices": 7625,
      "omb": 7626,
      "Ġefficiently": 7627,
      "ĠJan": 7628,
      "Ġencode": 7629,
      "Ġrhyth": 7630,
      "Ġconfig": 7631,
      "Ġformula": 7632,
      "aqh": 7633,
      "Ġvertical": 7634,
      "Ġprinciple": 7635,
      "Ġlifest": 7636,
      "Ġexclusion": 7637,
      "ĠItal": 7638,
      "ĠPO": 7639,
      "Ġchains": 7640,
      "earson": 7641,
      "Ġaccession": 7642,
      "ails": 7643,
      "Ġcereb": 7644,
      "Ġdimension": 7645,
      "Ġpic": 7646,
      "Ġschizophrenia": 7647,
      "Ġpip": 7648,
      "Ġathe": 7649,
      "ĠBas": 7650,
      "Ġregulator": 7651,
      "Ġsarc": 7652,
      "fs": 7653,
      "Ġacts": 7654,
      "aemyAaK": 7655,
      "ĠSO": 7656,
      "ĠHF": 7657,
      "but": 7658,
      "ĠWil": 7659,
      "Ġmarkedly": 7660,
      "Ġvisible": 7661,
      "Xaqm": 7662,
      "Oaak": 7663,
      "opulation": 7664,
      "Ġtandem": 7665,
      "Ġpure": 7666,
      "Ġcytometry": 7667,
      "Ġresection": 7668,
      "Ġrs": 7669,
      "missions": 7670,
      "isp": 7671,
      "aqp": 7672,
      "ĠAÎ²": 7673,
      "Ġclassical": 7674,
      "Ġsilencing": 7675,
      "Ġvelocity": 7676,
      "Ġoffered": 7677,
      "Ġmer": 7678,
      "ĠTaq": 7679,
      "Ġkinetics": 7680,
      "Ġorthologous": 7681,
      "ĠÎ»": 7682,
      "Ġjournal": 7683,
      "Ġfair": 7684,
      "Ġreactive": 7685,
      "Ġnarrow": 7686,
      "ME": 7687,
      "Ġenvelop": 7688,
      "ĠMut": 7689,
      "ĠMay": 7690,
      "represented": 7691,
      "Ġtechnologies": 7692,
      "ford": 7693,
      "Ġparad": 7694,
      "Ġprogressive": 7695,
      "Ġvisualized": 7696,
      "Ġwithdra": 7697,
      "Ġacad": 7698,
      "ĠIndia": 7699,
      "Ġhouseholds": 7700,
      "Ġcasc": 7701,
      "Ġrig": 7702,
      "Ġpresenting": 7703,
      "inn": 7704,
      "ĠPV": 7705,
      "expressing": 7706,
      "tem": 7707,
      "Ġvas": 7708,
      "Ġcomprised": 7709,
      "une": 7710,
      "Ġexpanded": 7711,
      "ĠHS": 7712,
      "Ġfacility": 7713,
      "Ġgels": 7714,
      "Ġattend": 7715,
      "Ġhepatitis": 7716,
      "Ġperc": 7717,
      "cler": 7718,
      "Ġvertebrate": 7719,
      "Ġinterfer": 7720,
      "ceptor": 7721,
      "ĠFigures": 7722,
      "Ġsoil": 7723,
      "Ġhomogene": 7724,
      "Ġheterogeneous": 7725,
      "ĠmiRNAs": 7726,
      "Ġcompartment": 7727,
      "Ġwebsite": 7728,
      "ris": 7729,
      "Ġundergoing": 7730,
      "PP": 7731,
      "Ġconfounding": 7732,
      "ĠCSF": 7733,
      "Ġborder": 7734,
      "glut": 7735,
      "Ġadvantages": 7736,
      "Ġnet": 7737,
      "ĠLik": 7738,
      "Ġapproval": 7739,
      "Ġcalculations": 7740,
      "Ġcausal": 7741,
      "life": 7742,
      "Ġinteracting": 7743,
      "Ġgastric": 7744,
      "Ġeti": 7745,
      "Ġclean": 7746,
      "Ġrequiring": 7747,
      "ĠAppro": 7748,
      "ze": 7749,
      "Ġast": 7750,
      "Ġ(<": 7751,
      "uctu": 7752,
      "fit": 7753,
      "Ġneonatal": 7754,
      "Ġprost": 7755,
      "Ġrough": 7756,
      "Ġprominent": 7757,
      "Ġcontributions": 7758,
      "org": 7759,
      "ĠCity": 7760,
      "Ġraw": 7761,
      "Ġgenerating": 7762,
      "Ġentered": 7763,
      "Ġinher": 7764,
      "Ġinner": 7765,
      "Ġstrict": 7766,
      "Ġregulating": 7767,
      "Ġcerebral": 7768,
      "Ġaspect": 7769,
      "ĠWhat": 7770,
      "Ġepitope": 7771,
      "Ġsple": 7772,
      "Ġcouns": 7773,
      "Ġinterpret": 7774,
      "ĠServ": 7775,
      "Ġassayed": 7776,
      "ux": 7777,
      "Ġresolved": 7778,
      "Ġhierarchical": 7779,
      "Ġded": 7780,
      "Ġimmunore": 7781,
      "As": 7782,
      "Paq": 7783,
      "Ġ62": 7784,
      "Ġnegatively": 7785,
      "Ġintraven": 7786,
      "Ġchicken": 7787,
      "Ġfelt": 7788,
      "Ġoption": 7789,
      "non": 7790,
      "Ġsustained": 7791,
      "Ġfinancial": 7792,
      "Ġ{": 7793,
      "Ġvaries": 7794,
      "Ġdisse": 7795,
      "tum": 7796,
      "igda": 7797,
      "Ġtrauma": 7798,
      "Ġundertaken": 7799,
      "icking": 7800,
      "Ġheld": 7801,
      "Ġaccompanied": 7802,
      "Ġcongen": 7803,
      "azole": 7804,
      "Ġcolumns": 7805,
      "Ġ49": 7806,
      "Ġredund": 7807,
      "Ġpostoperative": 7808,
      "Ġapparently": 7809,
      "Ġfundamental": 7810,
      "Ġorthologs": 7811,
      "alk": 7812,
      "Ġventral": 7813,
      "Ġabuse": 7814,
      "Ġdry": 7815,
      "Ġattitudes": 7816,
      "ĠChildren": 7817,
      "Ġimplies": 7818,
      "Ġrepress": 7819,
      "rected": 7820,
      "sk": 7821,
      "Ġsupply": 7822,
      "Ġinfarc": 7823,
      "CSF": 7824,
      "Ġultrasound": 7825,
      "uspended": 7826,
      "Ġorganizations": 7827,
      "Ġdefinitions": 7828,
      "transf": 7829,
      "cape": 7830,
      "ĠADHD": 7831,
      "Ġreturned": 7832,
      "avi": 7833,
      "Ġperturb": 7834,
      "tase": 7835,
      "Ġatrial": 7836,
      "ĠSigma": 7837,
      "array": 7838,
      "ĠTH": 7839,
      "ausal": 7840,
      "icial": 7841,
      "DI": 7842,
      "posure": 7843,
      "Ġcow": 7844,
      "Ġarise": 7845,
      "Ġradiotherapy": 7846,
      "ĠERK": 7847,
      "Ġthickness": 7848,
      "grade": 7849,
      "Ġintrinsic": 7850,
      "ancing": 7851,
      "Ġinterested": 7852,
      "Ġmitotic": 7853,
      "Ġacceptable": 7854,
      "utable": 7855,
      "Ġneuron": 7856,
      "Ġcentrifugation": 7857,
      "Ġbiosynthesis": 7858,
      "Ġoil": 7859,
      "ĠTG": 7860,
      "acial": 7861,
      "ellent": 7862,
      "ony": 7863,
      "acchar": 7864,
      "Ġboundaries": 7865,
      "Us": 7866,
      "Ġindust": 7867,
      "Ġwells": 7868,
      "Ġinactivation": 7869,
      "Ġstorage": 7870,
      "adequ": 7871,
      "abaGccq": 7872,
      "CAG": 7873,
      "poss": 7874,
      "max": 7875,
      "Ġfluctu": 7876,
      "Ġgoals": 7877,
      "Ġmagnetic": 7878,
      "infection": 7879,
      "Ġlysates": 7880,
      "ĠEDTA": 7881,
      "Ġpronounced": 7882,
      "Ġequilibrium": 7883,
      "RR": 7884,
      "Ġfinger": 7885,
      "luor": 7886,
      "Ġedge": 7887,
      "ĠModel": 7888,
      "iG": 7889,
      "oL": 7890,
      "Ġperfect": 7891,
      "Ġ58": 7892,
      "Ġcontributing": 7893,
      "Ġhypoxia": 7894,
      "edical": 7895,
      "Ġorganic": 7896,
      "anine": 7897,
      "Ġsubstance": 7898,
      "Ġago": 7899,
      "Ġguide": 7900,
      "Ġdop": 7901,
      "Ġgp": 7902,
      "ĠHy": 7903,
      "Ġnod": 7904,
      "Ġ68": 7905,
      "Ġeosin": 7906,
      "Ġheavy": 7907,
      "Ġblast": 7908,
      "ocytic": 7909,
      "Ġmosquitoes": 7910,
      "ĠShe": 7911,
      "')": 7912,
      "lastic": 7913,
      "hydrogen": 7914,
      "300": 7915,
      "Ġmatrices": 7916,
      "Ġquantification": 7917,
      "Ġsubtr": 7918,
      "Ġunus": 7919,
      "Ġremod": 7920,
      "Ġhighlighted": 7921,
      "ĠTRP": 7922,
      "ried": 7923,
      "ĠNone": 7924,
      "Ġphage": 7925,
      "Ġ66": 7926,
      "ultural": 7927,
      "Ġhomologs": 7928,
      "Ġcentrifuged": 7929,
      "alities": 7930,
      "anth": 7931,
      "fil": 7932,
      "osed": 7933,
      "Ġtolerance": 7934,
      "ĠTI": 7935,
      "emographic": 7936,
      "ivariate": 7937,
      "ĠDevelop": 7938,
      "Ġdepletion": 7939,
      "olate": 7940,
      "oche": 7941,
      "Ġrarely": 7942,
      "CAT": 7943,
      "Ġsalt": 7944,
      "Ġagreed": 7945,
      "igene": 7946,
      "Ġconformation": 7947,
      "ampl": 7948,
      "ĠCAM": 7949,
      "Ġdeletions": 7950,
      "ĠEGFR": 7951,
      "such": 7952,
      "Ġboundary": 7953,
      "Ġborn": 7954,
      "Ġpolyp": 7955,
      "Ġmeeting": 7956,
      "eta": 7957,
      "Ġmicrogl": 7958,
      "Ġanalyzing": 7959,
      "Ġdual": 7960,
      "Ġregen": 7961,
      "Ġgranul": 7962,
      "Ġdriven": 7963,
      "Ġrearrange": 7964,
      "opsies": 7965,
      "Ġbinary": 7966,
      "Ġprevalent": 7967,
      "Ġclearance": 7968,
      "ĠNeu": 7969,
      "oblot": 7970,
      "clonal": 7971,
      "Ġcolony": 7972,
      "Ġsubmitted": 7973,
      "Ġmodest": 7974,
      "affected": 7975,
      "ĠMat": 7976,
      "ĠSamples": 7977,
      "Ġ(-": 7978,
      "ĠProt": 7979,
      "Ġsafe": 7980,
      "aaSbaaSqaaiabd": 7981,
      "Ġresc": 7982,
      "400": 7983,
      "open": 7984,
      "Ġ1993": 7985,
      "Ġmating": 7986,
      "Ġdepos": 7987,
      "wards": 7988,
      "Ġoffers": 7989,
      "ders": 7990,
      "Ġna": 7991,
      "Ġproperty": 7992,
      "Ġduplicate": 7993,
      "Ġbelonging": 7994,
      "Ġtaxa": 7995,
      "phosphate": 7996,
      "Ġextensively": 7997,
      "ĠSpecifically": 7998,
      "ĠSequence": 7999,
      "Ġaid": 8000,
      "Ġcorrected": 8001,
      "iagen": 8002,
      "Ġbarrier": 8003,
      "Ġvulner": 8004,
      "oration": 8005,
      "ashion": 8006,
      "idase": 8007,
      "Ġpredicting": 8008,
      "ĠNCBI": 8009,
      "anese": 8010,
      "NV": 8011,
      "Ġeukaryotes": 8012,
      "Ġcircadian": 8013,
      "antitative": 8014,
      "Ġdispar": 8015,
      "ĠGH": 8016,
      "Ġoriginally": 8017,
      "Ġslope": 8018,
      "Ġadvice": 8019,
      "Ġcity": 8020,
      "Ġenab": 8021,
      "Ġfibers": 8022,
      "Ġpanels": 8023,
      "Ġreconstruction": 8024,
      "ĠTest": 8025,
      "flow": 8026,
      "loaded": 8027,
      "Ġsector": 8028,
      "Ġtransgene": 8029,
      "aped": 8030,
      "Ġadmitted": 8031,
      "idium": 8032,
      "vas": 8033,
      "itol": 8034,
      "ocated": 8035,
      "aled": 8036,
      "Ġharm": 8037,
      "sup": 8038,
      "ĠCE": 8039,
      "vidually": 8040,
      "Ġobject": 8041,
      "Ġarrows": 8042,
      "affin": 8043,
      "ming": 8044,
      "Ġcatheter": 8045,
      "Ġpi": 8046,
      "Ġcentres": 8047,
      "Ġaccounted": 8048,
      "Ġcultural": 8049,
      "ophys": 8050,
      "Ġadopted": 8051,
      "McaP": 8052,
      "Ġzinc": 8053,
      "Ġmarket": 8054,
      "Ġusual": 8055,
      "Ġenable": 8056,
      "Ġtrim": 8057,
      "Ġcorrelates": 8058,
      "Ġretinal": 8059,
      "lings": 8060,
      "Ġds": 8061,
      "inson": 8062,
      "Ġaccessible": 8063,
      "His": 8064,
      "Ġnurse": 8065,
      "actic": 8066,
      "Ġdecades": 8067,
      "inese": 8068,
      "Ġemotional": 8069,
      "ĠAG": 8070,
      "stage": 8071,
      "Ġcontributes": 8072,
      "Ġtyrosine": 8073,
      "Ġfashion": 8074,
      "Ġfourth": 8075,
      "Ġinstruments": 8076,
      "stimulated": 8077,
      "Ġattempts": 8078,
      "Ġlaser": 8079,
      "Ġequations": 8080,
      "Ġelic": 8081,
      "ĠMb": 8082,
      "ĠBlood": 8083,
      "Ġcloning": 8084,
      "Ġproven": 8085,
      "Ġantic": 8086,
      "Ġarb": 8087,
      "Ġhits": 8088,
      "ĠGeneral": 8089,
      "caO": 8090,
      "Ġanest": 8091,
      "Ġgenetically": 8092,
      "Ġcommittee": 8093,
      "oking": 8094,
      "osing": 8095,
      "Ġinterference": 8096,
      "Ġglass": 8097,
      "Ġmutagen": 8098,
      "Ġextend": 8099,
      "Ġdesignated": 8100,
      "ĠDiagn": 8101,
      "aste": 8102,
      "Ġsynchron": 8103,
      "Ġsurviv": 8104,
      "Ġawareness": 8105,
      "aved": 8106,
      "Ġminute": 8107,
      "Ġthresholds": 8108,
      "Ġincomplete": 8109,
      "Ġvast": 8110,
      "Ġdisturb": 8111,
      "erestim": 8112,
      "fortunately": 8113,
      "Ġfine": 8114,
      "ĠSignificant": 8115,
      "sis": 8116,
      "Ġhal": 8117,
      "Ġaberr": 8118,
      "rowth": 8119,
      "panic": 8120,
      "FI": 8121,
      "Ġneighborhood": 8122,
      "Ar": 8123,
      "Ġribosomal": 8124,
      "Ġgir": 8125,
      "reviewed": 8126,
      "iar": 8127,
      "Ġsubsc": 8128,
      "Ġstriking": 8129,
      "ĠBcl": 8130,
      "Ġsurge": 8131,
      "Ġopin": 8132,
      "Ġinver": 8133,
      "âĪĴ/âĪĴ": 8134,
      "uits": 8135,
      "ĠMac": 8136,
      "ĠME": 8137,
      "Ġquad": 8138,
      "Ġframes": 8139,
      "ĠORFs": 8140,
      "Ġsubtype": 8141,
      "Ġpup": 8142,
      "ucas": 8143,
      "usting": 8144,
      "ger": 8145,
      "Ġsearched": 8146,
      "two": 8147,
      "ĠLDL": 8148,
      "Ġdistant": 8149,
      "Ġindividually": 8150,
      "Ġblocking": 8151,
      "Ġvolumes": 8152,
      "Ġadapted": 8153,
      "Ġdisruption": 8154,
      "ĠGM": 8155,
      "omial": 8156,
      "Ġexcellent": 8157,
      "Ġmening": 8158,
      "Ġsaliv": 8159,
      "ush": 8160,
      "Ġpolicies": 8161,
      "local": 8162,
      "itant": 8163,
      "ĠGenome": 8164,
      "ĠSI": 8165,
      "Ġunderestim": 8166,
      "Ġstudying": 8167,
      "ĠThird": 8168,
      "Ġmitochondria": 8169,
      "oint": 8170,
      "DM": 8171,
      "ĠNether": 8172,
      "Ġretin": 8173,
      "ĠIndian": 8174,
      "Ġrevised": 8175,
      "Ġgastrointestinal": 8176,
      "urk": 8177,
      "Ġtransmembrane": 8178,
      "Ġpartly": 8179,
      "plasia": 8180,
      "ĠWest": 8181,
      "hips": 8182,
      "HL": 8183,
      "reas": 8184,
      "att": 8185,
      "Ġspent": 8186,
      "Ġphosphatase": 8187,
      "Ġprofiling": 8188,
      "Ġincons": 8189,
      "ĠMann": 8190,
      "Ġ57": 8191,
      "Ġtemperatures": 8192,
      "Ġaggregation": 8193,
      "Ġmism": 8194,
      "ĠCyt": 8195,
      "ĠHER": 8196,
      "Ġcompletion": 8197,
      "Ġsick": 8198,
      "coprotein": 8199,
      "ĠNetherlands": 8200,
      "omical": 8201,
      "Ġserved": 8202,
      "ustom": 8203,
      "Ġdepth": 8204,
      "Ġelong": 8205,
      "Ġadministr": 8206,
      "aight": 8207,
      "Ġana": 8208,
      "Ġbab": 8209,
      "Ġpartner": 8210,
      "Ġphylogeny": 8211,
      "NOS": 8212,
      "vol": 8213,
      "oming": 8214,
      "ĠJanuary": 8215,
      "Ġ63": 8216,
      "horts": 8217,
      "Ġbootstrap": 8218,
      "Ġinadequ": 8219,
      "Ġinherent": 8220,
      "usive": 8221,
      "ypical": 8222,
      "ura": 8223,
      "Ġdescribing": 8224,
      "ĠLC": 8225,
      "09": 8226,
      "Ġouter": 8227,
      "Ġ|": 8228,
      "deficient": 8229,
      "Ġtendency": 8230,
      "Ġsharing": 8231,
      "IcaO": 8232,
      "omat": 8233,
      "ĠCarl": 8234,
      "Ġmim": 8235,
      "Ġscientists": 8236,
      "Ġreferral": 8237,
      "GenBank": 8238,
      "Ġinsufficient": 8239,
      "Ks": 8240,
      "Ġinstitutions": 8241,
      "tures": 8242,
      "Ġfaster": 8243,
      "adic": 8244,
      "ĠÎ¼L": 8245,
      "Ġlabelled": 8246,
      "changed": 8247,
      "mal": 8248,
      "Ġcys": 8249,
      "Ġretention": 8250,
      "astr": 8251,
      "Ġlysis": 8252,
      "disc": 8253,
      "Ġ(+": 8254,
      "Ġmaintaining": 8255,
      "ĠThose": 8256,
      "Ġhepar": 8257,
      "Ġhapp": 8258,
      "Ġradical": 8259,
      "Ġalbumin": 8260,
      "Ġcomprom": 8261,
      "ĠFisher": 8262,
      "Ġstimulate": 8263,
      "Ġobese": 8264,
      "Ġdigestion": 8265,
      "ĠPe": 8266,
      "ĠEnglish": 8267,
      "amycin": 8268,
      "Ġquantify": 8269,
      "Ġproph": 8270,
      "Ġhosts": 8271,
      "Ġfoot": 8272,
      "ĠICD": 8273,
      "Ġincorporation": 8274,
      "aper": 8275,
      "Ġdramatically": 8276,
      "ait": 8277,
      "Ġworm": 8278,
      "Ġtreating": 8279,
      "Ġviews": 8280,
      "ĠÃħ": 8281,
      "plex": 8282,
      "Ġlifestyle": 8283,
      "ĠIndividual": 8284,
      "Ġconcepts": 8285,
      "ĠDat": 8286,
      "ĠUp": 8287,
      "Ġretrieved": 8288,
      "ciences": 8289,
      "ayer": 8290,
      "ĠHT": 8291,
      "blue": 8292,
      "itz": 8293,
      "ician": 8294,
      "ĠImport": 8295,
      "HI": 8296,
      "Ġmmol": 8297,
      "Ġarchitecture": 8298,
      "Ġthous": 8299,
      "Ġprovision": 8300,
      "Ġpreventing": 8301,
      "ykaK": 8302,
      "UTR": 8303,
      "achment": 8304,
      "iples": 8305,
      "Ġvaccines": 8306,
      "iton": 8307,
      "Ġinactive": 8308,
      "Ġprotect": 8309,
      "Ġrecognize": 8310,
      "Ġsupervised": 8311,
      "Ġcombining": 8312,
      "ĠFive": 8313,
      "Ġworldwide": 8314,
      "ĠGR": 8315,
      "ample": 8316,
      "ĠÎ´": 8317,
      "osine": 8318,
      "olin": 8319,
      "ille": 8320,
      "Ġviewed": 8321,
      "ĠSTAT": 8322,
      "ograms": 8323,
      "Ġconsultation": 8324,
      "acill": 8325,
      "ĠPos": 8326,
      "ĠChinese": 8327,
      "mol": 8328,
      "Ġstock": 8329,
      "Ġassuming": 8330,
      "Ġradio": 8331,
      "ĠÏĩ": 8332,
      "Ġnamed": 8333,
      "Ġpresumably": 8334,
      "Ġfeasible": 8335,
      "DC": 8336,
      "ading": 8337,
      "Ġinten": 8338,
      "itional": 8339,
      "ĠLTR": 8340,
      "Paqk": 8341,
      "yloid": 8342,
      "tise": 8343,
      "bach": 8344,
      "roscler": 8345,
      "Ġintegrity": 8346,
      "ationally": 8347,
      "Ġspind": 8348,
      "Ġcoordinated": 8349,
      "osterone": 8350,
      "Additional": 8351,
      "Ġsheep": 8352,
      "sb": 8353,
      "Ġclimate": 8354,
      "ĠIT": 8355,
      "Ġsmear": 8356,
      "Ġmediate": 8357,
      "ĠET": 8358,
      "henyl": 8359,
      "Ġsay": 8360,
      "Ġmanually": 8361,
      "ĠTw": 8362,
      "Ġjus": 8363,
      "ercury": 8364,
      "ĠEnvironmental": 8365,
      "ĠAssociation": 8366,
      "Ġcass": 8367,
      "Ġpred": 8368,
      "Ġhighlight": 8369,
      "Ġbioinform": 8370,
      "Ġsinus": 8371,
      "Ġpreparations": 8372,
      "Ġdistrict": 8373,
      "ĠAlternatively": 8374,
      "LD": 8375,
      "Ġyellow": 8376,
      "KO": 8377,
      "Ġhydrophobic": 8378,
      "Ġoocytes": 8379,
      "tage": 8380,
      "Ġneurological": 8381,
      "Ġanne": 8382,
      "ĠCNS": 8383,
      "Ġattack": 8384,
      "Ġcoinc": 8385,
      "Ġimmunost": 8386,
      "Ġlimb": 8387,
      "ĠConsid": 8388,
      "Ġancestor": 8389,
      "Ġaqu": 8390,
      "Ġindication": 8391,
      "relation": 8392,
      "aceutical": 8393,
      "Ġinstances": 8394,
      "Ġbegan": 8395,
      "Ġstraight": 8396,
      "ĠState": 8397,
      "Ġviable": 8398,
      "PH": 8399,
      "pair": 8400,
      "Ġdifferentiate": 8401,
      "Ġpneumonia": 8402,
      "Ġpolyclonal": 8403,
      "Ġleukemia": 8404,
      "Ġanticip": 8405,
      "aeiykaK": 8406,
      "urity": 8407,
      "ĠMyc": 8408,
      "Ġforming": 8409,
      "Ġsound": 8410,
      "Ġhex": 8411,
      "Ġlifetime": 8412,
      "Ġpathogenic": 8413,
      "Ġclosed": 8414,
      "wenty": 8415,
      "ochrom": 8416,
      "wal": 8417,
      "ĠART": 8418,
      "Ġmodulation": 8419,
      "aiaaw": 8420,
      "Ġpublications": 8421,
      "etr": 8422,
      "Ġregistered": 8423,
      "AIDS": 8424,
      "ureus": 8425,
      "Ġinsights": 8426,
      "Ġtro": 8427,
      "iment": 8428,
      "ersham": 8429,
      "Ġbiopsies": 8430,
      "iation": 8431,
      "ĠStandard": 8432,
      "ptomatic": 8433,
      "Ġinformative": 8434,
      "Ġsearching": 8435,
      "Ġpicture": 8436,
      "Ġdiscontin": 8437,
      "Ġpeer": 8438,
      "Ġloaded": 8439,
      "Ġantioxid": 8440,
      "Ġflag": 8441,
      "Ġsuspected": 8442,
      "inely": 8443,
      "Ġfatigue": 8444,
      "Ġleaves": 8445,
      "Ġinsurance": 8446,
      "aphase": 8447,
      "Ġvolunteers": 8448,
      "Ġemerging": 8449,
      "ĠPharm": 8450,
      "Ġdrafting": 8451,
      "asts": 8452,
      "Ġmicrotub": 8453,
      "Ġbleeding": 8454,
      "Ġgold": 8455,
      "ĠTwenty": 8456,
      "Ġbreastfeeding": 8457,
      "Ġeggs": 8458,
      "high": 8459,
      "pin": 8460,
      "ashed": 8461,
      "cells": 8462,
      "WT": 8463,
      "Ġregimen": 8464,
      "aker": 8465,
      "Ġspleen": 8466,
      "then": 8467,
      "Ġ67": 8468,
      "âĨĴ": 8469,
      "iral": 8470,
      "Ġcompetition": 8471,
      "opathic": 8472,
      "Ġcohorts": 8473,
      "ophilic": 8474,
      "Ġautomatically": 8475,
      "ikaG": 8476,
      "ĠLaboratories": 8477,
      "tiz": 8478,
      "Ġexogenous": 8479,
      "ĠPearson": 8480,
      "gluc": 8481,
      "Ġmicrosatellite": 8482,
      "ĠEnd": 8483,
      "cm": 8484,
      "Ġyour": 8485,
      "Ġarrange": 8486,
      "Ġblotting": 8487,
      "Ġspermat": 8488,
      "Ġproximity": 8489,
      "Ġangle": 8490,
      "Ġmask": 8491,
      "osity": 8492,
      "Ġ98": 8493,
      "Ġpercentages": 8494,
      "Ġambient": 8495,
      "Ġvenous": 8496,
      "Ġvacu": 8497,
      "Ġcarriers": 8498,
      "Ġapplicable": 8499,
      "etus": 8500,
      "ĠmtDNA": 8501,
      "kary": 8502,
      "Ġcircles": 8503,
      "Pro": 8504,
      "Ġhrs": 8505,
      "Ġplaus": 8506,
      "Ġminimize": 8507,
      "Ġjoints": 8508,
      "Ġillustrates": 8509,
      "Ġtranslocation": 8510,
      "Ġdehydrogen": 8511,
      "Ġattached": 8512,
      "ĠChar": 8513,
      "arest": 8514,
      "esides": 8515,
      "rovers": 8516,
      "report": 8517,
      "Ġ59": 8518,
      "Ġreper": 8519,
      "Ġtables": 8520,
      "Ġresuspended": 8521,
      "Ġscanning": 8522,
      "Ġimmunoprecip": 8523,
      "Ġdiscrete": 8524,
      "ping": 8525,
      "ochrome": 8526,
      "bar": 8527,
      "Ġrot": 8528,
      "gu": 8529,
      "xin": 8530,
      "hematical": 8531,
      "Ġarbitr": 8532,
      "Ġpulse": 8533,
      "Ġdiffusion": 8534,
      "jected": 8535,
      "Ġgaps": 8536,
      "Ġassignment": 8537,
      "Ġnt": 8538,
      "Maee": 8539,
      "Ġrheumat": 8540,
      "ptin": 8541,
      "Ġdemand": 8542,
      "Ġfungal": 8543,
      "Ġfear": 8544,
      "acerb": 8545,
      "aaC": 8546,
      "Ġabsorb": 8547,
      "rometry": 8548,
      "omers": 8549,
      "ago": 8550,
      "ibration": 8551,
      "Ġaureus": 8552,
      "ĠSweden": 8553,
      "lip": 8554,
      "Ġwoman": 8555,
      "Ġthreat": 8556,
      "ĠTaken": 8557,
      "Ġmovements": 8558,
      "aqhaaWcbaG": 8559,
      "site": 8560,
      "%âĢĵ": 8561,
      "Ġchecked": 8562,
      "Ġconcom": 8563,
      "angi": 8564,
      "aeiikaG": 8565,
      "Ġoverexp": 8566,
      "enign": 8567,
      "tiated": 8568,
      "Ġbin": 8569,
      "Ġoccasion": 8570,
      "ĠHC": 8571,
      "ĠDCs": 8572,
      "Ġserine": 8573,
      "Ġmacrophage": 8574,
      "ĠCompared": 8575,
      "ĠConsistent": 8576,
      "Ġembedded": 8577,
      "Ġsel": 8578,
      "Ġregarded": 8579,
      "Ġfif": 8580,
      "arp": 8581,
      "CTG": 8582,
      "Ġpremature": 8583,
      "Ġgamb": 8584,
      "Ġexec": 8585,
      "ĠSubjects": 8586,
      "log": 8587,
      "Ġdistress": 8588,
      "habil": 8589,
      "iR": 8590,
      "Ġacting": 8591,
      "Ġassisted": 8592,
      "akes": 8593,
      "forward": 8594,
      "ester": 8595,
      "Ġgangl": 8596,
      "Ġuncom": 8597,
      "exist": 8598,
      "Ġcomplicated": 8599,
      "Ġlif": 8600,
      "ribution": 8601,
      "Ġconverted": 8602,
      "Ġdiagram": 8603,
      "ulph": 8604,
      "Ġintergenic": 8605,
      "conjugated": 8606,
      "Ġregulates": 8607,
      "AB": 8608,
      "Ġcalls": 8609,
      "ĠPb": 8610,
      "ĠCaucas": 8611,
      "Ġwant": 8612,
      "Ġillustrate": 8613,
      "anges": 8614,
      "Ġadjuvant": 8615,
      "Ġtopology": 8616,
      "Ġpolymorphic": 8617,
      "Ġchoose": 8618,
      "aques": 8619,
      "NR": 8620,
      "ĠMo": 8621,
      "eries": 8622,
      "Ġtriplic": 8623,
      "kelet": 8624,
      "Ġleaf": 8625,
      "ĠNT": 8626,
      "Ġstructured": 8627,
      "ĠZe": 8628,
      "Ġdepicted": 8629,
      "Ġsynth": 8630,
      "Ġvein": 8631,
      "Ġglutamate": 8632,
      "ĠFrance": 8633,
      "gf": 8634,
      "mented": 8635,
      "oplast": 8636,
      "ĠSystems": 8637,
      "RNAs": 8638,
      "ĠNorthern": 8639,
      "Ġpesticides": 8640,
      "panz": 8641,
      "acic": 8642,
      "Ġoperating": 8643,
      "ĠDecember": 8644,
      "Ex": 8645,
      "erating": 8646,
      "Ġacademic": 8647,
      "Ġthermal": 8648,
      "terminus": 8649,
      "ĠChina": 8650,
      "Ġsymmet": 8651,
      "augh": 8652,
      "pat": 8653,
      "ĠId": 8654,
      "Ġ61": 8655,
      "Ġhistopath": 8656,
      "Ġpol": 8657,
      "itary": 8658,
      "Ġvide": 8659,
      "lux": 8660,
      "Ġcomprising": 8661,
      "tte": 8662,
      "oline": 8663,
      "naaBaaaleaacqWG": 8664,
      "Ġcommunic": 8665,
      "Ġinverse": 8666,
      "Ġdental": 8667,
      "stolic": 8668,
      "aldehyde": 8669,
      "Ġmetric": 8670,
      "matic": 8671,
      "Ġresponded": 8672,
      "ĠIndex": 8673,
      "Ġmodern": 8674,
      "Ġprinciples": 8675,
      "Ġideal": 8676,
      "Ġnom": 8677,
      "Ġhip": 8678,
      "rogenic": 8679,
      "ĠHyp": 8680,
      "Ġquantity": 8681,
      "Ġrunning": 8682,
      "species": 8683,
      "infor": 8684,
      "2000": 8685,
      "Ġpromoting": 8686,
      "005": 8687,
      "Ġcontrovers": 8688,
      "ĠNAD": 8689,
      "requency": 8690,
      "orous": 8691,
      "Ġbiologically": 8692,
      "aeGO": 8693,
      "Ġanalytical": 8694,
      "terone": 8695,
      "hyp": 8696,
      "leuk": 8697,
      "Ġworse": 8698,
      "ovirus": 8699,
      "arial": 8700,
      "Ġknockout": 8701,
      "Ġpage": 8702,
      "uclear": 8703,
      "Ġdepri": 8704,
      "Ġtraffic": 8705,
      "urated": 8706,
      "Ġgoat": 8707,
      "Ġpropag": 8708,
      "Ġintended": 8709,
      "Ġpromotion": 8710,
      "Ġexacerb": 8711,
      "Ġruns": 8712,
      "Ġconservative": 8713,
      "Ġprescription": 8714,
      "Ġlimiting": 8715,
      "Ġentirely": 8716,
      "left": 8717,
      "ĠUTR": 8718,
      "Ġretina": 8719,
      "Ġcompati": 8720,
      "ĠSW": 8721,
      "ĠWomen": 8722,
      "ĠMolecular": 8723,
      "ouis": 8724,
      "Ġhazard": 8725,
      "Ġtubes": 8726,
      "Ġdivergent": 8727,
      "Ġartificial": 8728,
      "Ã¯": 8729,
      "+-": 8730,
      "ele": 8731,
      "Ġduc": 8732,
      "score": 8733,
      "Ġclassifier": 8734,
      "Ġanch": 8735,
      "Ġconcentrated": 8736,
      "ĠTri": 8737,
      "using": 8738,
      "ĠHM": 8739,
      "Ġovercome": 8740,
      "aeaacqWG": 8741,
      "PG": 8742,
      "Ġattributable": 8743,
      "Ġscenarios": 8744,
      "ĠFl": 8745,
      "prot": 8746,
      "ompass": 8747,
      "ĠRB": 8748,
      "robial": 8749,
      "Ġdimer": 8750,
      "Applied": 8751,
      "aGaay": 8752,
      "keep": 8753,
      "ĠProb": 8754,
      "health": 8755,
      "Ġcortic": 8756,
      "ĠComp": 8757,
      "Ġallelic": 8758,
      "Ġroutinely": 8759,
      "Ġpoli": 8760,
      "entia": 8761,
      "Ġdesired": 8762,
      "Ġadjusting": 8763,
      "ofluorescence": 8764,
      "acq": 8765,
      "Ġproved": 8766,
      "Ġmutated": 8767,
      "Ġadditive": 8768,
      "Ġhomes": 8769,
      "ania": 8770,
      "Ġprescribed": 8771,
      "Ġcomorb": 8772,
      "ĠGreen": 8773,
      "Ġepitopes": 8774,
      "Ġhomeost": 8775,
      "Ġ293": 8776,
      "vascular": 8777,
      "ĠHep": 8778,
      "Ġagencies": 8779,
      "ĠAnti": 8780,
      "bohydr": 8781,
      "Ġfracture": 8782,
      "process": 8783,
      "ophageal": 8784,
      "ĠPri": 8785,
      "Ġ1991": 8786,
      "Ġemerged": 8787,
      "Ġcustom": 8788,
      "Ġeyes": 8789,
      "UN": 8790,
      "mo": 8791,
      "Ġnutrition": 8792,
      "150": 8793,
      "apol": 8794,
      "effective": 8795,
      "Ġmetabolite": 8796,
      "men": 8797,
      "omon": 8798,
      "Ġlayers": 8799,
      "Ġmicrobial": 8800,
      "td": 8801,
      "ilst": 8802,
      "Ġyields": 8803,
      "Ġprovider": 8804,
      "Ġpromising": 8805,
      "Ġdisplays": 8806,
      "Ġfavour": 8807,
      "An": 8808,
      "rew": 8809,
      "Ġdeal": 8810,
      "standing": 8811,
      "Ġresol": 8812,
      "ectives": 8813,
      "Ġquickly": 8814,
      "ilies": 8815,
      "Ġedges": 8816,
      "umm": 8817,
      "Ġsufficiently": 8818,
      "Ġfulf": 8819,
      "ĠMC": 8820,
      "Ġabstr": 8821,
      "Ġfly": 8822,
      "Ġconstitute": 8823,
      "Ġreflecting": 8824,
      "Ġcoc": 8825,
      "Ġdensities": 8826,
      "ĠBMP": 8827,
      "rands": 8828,
      "Ġexperts": 8829,
      "Ġhelix": 8830,
      "ĠTS": 8831,
      "Ġconnections": 8832,
      "Ġdot": 8833,
      "Ã¯ve": 8834,
      "Ġtrache": 8835,
      "Ġencompass": 8836,
      "Ġangiogenesis": 8837,
      "Ġrepression": 8838,
      "ĠcAMP": 8839,
      "Ġdefining": 8840,
      "Ġspecimen": 8841,
      "Ġpercenti": 8842,
      "ĠRR": 8843,
      "aeiikaGI": 8844,
      "pes": 8845,
      "aaG": 8846,
      "Ġmotility": 8847,
      "Ġentries": 8848,
      "ipped": 8849,
      "Ġpreventive": 8850,
      "Ġatheroscler": 8851,
      "romy": 8852,
      "rele": 8853,
      "Ġdecided": 8854,
      "Ġresponsiveness": 8855,
      "ĠUnfortunately": 8856,
      "Ġcytotoxic": 8857,
      "ĠMultiple": 8858,
      "GD": 8859,
      "Ġobst": 8860,
      "Ġethics": 8861,
      "ĠTC": 8862,
      "ĠGe": 8863,
      "Ġdigested": 8864,
      "inder": 8865,
      "Ġoffic": 8866,
      "iguous": 8867,
      "ĠDifferences": 8868,
      "Sm": 8869,
      "sensitive": 8870,
      "odynamic": 8871,
      "Ġmoving": 8872,
      "Ġbiotin": 8873,
      "Ġobjects": 8874,
      "Ġgenomics": 8875,
      "Ġdramatic": 8876,
      "ĠEast": 8877,
      "ewise": 8878,
      "Ġpriority": 8879,
      "ĠCMV": 8880,
      "etric": 8881,
      "ĠLouis": 8882,
      "ĠâĢĺ": 8883,
      "ĠmmHg": 8884,
      "MgaP": 8885,
      "water": 8886,
      "Ġbenign": 8887,
      "Ġcontraction": 8888,
      "Ġcategorized": 8889,
      "Ġfoci": 8890,
      "Ġ(\"": 8891,
      "Ġdepartment": 8892,
      "Ġtun": 8893,
      "ĠHIF": 8894,
      "Ġ97": 8895,
      "ĠCDC": 8896,
      "oses": 8897,
      "Ġconnectivity": 8898,
      "ĠNE": 8899,
      "Ġagar": 8900,
      "Ġcaptured": 8901,
      "Ġvaginal": 8902,
      "Ġsupernatants": 8903,
      "ticles": 8904,
      "Ġimmunoblot": 8905,
      "Ġsensitiz": 8906,
      "ĠSurvey": 8907,
      "Ġstratified": 8908,
      "Ġpediatric": 8909,
      "Ġpesticide": 8910,
      "habilitation": 8911,
      "Ġlipoprotein": 8912,
      "Ġtranslated": 8913,
      "visions": 8914,
      "Ġbeads": 8915,
      "Ġapart": 8916,
      "itin": 8917,
      "ĠcDNAs": 8918,
      "Ġenvelope": 8919,
      "ĠEF": 8920,
      "ĠQual": 8921,
      "Ġperi": 8922,
      "abaW": 8923,
      "Ġlaboratories": 8924,
      "Ġattempted": 8925,
      "Ġnotion": 8926,
      "Ġcharge": 8927,
      "Ġsuspension": 8928,
      "Ġsuperfamily": 8929,
      "Ġultimately": 8930,
      "ysis": 8931,
      "Ġpreferences": 8932,
      "Ġsurfaces": 8933,
      "Ġbiased": 8934,
      "We": 8935,
      "carb": 8936,
      "itors": 8937,
      "ĠGTP": 8938,
      "aign": 8939,
      "Ġgenerations": 8940,
      "Ġsystematically": 8941,
      "ĠPublic": 8942,
      "Ġgirls": 8943,
      "Ġabsorption": 8944,
      "Ġfoods": 8945,
      "Ġisland": 8946,
      "gesterone": 8947,
      "Ġfiltered": 8948,
      "ĠcM": 8949,
      "Ġmobility": 8950,
      "ĠDo": 8951,
      "ymal": 8952,
      "omestic": 8953,
      "ĠMex": 8954,
      "essation": 8955,
      "ĠStudent": 8956,
      "Ġthin": 8957,
      "Ġdendritic": 8958,
      "Ġdehydrogenase": 8959,
      "Ġsteroid": 8960,
      "aaabaG": 8961,
      "ĠIM": 8962,
      "Ġorganized": 8963,
      "olid": 8964,
      "dens": 8965,
      "stained": 8966,
      "ĠSB": 8967,
      "ophosph": 8968,
      "rocyte": 8969,
      "ĠHDL": 8970,
      "comp": 8971,
      "amous": 8972,
      "Ġdigital": 8973,
      "Ġstret": 8974,
      "Ġinequ": 8975,
      "ĠAsian": 8976,
      "advant": 8977,
      "ĠConversely": 8978,
      "Ġopportunities": 8979,
      "Ġbeg": 8980,
      "served": 8981,
      "Ġreconstruc": 8982,
      "ĠWork": 8983,
      "ĠReview": 8984,
      "Ġcloser": 8985,
      "ĠLaboratory": 8986,
      "box": 8987,
      "Ġconj": 8988,
      "hetical": 8989,
      "Ġwashing": 8990,
      "ptember": 8991,
      "Ġglands": 8992,
      "Ġdevices": 8993,
      "Ġglycos": 8994,
      "ĠLOD": 8995,
      "Ġdefault": 8996,
      "know": 8997,
      "Ġ(~": 8998,
      "Ġign": 8999,
      "Ġgeographical": 9000,
      "Ġheparin": 9001,
      "Ag": 9002,
      "rig": 9003,
      "ara": 9004,
      "Ġlocally": 9005,
      "Ġserial": 9006,
      "Ġprevented": 9007,
      "itus": 9008,
      "Ġimmunos": 9009,
      "Ġfitted": 9010,
      "Ġlac": 9011,
      "apopt": 9012,
      "ĠNext": 9013,
      "ĠCommun": 9014,
      "Ġconcerned": 9015,
      "ibilities": 9016,
      "domain": 9017,
      "cons": 9018,
      "itney": 9019,
      "ĠCentral": 9020,
      "step": 9021,
      "Ġglycer": 9022,
      "Ġcompan": 9023,
      "ĠRho": 9024,
      "Ġ1992": 9025,
      "1000": 9026,
      "BB": 9027,
      "Ġbus": 9028,
      "lective": 9029,
      "Ġagric": 9030,
      "Ġrotation": 9031,
      "ĠTax": 9032,
      "Ġcoded": 9033,
      "Ġenzymatic": 9034,
      "Ġcessation": 9035,
      "endit": 9036,
      "Ġapical": 9037,
      "Ġcoordinates": 9038,
      "Ġunexpected": 9039,
      "ĠAI": 9040,
      "Ġexactly": 9041,
      "Ġcysteine": 9042,
      "Ġoxidation": 9043,
      "Ġuterine": 9044,
      "ĠYork": 9045,
      "PE": 9046,
      "abase": 9047,
      "path": 9048,
      "Ġfilled": 9049,
      "ĠPf": 9050,
      "Ġequip": 9051,
      "ĠOp": 9052,
      "Ġinducing": 9053,
      "ĠOD": 9054,
      "Ġvertebrates": 9055,
      "Ġmeaningful": 9056,
      "Ġvar": 9057,
      "Ġestimating": 9058,
      "ĠTechn": 9059,
      "ĠBC": 9060,
      "Ġeventually": 9061,
      "ĠNIH": 9062,
      "Ġranked": 9063,
      "Ġmathematical": 9064,
      "ĠMDA": 9065,
      "ĠDE": 9066,
      "ĠIU": 9067,
      "ĠInstead": 9068,
      "Ġhistor": 9069,
      "ococcal": 9070,
      "omorph": 9071,
      "Ġvessel": 9072,
      "Me": 9073,
      "Ġtransmitted": 9074,
      "ĠArg": 9075,
      "Ġtopic": 9076,
      "exposed": 9077,
      "Ġreinfor": 9078,
      "ĠHg": 9079,
      "Ġconceptual": 9080,
      "Ġdiffers": 9081,
      "Ġlarval": 9082,
      "+,": 9083,
      "Ġsolely": 9084,
      "ĠGAP": 9085,
      "Ġprescrib": 9086,
      "vasive": 9087,
      "otropic": 9088,
      "ken": 9089,
      "Ġforces": 9090,
      "ĠHow": 9091,
      "encephal": 9092,
      "aceae": 9093,
      "Ġselecting": 9094,
      "ĠValues": 9095,
      "ĠBiosciences": 9096,
      "orrect": 9097,
      "Ġstain": 9098,
      "ĠInd": 9099,
      "ĠRNase": 9100,
      "ĠGy": 9101,
      "Ġplanned": 9102,
[...]
